{
  "version": "1.0",
  "truncation": null,
  "padding": null,
  "added_tokens": [
    {
      "id": 0,
      "content": "<unk>",
      "single_word": false,
      "lstrip": false,
      "rstrip": false,
      "normalized": false,
      "special": true
    },
    {
      "id": 1,
      "content": "<s>",
      "single_word": false,
      "lstrip": false,
      "rstrip": false,
      "normalized": false,
      "special": true
    },
    {
      "id": 2,
      "content": "</s>",
      "single_word": false,
      "lstrip": false,
      "rstrip": false,
      "normalized": false,
      "special": true
    }
  ],
  "normalizer": null,
  "pre_tokenizer": {
    "type": "ByteLevel",
    "add_prefix_space": false,
    "trim_offsets": true,
    "use_regex": true
  },
  "post_processor": null,
  "decoder": {
    "type": "ByteLevel",
    "add_prefix_space": true,
    "trim_offsets": true,
    "use_regex": true
  },
  "model": {
    "type": "BPE",
    "dropout": null,
    "unk_token": null,
    "continuing_subword_prefix": null,
    "end_of_word_suffix": null,
    "fuse_unk": false,
    "byte_fallback": false,
    "ignore_merges": false,
    "vocab": {
      "<unk>": 0,
      "<s>": 1,
      "</s>": 2,
      "!": 3,
      "\"": 4,
      "#": 5,
      "$": 6,
      "%": 7,
      "&": 8,
      "'": 9,
      "(": 10,
      ")": 11,
      "*": 12,
      "+": 13,
      ",": 14,
      "-": 15,
      ".": 16,
      "/": 17,
      "0": 18,
      "1": 19,
      "2": 20,
      "3": 21,
      "4": 22,
      "5": 23,
      "6": 24,
      "7": 25,
      "8": 26,
      "9": 27,
      ":": 28,
      ";": 29,
      "<": 30,
      "=": 31,
      ">": 32,
      "?": 33,
      "@": 34,
      "A": 35,
      "B": 36,
      "C": 37,
      "D": 38,
      "E": 39,
      "F": 40,
      "G": 41,
      "H": 42,
      "I": 43,
      "J": 44,
      "K": 45,
      "L": 46,
      "M": 47,
      "N": 48,
      "O": 49,
      "P": 50,
      "Q": 51,
      "R": 52,
      "S": 53,
      "T": 54,
      "U": 55,
      "V": 56,
      "W": 57,
      "X": 58,
      "Y": 59,
      "Z": 60,
      "[": 61,
      "\\": 62,
      "]": 63,
      "^": 64,
      "_": 65,
      "`": 66,
      "a": 67,
      "b": 68,
      "c": 69,
      "d": 70,
      "e": 71,
      "f": 72,
      "g": 73,
      "h": 74,
      "i": 75,
      "j": 76,
      "k": 77,
      "l": 78,
      "m": 79,
      "n": 80,
      "o": 81,
      "p": 82,
      "q": 83,
      "r": 84,
      "s": 85,
      "t": 86,
      "u": 87,
      "v": 88,
      "w": 89,
      "x": 90,
      "y": 91,
      "z": 92,
      "{": 93,
      "|": 94,
      "}": 95,
      "~": 96,
      "¡": 97,
      "¢": 98,
      "£": 99,
      "¤": 100,
      "¥": 101,
      "¦": 102,
      "§": 103,
      "¨": 104,
      "©": 105,
      "ª": 106,
      "«": 107,
      "¬": 108,
      "®": 109,
      "¯": 110,
      "°": 111,
      "±": 112,
      "²": 113,
      "³": 114,
      "´": 115,
      "µ": 116,
      "¶": 117,
      "·": 118,
      "¸": 119,
      "¹": 120,
      "º": 121,
      "»": 122,
      "¼": 123,
      "½": 124,
      "¾": 125,
      "¿": 126,
      "À": 127,
      "Á": 128,
      "Â": 129,
      "Ã": 130,
      "Ä": 131,
      "Å": 132,
      "Æ": 133,
      "Ç": 134,
      "È": 135,
      "É": 136,
      "Ê": 137,
      "Ë": 138,
      "Ì": 139,
      "Í": 140,
      "Î": 141,
      "Ï": 142,
      "Ð": 143,
      "Ñ": 144,
      "Ò": 145,
      "Ó": 146,
      "Ô": 147,
      "Õ": 148,
      "Ö": 149,
      "×": 150,
      "Ø": 151,
      "Ù": 152,
      "Ú": 153,
      "Û": 154,
      "Ü": 155,
      "Ý": 156,
      "Þ": 157,
      "ß": 158,
      "à": 159,
      "á": 160,
      "â": 161,
      "ã": 162,
      "ä": 163,
      "å": 164,
      "æ": 165,
      "ç": 166,
      "è": 167,
      "é": 168,
      "ê": 169,
      "ë": 170,
      "ì": 171,
      "í": 172,
      "î": 173,
      "ï": 174,
      "ð": 175,
      "ñ": 176,
      "ò": 177,
      "ó": 178,
      "ô": 179,
      "õ": 180,
      "ö": 181,
      "÷": 182,
      "ø": 183,
      "ù": 184,
      "ú": 185,
      "û": 186,
      "ü": 187,
      "ý": 188,
      "þ": 189,
      "ÿ": 190,
      "Ā": 191,
      "ā": 192,
      "Ă": 193,
      "ă": 194,
      "Ą": 195,
      "ą": 196,
      "Ć": 197,
      "ć": 198,
      "Ĉ": 199,
      "ĉ": 200,
      "Ċ": 201,
      "ċ": 202,
      "Č": 203,
      "č": 204,
      "Ď": 205,
      "ď": 206,
      "Đ": 207,
      "đ": 208,
      "Ē": 209,
      "ē": 210,
      "Ĕ": 211,
      "ĕ": 212,
      "Ė": 213,
      "ė": 214,
      "Ę": 215,
      "ę": 216,
      "Ě": 217,
      "ě": 218,
      "Ĝ": 219,
      "ĝ": 220,
      "Ğ": 221,
      "ğ": 222,
      "Ġ": 223,
      "ġ": 224,
      "Ģ": 225,
      "ģ": 226,
      "Ĥ": 227,
      "ĥ": 228,
      "Ħ": 229,
      "ħ": 230,
      "Ĩ": 231,
      "ĩ": 232,
      "Ī": 233,
      "ī": 234,
      "Ĭ": 235,
      "ĭ": 236,
      "Į": 237,
      "į": 238,
      "İ": 239,
      "ı": 240,
      "Ĳ": 241,
      "ĳ": 242,
      "Ĵ": 243,
      "ĵ": 244,
      "Ķ": 245,
      "ķ": 246,
      "ĸ": 247,
      "Ĺ": 248,
      "ĺ": 249,
      "Ļ": 250,
      "ļ": 251,
      "Ľ": 252,
      "ľ": 253,
      "Ŀ": 254,
      "ŀ": 255,
      "Ł": 256,
      "ł": 257,
      "Ń": 258,
      "ãģ": 259,
      "ãĥ": 260,
      "ãĤ": 261,
      "ãĢ": 262,
      "ãģ®": 263,
      "ãĢģ": 264,
      "ãĥ¼": 265,
      "ï¼": 266,
      "ãģ«": 267,
      "ãĢĤ": 268,
      "ãģŁ": 269,
      "ãĥ³": 270,
      "ãĤĭ": 271,
      "ãģ¯": 272,
      "ãĤĴ": 273,
      "ãģ¨": 274,
      "å¹": 275,
      "ãģĹ": 276,
      "æľ": 277,
      "å¹´": 278,
      "ãģ§": 279,
      "ãģ¦": 280,
      "ä¸": 281,
      "ãģĦ": 282,
      "ãģĮ": 283,
      "ãĤ¹": 284,
      "ãĥ«": 285,
      "ï¼Ī": 286,
      "ï¼ī": 287,
      "ãĤĮ": 288,
      "ãĥ»": 289,
      "æĹ": 290,
      "ãģª": 291,
      "äº": 292,
      "ãĥ¼ãĥ": 293,
      "çĶ": 294,
      "ãĤ¤": 295,
      "å¤": 296,
      "æĹ¥": 297,
      "20": 298,
      "åħ": 299,
      "ãĥª": 300,
      "ãĤ¢": 301,
      "ãĥĪ": 302,
      "ãĥ©": 303,
      "æľĪ": 304,
      "å®": 305,
      "åı": 306,
      "åĲ": 307,
      "ãģĭ": 308,
      "åŃ": 309,
      "ä½": 310,
      "ãĤī": 311,
      "ãģ£": 312,
      "ãĤ¯": 313,
      "ãĥĥ": 314,
      "ãģķ": 315,
      "ãĤĬ": 316,
      "ä»": 317,
      "åĪ": 318,
      "ãģĤ": 319,
      "ãģĻ": 320,
      "ãģĹãģ¦": 321,
      "åĽ": 322,
      "ãĤ·": 323,
      "19": 324,
      "Ġ-": 325,
      "ãģĵ": 326,
      "éĢ": 327,
      "ãĥ³ãĥ": 328,
      "ãĢĮ": 329,
      "ãĢį": 330,
      "ãĤĤ": 331,
      "è¡": 332,
      "éĸ": 333,
      "ãģ®å": 334,
      "ãģĹãģŁ": 335,
      "ãĤ¿": 336,
      "ãģķãĤĮ": 337,
      "éģ": 338,
      "ãģ®æ": 339,
      "ãĥ¬": 340,
      "ãĤ¸": 341,
      "æĿ": 342,
      "å¤§": 343,
      "ä¼": 344,
      "201": 345,
      "æĸ": 346,
      "ãĥķ": 347,
      "ãģĻãĤĭ": 348,
      "è¨": 349,
      "åŃ¦": 350,
      "æĪ": 351,
      "ãģĨ": 352,
      "ãĥŃ": 353,
      "éĥ": 354,
      "ãģ¾": 355,
      "ãģ£ãģŁ": 356,
      "çµ": 357,
      "ãĤ«": 358,
      "ãĤĪ": 359,
      "åľ": 360,
      "ãĤ£": 361,
      "äºº": 362,
      "å¸": 363,
      "ãģĦãĤĭ": 364,
      "å¾": 365,
      "å±": 366,
      "æī": 367,
      "åĭ": 368,
      "æľ¬": 369,
      "ãĤ°": 370,
      "æŃ": 371,
      "å½": 372,
      "ãģĤãĤĭ": 373,
      "ãĥĨ": 374,
      "å°": 375,
      "ãģĭãĤī": 376,
      "çĽ": 377,
      "æĺ": 378,
      "çĻ": 379,
      "ãĤģ": 380,
      "ãģį": 381,
      "ãģı": 382,
      "åĩ": 383,
      "åį": 384,
      "å·": 385,
      "è¦": 386,
      "ãĤª": 387,
      "æĽ": 388,
      "åĮ": 389,
      "åº": 390,
      "ãĢİ": 391,
      "ãĢı": 392,
      "ãĥŀ": 393,
      "ãĤ³": 394,
      "ãĥī": 395,
      "èª": 396,
      "çī": 397,
      "éĩ": 398,
      "æķ": 399,
      "åĬ": 400,
      "ãĥĹ": 401,
      "ãĤ¦": 402,
      "åĩº": 403,
      "ä¼ļ": 404,
      "ä¸Ń": 405,
      "ãĥ¥": 406,
      "ä½ľ": 407,
      "åł": 408,
      "ãĥ£": 409,
      "ãģĳ": 410,
      "ãĥ¡": 411,
      "ãĤµ": 412,
      "ãĤĴæ": 413,
      "ãĥĲ": 414,
      "åĽ½": 415,
      "ãģ£ãģ¦": 416,
      "ãĥĩ": 417,
      "ç·": 418,
      "ãģĿ": 419,
      "ãģĬ": 420,
      "æł": 421,
      "ï¼ļ": 422,
      "ä¸Ģ": 423,
      "ãĥĭ": 424,
      "å¼": 425,
      "ãģĵãģ¨": 426,
      "éĽ": 427,
      "ãĥĸ": 428,
      "ç«": 429,
      "ãĤ¨": 430,
      "ç´": 431,
      "ãĤŃ": 432,
      "æ¥": 433,
      "éĻ": 434,
      "æĻ": 435,
      "æ°": 436,
      "ç§": 437,
      "è¡Į": 438,
      "ãģ¤": 439,
      "å¯": 440,
      "æĶ": 441,
      "çķ": 442,
      "èĢ": 443,
      "ç¤": 444,
      "éĥ¨": 445,
      "åĨ": 446,
      "ãĥł": 447,
      "ãĤº": 448,
      "å¥": 449,
      "ç¬": 450,
      "è»": 451,
      "ãĥĵ": 452,
      "çĶŁ": 453,
      "ãĥĬ": 454,
      "ãģķãĤĮãģŁ": 455,
      "ãĤĦ": 456,
      "è©": 457,
      "åŃĲ": 458,
      "ãĥģ": 459,
      "åī": 460,
      "ãĤĵ": 461,
      "ãģ§ãģĤãĤĭ": 462,
      "çĻº": 463,
      "ãģ¨ãģĹãģ¦": 464,
      "ä¿": 465,
      "çľ": 466,
      "ãģĦãģŁ": 467,
      "ç¬¬": 468,
      "å£": 469,
      "ä»£": 470,
      "ãĤ§": 471,
      "åĲĪ": 472,
      "||": 473,
      "ãĥ¼ãĥ«": 474,
      "ãģĪ": 475,
      "ãĤı": 476,
      "ĠĊ": 477,
      "å¸Ĥ": 478,
      "åł´": 479,
      "ä¸Ĭ": 480,
      "ãĥŁ": 481,
      "åĵ": 482,
      "æĻĤ": 483,
      "åľ°": 484,
      "ķ·": 485,
      "ãģ¡": 486,
      "åĲĮ": 487,
      "æµ": 488,
      "éķ·": 489,
      "æ²": 490,
      "éĸĭ": 491,
      "ãģ§ãģ¯": 492,
      "10": 493,
      "çĶ°": 494,
      "ç¤¾": 495,
      "éļ": 496,
      "åĲį": 497,
      "ãĤ¹ãĥĪ": 498,
      "ãģł": 499,
      "ãģ©": 500,
      "ãĥĥãĤ¯": 501,
      "ãĥ§": 502,
      "èĢħ": 503,
      "æĪ¦": 504,
      "èĩ": 505,
      "è³": 506,
      "ãģ«ãģ¯": 507,
      "ãĥªãĥ¼": 508,
      "æĪĲ": 509,
      "å¿": 510,
      "ãģ«ãĤĪ": 511,
      "äºĭ": 512,
      "é«": 513,
      "æĿ±": 514,
      "ãĥĳ": 515,
      "æ¼": 516,
      "ãģ¦ãģĦãĤĭ": 517,
      "éĸĵ": 518,
      "åĳ": 519,
      "ãģ¨ãģª": 520,
      "æĹ¥æľ¬": 521,
      "æ³": 522,
      "çļ": 523,
      "å¾Į": 524,
      "ãĥ³ãĤ°": 525,
      "ç¥": 526,
      "å±±": 527,
      "é«ĺ": 528,
      "æ¥Ń": 529,
      "ç«ĭ": 530,
      "æīĭ": 531,
      "åĪĨ": 532,
      "åŁ": 533,
      "200": 534,
      "ãģ¿": 535,
      "çĶ¨": 536,
      "æĢ": 537,
      "ç¾": 538,
      "Ġ(": 539,
      "æ´": 540,
      "å®ļ": 541,
      "ãģ®è": 542,
      "æ¸": 543,
      "ãĤ»": 544,
      "ãĤ¿ãĥ¼": 545,
      "çŁ": 546,
      "ãĤīãĤĮ": 547,
      "éĿ": 548,
      "çĲ": 549,
      "ãĥ¼ãĥĪ": 550,
      "æīĢ": 551,
      "æł¡": 552,
      "éģ¸": 553,
      "åħ¥": 554,
      "ãĥĥãĥĪ": 555,
      "èĪ": 556,
      "ç©": 557,
      "ä¹": 558,
      "ãĥĢ": 559,
      "éł": 560,
      "æ¼Ķ": 561,
      "èŃ": 562,
      "ãĥĻ": 563,
      "è¡¨": 564,
      "ãĥı": 565,
      "çļĦ": 566,
      "è£": 567,
      "åĽŀ": 568,
      "er": 569,
      "ãĤ¬": 570,
      "èĩª": 571,
      "å®¶": 572,
      "ãģªãģĦ": 573,
      "åħ¬": 574,
      "åĭķ": 575,
      "æĸ°": 576,
      "ãĥ³ãĥī": 577,
      "è²": 578,
      "åĴ": 579,
      "12": 580,
      "çĽ®": 581,
      "çī©": 582,
      "åīį": 583,
      "æĽ²": 584,
      "çİ": 585,
      "åĪĿ": 586,
      "ä¸»": 587,
      "å°ı": 588,
      "an": 589,
      "æĮ": 590,
      "çı": 591,
      "è¿": 592,
      "åİ": 593,
      "ãĥ©ãĤ¤": 594,
      "éģĵ": 595,
      "çĶ»": 596,
      "ãĥ¢": 597,
      "å·Ŀ": 598,
      "æĬ": 599,
      "æ¨": 600,
      "ãĤ½": 601,
      "ãĥ³ãĥĪ": 602,
      "å§": 603,
      "18": 604,
      "åĴĮ": 605,
      "ä¸ĸ": 606,
      "ãģĽ": 607,
      "éĢļ": 608,
      "ä¸ĭ": 609,
      "è¨Ń": 610,
      "çľĮ": 611,
      "ãĤ¡": 612,
      "Ġ19": 613,
      "æİ": 614,
      "ãģĺ": 615,
      "æ©": 616,
      "æ±": 617,
      "ãģŁãĤģ": 618,
      "11": 619,
      "çı¾": 620,
      "åħ¨": 621,
      "ãģĹãģ¦ãģĦãĤĭ": 622,
      "åĨħ": 623,
      "ä½į": 624,
      "ãĥ´": 625,
      "ãĥĿ": 626,
      "ãĥį": 627,
      "ä½ĵ": 628,
      "ä¾": 629,
      "ãĥ¼ãĥł": 630,
      "ãĢĢ": 631,
      "ãģªãģ©": 632,
      "æľĢ": 633,
      "ç¶": 634,
      "æĺİ": 635,
      "ãĥ¯": 636,
      "éĩİ": 637,
      "ãĤ·ãĥ§": 638,
      "in": 639,
      "å¤§åŃ¦": 640,
      "ãĥ¼ãĥī": 641,
      "ãĤ±": 642,
      "ãģ¸": 643,
      "é¡": 644,
      "ãĥİ": 645,
      "éŁ": 646,
      "æĸĩ": 647,
      "è¨ĺ": 648,
      "æĦ": 649,
      "å³": 650,
      "ãĥ¥ãĥ¼": 651,
      "å¹³": 652,
      "çĶº": 653,
      "å½ĵ": 654,
      "åĤ": 655,
      "ãĥľ": 656,
      "åĮĸ": 657,
      "èº": 658,
      "éĸ¢": 659,
      "ãģĦãģ¦": 660,
      "äº¬": 661,
      "on": 662,
      "ãĥĨãĤ£": 663,
      "ãģ°": 664,
      "çĲĨ": 665,
      "çŃ": 666,
      "çł": 667,
      "æŀ": 668,
      "ãģ«ãģª": 669,
      "å¥³": 670,
      "ãģ¨ãģĦ": 671,
      "åħĥ": 672,
      "æķĻ": 673,
      "ãĤĪãģĨ": 674,
      "å²": 675,
      "åĭĿ": 676,
      "ä»¥": 677,
      "æĽ¸": 678,
      "æĿĳ": 679,
      "ãģ§ãģĤ": 680,
      "ç¨": 681,
      "è¦ĭ": 682,
      "å¯¾": 683,
      "ĠS": 684,
      "åĵ¡": 685,
      "00": 686,
      "åľ¨": 687,
      "ãģ³": 688,
      "çĤ": 689,
      "å¹´ãģ«": 690,
      "ãĥĦ": 691,
      "çµĮ": 692,
      "éĢģ": 693,
      "æĸ¹": 694,
      "åĦ": 695,
      "æĢ§": 696,
      "å³¶": 697,
      "çµĦ": 698,
      "å®Ł": 699,
      "ãĤ®": 700,
      "æľŁ": 701,
      "2017": 702,
      "èĥ": 703,
      "åĢ": 704,
      "âĢ": 705,
      "èº«": 706,
      "åĬł": 707,
      "202": 708,
      "ç·¨": 709,
      "å»": 710,
      "è¥": 711,
      "ä¸ī": 712,
      "éĢ£": 713,
      "åĬĽ": 714,
      "é¤": 715,
      "å¼ı": 716,
      "ãĤĴåı": 717,
      "ãģķãĤĮãĤĭ": 718,
      "ãĤ¤ãĥ³": 719,
      "é§": 720,
      "ç¥ŀ": 721,
      "æ³ķ": 722,
      "åŃ¦æł¡": 723,
      "ãĤ¶": 724,
      "åĮĹ": 725,
      "åİŁ": 726,
      "éĮ": 727,
      "çķª": 728,
      "æķ°": 729,
      "åĭĻ": 730,
      "ãģ¨ãģĦãģĨ": 731,
      "ãģĿãģ®": 732,
      "èªŀ": 733,
      "ãĥĩãĤ£": 734,
      "ç½": 735,
      "è¾": 736,
      "åĮº": 737,
      "ãĤ²": 738,
      "ãģ¾ãģ§": 739,
      "è»į": 740,
      "åħ±": 741,
      "ãĥĶ": 742,
      "en": 743,
      "æĶ¾": 744,
      "è¦ģ": 745,
      "ãĥ³ãĤ¹": 746,
      "ãĤĮãģŁ": 747,
      "é¦": 748,
      "éħ": 749,
      "ãĥ¼ãĤ¹": 750,
      "ãĤ¢ãĥ«": 751,
      "åº¦": 752,
      "ãģ¾ãģŁ": 753,
      "2016": 754,
      "æ®": 755,
      "èī": 756,
      "æı": 757,
      "ãĥĹãĥŃ": 758,
      "å½¹": 759,
      "ãĤĤãģ®": 760,
      "ãģĵãģ®": 761,
      "ãĤ´": 762,
      "ãĤ©": 763,
      "çĿ": 764,
      "éĮ²": 765,
      "ãĥĽ": 766,
      "ãĥļ": 767,
      "åĵģ": 768,
      "ãģļ": 769,
      "èĳ": 770,
      "æµ·": 771,
      "ãĤ¸ãĥ£": 772,
      "æ²»": 773,
      "ç·ļ": 774,
      "ãĥĨãĥ¬": 775,
      "æĹ¥ãģ«": 776,
      "ar": 777,
      "é£": 778,
      "çī¹": 779,
      "æ©Ł": 780,
      "è¥¿": 781,
      "2018": 782,
      "éĺ": 783,
      "æŁ": 784,
      "åĸ": 785,
      "æľ¨": 786,
      "èģ": 787,
      "è»Ĭ": 788,
      "èµ": 789,
      "åĦª": 790,
      "å¤ļ": 791,
      "è«": 792,
      "éĩĳ": 793,
      "å£²": 794,
      "çİĭ": 795,
      "ãĤ·ãĥ§ãĥ³": 796,
      "ãĥªãĤ¢": 797,
      "æ§": 798,
      "ãĥĥãĥĹ": 799,
      "15": 800,
      "æĿ¥": 801,
      "åĪ¶": 802,
      "è¼": 803,
      "è³ŀ": 804,
      "åı·": 805,
      "åģ": 806,
      "or": 807,
      "ĠT": 808,
      "æŃ´": 809,
      "ãĤ¹ãĤ¿": 810,
      "æ¬": 811,
      "èĬ": 812,
      "çĦ": 813,
      "ãĥ¼ãĤº": 814,
      "çµĲ": 815,
      "199": 816,
      "ä½¿": 817,
      "èĹ": 818,
      "é¤¨": 819,
      "çĤ¹": 820,
      "ãĥĨãĥ¬ãĥĵ": 821,
      "çŁ¥": 822,
      "al": 823,
      "è©±": 824,
      "æĭ": 825,
      "æ¯": 826,
      "17": 827,
      "ãģķãĤĮãģ¦ãģĦãĤĭ": 828,
      "éĻ¢": 829,
      "ĠM": 830,
      "æ°ĳ": 831,
      "ãĥ¼ãĤ¯": 832,
      "ãģ£ãģ¦ãģĦãĤĭ": 833,
      "çķĮ": 834,
      "æŃ£": 835,
      "éŁ³": 836,
      "éĽĨ": 837,
      "å¤ĸ": 838,
      "éĥ½": 839,
      "åĽ£": 840,
      "ãĥķãĤ¡": 841,
      "ç¾İ": 842,
      "äºĮ": 843,
      "æ°´": 844,
      "æĿ±äº¬": 845,
      "èŃ°": 846,
      "èĤ": 847,
      "è·": 848,
      "æ¥½": 849,
      "èĥ½": 850,
      "ĠC": 851,
      "st": 852,
      "æĶ¿": 853,
      "æĴ": 854,
      "è§": 855,
      "16": 856,
      "ãģĬãĤĬ": 857,
      "ï¼īãĢģ": 858,
      "ãĤĮãĤĭ": 859,
      "ä¿¡": 860,
      "å¾Ĺ": 861,
      "æĺł": 862,
      "ãĤĪãĤĬ": 863,
      "ãģ§ãģį": 864,
      "æ´»": 865,
      "è¶": 866,
      "ãĤŃãĥ£": 867,
      "æĥ": 868,
      "ç½®": 869,
      "æĶ¾éĢģ": 870,
      "30": 871,
      "ç´Ħ": 872,
      "éĿ¢": 873,
      "å§ĭ": 874,
      "é§ħ": 875,
      "å·ŀ": 876,
      "æ°Ĺ": 877,
      "åįĹ": 878,
      "ãĥ¤": 879,
      "ä»»": 880,
      "éģ¸æīĭ": 881,
      "æĺŃ": 882,
      "æº": 883,
      "èĭ": 884,
      "å±ŀ": 885,
      "çīĪ": 886,
      "ãģ«ãĤĪãĤĭ": 887,
      "ãģĵãģ¨ãģĮ": 888,
      "éļĽ": 889,
      "ãģĴ": 890,
      "at": 891,
      "ĠA": 892,
      "ãĤį": 893,
      "ç±": 894,
      "ç¶ļ": 895,
      "çłĶ": 896,
      "åı²": 897,
      "åķ": 898,
      "ãģ»": 899,
      "ä»ĺ": 900,
      "ãĥ¼ãĤ¸": 901,
      "çĪ": 902,
      "ç§ĳ": 903,
      "ä¸į": 904,
      "å¤ī": 905,
      "le": 906,
      "æľī": 907,
      "ãģĹãģ¦ãģĦãģŁ": 908,
      "èĹ¤": 909,
      "åıĸ": 910,
      "åĥ": 911,
      "åı°": 912,
      "ãģ®å¾": 913,
      "éĽ»": 914,
      "ãĢģãĢĮ": 915,
      "å½¢": 916,
      "ãĥĴ": 917,
      "å£«": 918,
      "éĢ²": 919,
      "ãģ¨ãģªãģ£ãģŁ": 920,
      "å¤©": 921,
      "ç¦": 922,
      "ĠB": 923,
      "2019": 924,
      "è¨Ģ": 925,
      "æĺŃåĴĮ": 926,
      "ç§»": 927,
      "éģĭ": 928,
      "åı£": 929,
      "äºķ": 930,
      "ãģ«ãĤĪãĤĬ": 931,
      "ãĥķãĤ£": 932,
      "å±ĭ": 933,
      "ç¯": 934,
      "ï½": 935,
      "ãģ«ãģĬ": 936,
      "çĻ»": 937,
      "å·¥": 938,
      "14": 939,
      "ãģ¦ãģĦãģŁ": 940,
      "çĶ·": 941,
      "he": 942,
      "çµĤ": 943,
      "å¤ª": 944,
      "åĪ©": 945,
      "çŃī": 946,
      "ol": 947,
      "ãģĵãĤĮ": 948,
      "æħ": 949,
      "å½¼": 950,
      "13": 951,
      "ãĢľ": 952,
      "ç©¶": 953,
      "ç®": 954,
      "å¢": 955,
      "198": 956,
      "2015": 957,
      "åı¤": 958,
      "ç©º": 959,
      "æŃĮ": 960,
      "ãĢıï¼Ī": 961,
      "ãĢħ": 962,
      "ãĤ·ãĥ£": 963,
      "åŀ": 964,
      "æ¬¡": 965,
      "éī": 966,
      "éĩį": 967,
      "è¡ĵ": 968,
      "ãĤ¯ãĥ©": 969,
      "ãĤ¤ãĥĪ": 970,
      "åıİ": 971,
      "ç¿": 972,
      "è¨Ī": 973,
      "ãĥģãĥ£": 974,
      "ãĥªãĤ«": 975,
      "ãĥ¼ãĥ³": 976,
      "çłĶç©¶": 977,
      "ä¿Ŀ": 978,
      "ãĥ¼ãĥĹ": 979,
      "ä¸ĸçķĮ": 980,
      "ãĤ·ãĥ¥": 981,
      "ãģ¨ãģªãĤĭ": 982,
      "æ±º": 983,
      "éħį": 984,
      "ãĥ¼ãĥŀ": 985,
      "ãĢįï¼Ī": 986,
      "ãģĳãĤĭ": 987,
      "çĬ": 988,
      "ãģĭãģ£ãģŁ": 989,
      "åĲĳ": 990,
      "ãĥ¦": 991,
      "ãģ¹": 992,
      "éĥİ": 993,
      "çĽ¸": 994,
      "it": 995,
      "åĪ¥": 996,
      "çŁ³": 997,
      "å¡": 998,
      "ãģĿãĤĮ": 999,
      "ç¸": 1000,
      "çĽ£": 1001,
      "ä»ĸ": 1002,
      "ãĤĴæĮ": 1003,
      "åł±": 1004,
      "ic": 1005,
      "ĠP": 1006,
      "ãĤĢ": 1007,
      "25": 1008,
      "æģ": 1009,
      "ĠL": 1010,
      "éĢł": 1011,
      "ãĤĴåıĹ": 1012,
      "çĶ£": 1013,
      "å²¡": 1014,
      "åıĤ": 1015,
      "çľŁ": 1016,
      "ãĥ©ãĥ³": 1017,
      "æ¨©": 1018,
      "es": 1019,
      "å»º": 1020,
      "ãģ®å¾Į": 1021,
      "ãģ§ãģĤãģ£ãģŁ": 1022,
      "å´": 1023,
      "äº¤": 1024,
      "ç³": 1025,
      "ãĤ¹ãĥĨ": 1026,
      "éĸĢ": 1027,
      "ãĥķãĤ©": 1028,
      "å¿ĥ": 1029,
      "åºĹ": 1030,
      "ä»£è¡¨": 1031,
      "197": 1032,
      "ç§°": 1033,
      "å®ī": 1034,
      "ç¾©": 1035,
      "ç·ı": 1036,
      "ro": 1037,
      "ãģ«ãĤĪãģ£ãģ¦": 1038,
      "åŀĭ": 1039,
      "å®ĺ": 1040,
      "åºĥ": 1041,
      "åĩºæ¼Ķ": 1042,
      "éīĦ": 1043,
      "è±": 1044,
      "åľĴ": 1045,
      "çĭ": 1046,
      "ĠF": 1047,
      "ä¼ļç¤¾": 1048,
      "èĤ²": 1049,
      "ä½ľåĵģ": 1050,
      "æľĿ": 1051,
      "ãģĮãģĤãĤĭ": 1052,
      "è©¦": 1053,
      "è§£": 1054,
      "åŁŁ": 1055,
      "ãģ¨ãĤĤ": 1056,
      "ãģ§ãĤĤ": 1057,
      "åĤ¬": 1058,
      "ãĤ¢ãĥ¡": 1059,
      "ĠD": 1060,
      "æĮĩ": 1061,
      "è¿ĳ": 1062,
      "çĦ¡": 1063,
      "éļĬ": 1064,
      "2020": 1065,
      "°·": 1066,
      "ãĤīãĤĮãģŁ": 1067,
      "èĦ": 1068,
      "åĸ¶": 1069,
      "ãģ®ä¸Ģ": 1070,
      "22": 1071,
      "ãģ§ãģĤãĤĬ": 1072,
      "æ¡": 1073,
      "ãĤ¸ãĤ§": 1074,
      "ãģłãģ£ãģŁ": 1075,
      "å°ĳ": 1076,
      "ãģ«ãģ¤": 1077,
      "æĿ¾": 1078,
      "ãĤģãģŁ": 1079,
      "å®®": 1080,
      "æ£": 1081,
      "çı¾åľ¨": 1082,
      "ï¼īãĢĤ": 1083,
      "å¹´ãģ®": 1084,
      "ãĥ³ãĥĲ": 1085,
      "å£°": 1086,
      "é¨": 1087,
      "ĠR": 1088,
      "è°·": 1089,
      "ãĥªãĤ¹": 1090,
      "çĻºå£²": 1091,
      "çģ": 1092,
      "ï½ŀ": 1093,
      "ĠãĢĮ": 1094,
      "ãĥĥãĥī": 1095,
      "èı": 1096,
      "çĿ£": 1097,
      "ãĤ¸ãĥ§": 1098,
      "ãģªãģı": 1099,
      "æł¼": 1100,
      "åĨį": 1101,
      "ãĤ¢ãĥ¡ãĥªãĤ«": 1102,
      "é¡Į": 1103,
      "ç¦ı": 1104,
      "æĬĢ": 1105,
      "çĽ´": 1106,
      "ä¸ĩ": 1107,
      "ç´Ģ": 1108,
      "åŁİ": 1109,
      "ãĤ¼": 1110,
      "å¹³æĪĲ": 1111,
      "Ġç¬¬": 1112,
      "éŃ": 1113,
      "ä¼Ŀ": 1114,
      "è£½": 1115,
      "åħī": 1116,
      "æĻĤä»£": 1117,
      "ãĤīãĤĮãĤĭ": 1118,
      "24": 1119,
      "åı¯": 1120,
      "23": 1121,
      "çļĦãģª": 1122,
      "21": 1123,
      "ãĥ¼ãĥĬ": 1124,
      "æĦĽ": 1125,
      "çĶ±": 1126,
      "éĥ¡": 1127,
      "è·¯": 1128,
      "ãĤ¢ãĤ¤": 1129,
      "åħĪ": 1130,
      "ãĥ«ãĥĪ": 1131,
      "èª¿": 1132,
      "2014": 1133,
      "æµģ": 1134,
      "è»¢": 1135,
      "ĊĊ": 1136,
      "æĹı": 1137,
      "ãģ¶": 1138,
      "å¸¸": 1139,
      "èª¬": 1140,
      "æĺłçĶ»": 1141,
      "æ§ĺ": 1142,
      "æĸ½": 1143,
      "ou": 1144,
      "ãĤ°ãĥ©": 1145,
      "28": 1146,
      "ãģ«ãĤĤ": 1147,
      "ãĥĹãĥ¬": 1148,
      "æĴĥ": 1149,
      "ãģ«å¯¾": 1150,
      "ãĥĺ": 1151,
      "çµ±": 1152,
      "ç¨®": 1153,
      "å±Ģ": 1154,
      "åŃĺ": 1155,
      "çķªçµĦ": 1156,
      "|-": 1157,
      "ãģŁãģ¡": 1158,
      "196": 1159,
      "éĢĢ": 1160,
      "å¯º": 1161,
      "çĹ": 1162,
      "ç³»": 1163,
      "ãģĪãĤĭ": 1164,
      "2021": 1165,
      "ãĤĴè¡Į": 1166,
      "å¸«": 1167,
      "ä½ı": 1168,
      "ĠãĢİ": 1169,
      "ä½Ĳ": 1170,
      "å¼ķ": 1171,
      "ãĥīãĥ©": 1172,
      "ãĤ¦ãĤ§": 1173,
      "æĶ¹": 1174,
      "Ġ/": 1175,
      "æĦı": 1176,
      "ãĤ«ãĥ¼": 1177,
      "27": 1178,
      "ãģ¨ãģ®": 1179,
      "æ©ĭ": 1180,
      "å¦": 1181,
      "ãĥķãĤ§": 1182,
      "åŁº": 1183,
      "26": 1184,
      "ãģķãģĽ": 1185,
      "ãģ«ãģ¦": 1186,
      "åŃĹ": 1187,
      "ç¹": 1188,
      "éĬ": 1189,
      "ĠG": 1190,
      "çĽ£çĿ£": 1191,
      "é¦¬": 1192,
      "ãĥ´ãĤ¡": 1193,
      "ãģ§ãģįãĤĭ": 1194,
      "ãģĹãģĭ": 1195,
      "ãģªãģĭãģ£ãģŁ": 1196,
      "å´İ": 1197,
      "çĲĥ": 1198,
      "åĿ": 1199,
      "åľŁ": 1200,
      "ä½ľæĽ²": 1201,
      "ãĤ·ãĤ¢": 1202,
      "è©ŀ": 1203,
      "è¬": 1204,
      "29": 1205,
      "ãĥ¼ãĥª": 1206,
      "Ġ200": 1207,
      "ç´ļ": 1208,
      "ãģ²": 1209,
      "ãģĵãģ¨ãĤĴ": 1210,
      "¢¨": 1211,
      "éĻĲ": 1212,
      "ãĥ³ãĥĢ": 1213,
      "ãĥ¼ãĥ©": 1214,
      "è¡ĮãĤı": 1215,
      "ãĤ¿ãĤ¤": 1216,
      "çĻºè¡¨": 1217,
      "åħµ": 1218,
      "ãĤģãĤĭ": 1219,
      "éĸĭåĤ¬": 1220,
      "ãģĿãģ®å¾Į": 1221,
      "re": 1222,
      "is": 1223,
      "åįĶ": 1224,
      "åĬĩ": 1225,
      "ãģ«ãģ¤ãģĦãģ¦": 1226,
      "æľĪãģ«": 1227,
      "éĤ": 1228,
      "æŃ»": 1229,
      "ãģ®ä¸Ń": 1230,
      "æĪ¸": 1231,
      "ãĤ¢ãĥ«ãĥĲ": 1232,
      "æ¤": 1233,
      "ãĤ«ãĥ«": 1234,
      "ãĥ´ãĤ£": 1235,
      "æ·": 1236,
      "åĪ¤": 1237,
      "åĤĻ": 1238,
      "åĩºèº«": 1239,
      "æ¶": 1240,
      "ãĥĥãĤ¯ãĤ¹": 1241,
      "ãĥģãĥ¼ãĥł": 1242,
      "äºĪ": 1243,
      "ĠI": 1244,
      "åĳ½": 1245,
      "ãĤµãĥ¼": 1246,
      "ãģĤãĤĬ": 1247,
      "æŃ¢": 1248,
      "ĠH": 1249,
      "æŃ¦": 1250,
      "ãģ«ãģĤãĤĭ": 1251,
      "æŁ»": 1252,
      "è¦ª": 1253,
      "çĬ¶": 1254,
      "æĤ": 1255,
      "çĻ½": 1256,
      "çĿĢ": 1257,
      "ãĥ³ãĥĩ": 1258,
      "é»": 1259,
      "ãĥĸãĥ©": 1260,
      "ãĥ³ãĥĨ": 1261,
      "è«ĸ": 1262,
      "2022": 1263,
      "ä¸¡": 1264,
      "ç¤º": 1265,
      "èĭ±": 1266,
      "ä¿®": 1267,
      "éģĶ": 1268,
      "æĽľ": 1269,
      "èĳĹ": 1270,
      "è£ħ": 1271,
      "ãĥ©ãĥ¼": 1272,
      "ãĤ·ãĥ³ãĤ°": 1273,
      "æ¦": 1274,
      "ãģĳãģ¦": 1275,
      "åºľ": 1276,
      "éľ": 1277,
      "èªį": 1278,
      "èĳī": 1279,
      "2013": 1280,
      "å¤§ä¼ļ": 1281,
      "ĠN": 1282,
      "åĳ¼": 1283,
      "ãĤªãĥ³": 1284,
      "ãģĹãģĦ": 1285,
      "èĢĥ": 1286,
      "ãĤªãĥª": 1287,
      "ãĥªãĥ¼ãĤ°": 1288,
      "æĸĻ": 1289,
      "ãĤĴæĮģ": 1290,
      "çį": 1291,
      "çļĦãģ«": 1292,
      "çĻ»åł´": 1293,
      "æīĵ": 1294,
      "ĠĠ": 1295,
      "æīĢå±ŀ": 1296,
      "ãĥ¼ãĥĩ": 1297,
      "åįĥ": 1298,
      "éĻį": 1299,
      "æ´»åĭķ": 1300,
      "å¼·": 1301,
      "æĺŁ": 1302,
      "ä½¿çĶ¨": 1303,
      "å®¤": 1304,
      "æŀľ": 1305,
      "ion": 1306,
      "æĥħ": 1307,
      "ãģĳãģŁ": 1308,
      "am": 1309,
      "åĲĦ": 1310,
      "Ġt": 1311,
      "éłĺ": 1312,
      "ãĥĸãĥ«": 1313,
      "å¿ľ": 1314,
      "è³ĩ": 1315,
      "çĪ¶": 1316,
      "ãģ«ãģªãģ£ãģŁ": 1317,
      "èĲ": 1318,
      "ãĥĭãĤ¢": 1319,
      "el": 1320,
      "ãĤ¢ãĥ«ãĥĲãĥł": 1321,
      "ãĥ¨": 1322,
      "ãĥķãĥ©": 1323,
      "ãĥ¬ãĥ¼": 1324,
      "ãģĬãĤĪ": 1325,
      "èµ·": 1326,
      "ãĤ¦ãĤ¹": 1327,
      "åĲī": 1328,
      "åıį": 1329,
      "ãĥ³ãĤ¿": 1330,
      "åĳ¨": 1331,
      "æĺİæ²»": 1332,
      "ãĥ³ãĥĲãĥ¼": 1333,
      "ãģ«ãģªãĤĭ": 1334,
      "åĽ³": 1335,
      "åĩºåł´": 1336,
      "éĺª": 1337,
      "æŃ³": 1338,
      "ãĤ·ãĥ¼ãĤº": 1339,
      "ĠW": 1340,
      "ãģ«ãģĬãģĦãģ¦": 1341,
      "åįĴ": 1342,
      "åı¸": 1343,
      "ãĥ³ãģ®": 1344,
      "ãģ¨ãģ¯": 1345,
      "ĠE": 1346,
      "ig": 1347,
      "æ¸Ī": 1348,
      "ãĤ¤ãĥ«": 1349,
      "éĸĭå§ĭ": 1350,
      "ãĤĨ": 1351,
      "ãģ®æĸ": 1352,
      "ç®¡": 1353,
      "éģİ": 1354,
      "ãĤĩ": 1355,
      "ç±į": 1356,
      "æ±Ł": 1357,
      "ãĤ¦ãĤ£": 1358,
      "æ¹": 1359,
      "åĻ": 1360,
      "ä¼ģ": 1361,
      "ãĤ°ãĥ«": 1362,
      "éĿĴ": 1363,
      "ãĤ¸ãĤª": 1364,
      "ãģ®ãģŁãĤģ": 1365,
      "åĦªåĭĿ": 1366,
      "ing": 1367,
      "éŁ³æ¥½": 1368,
      "as": 1369,
      "Ġ-ï¼ī": 1370,
      "åħļ": 1371,
      "ãĤĵãģł": 1372,
      "ãĥªãĥ¼ãĤº": 1373,
      "æ¦Ĥ": 1374,
      "æķĹ": 1375,
      "ãĤĵãģ§": 1376,
      "ãģĶ": 1377,
      "ãģķãĤĮãģ¦": 1378,
      "pan": 1379,
      "ãģĻãĤĭãģĵãģ¨": 1380,
      "ä»¶": 1381,
      "èĬ±": 1382,
      "é£Ł": 1383,
      "è¾¼": 1384,
      "195": 1385,
      "ãĤ²ãĥ¼ãĥł": 1386,
      "æļ": 1387,
      "æĮģ": 1388,
      "ãģ®æŃ": 1389,
      "è©¦åĲĪ": 1390,
      "31": 1391,
      "ãģ®æĶ": 1392,
      "é¢¨": 1393,
      "ãĥ³ãĥĹ": 1394,
      "åįĬ": 1395,
      "æİĪ": 1396,
      "ãĥīãĥ«": 1397,
      "ãģŃ": 1398,
      "ãģĬãĤĪãģ³": 1399,
      "ç¢": 1400,
      "åķı": 1401,
      "åįģ": 1402,
      "å¾Įãģ«": 1403,
      "et": 1404,
      "2012": 1405,
      "èį": 1406,
      "éłŃ": 1407,
      "èĪ¹": 1408,
      "ä»Ĭ": 1409,
      "è©ķ": 1410,
      "æ§ĭ": 1411,
      "åº§": 1412,
      "ãģ£ãģ¦ãģĦãģŁ": 1413,
      "åıĹ": 1414,
      "å¿µ": 1415,
      "ãģ§ãģ®": 1416,
      "åıİéĮ²": 1417,
      "è¦³": 1418,
      "äººçī©": 1419,
      "ãĤ¯ãĥĪ": 1420,
      "ãĤģãģ¦": 1421,
      "ãĤ¥": 1422,
      "ãĤ¢ãĥĭ": 1423,
      "ãģ®åľ": 1424,
      "åĳ³": 1425,
      "ä½ľè©ŀ": 1426,
      "èī¯": 1427,
      "ãģĹãģ¾": 1428,
      "é¡ŀ": 1429,
      "å¥½": 1430,
      "ãĤ»ãĥ³": 1431,
      "ãģ«åħ¥": 1432,
      "ãģĤãģ£ãģŁ": 1433,
      "ãĤ·ãĥ¼ãĤºãĥ³": 1434,
      "å±ķ": 1435,
      "ãĥ©ãĤ¤ãĥĸ": 1436,
      "ãĤ¹ãĥļ": 1437,
      "ãģĲ": 1438,
      "åıĤåĬł": 1439,
      "éĽ¢": 1440,
      "ãĥªãĥ³": 1441,
      "Ġ3": 1442,
      "åģ´": 1443,
      "è¼ī": 1444,
      "ãĥĬãĥ«": 1445,
      "èī²": 1446,
      "çĨ": 1447,
      "æłª": 1448,
      "ä¾Ľ": 1449,
      "åı¯èĥ½": 1450,
      "å¤«": 1451,
      "194": 1452,
      "ħå½ĵ": 1453,
      "æĶ¯": 1454,
      "ac": 1455,
      "ãģ¨ãģĻãĤĭ": 1456,
      "ä¹ħ": 1457,
      "ãĤ·ãĥªãĥ¼ãĤº": 1458,
      "å§Ķ": 1459,
      "åįĴæ¥Ń": 1460,
      "è¨ĺéĮ²": 1461,
      "å®Į": 1462,
      "å¥Ī": 1463,
      "çİĩ": 1464,
      "ãĤ¹ãĤ¿ãĥ¼": 1465,
      "äºī": 1466,
      "ãģĹãģĭãģĹ": 1467,
      "ãĥ¼ãĥĨ": 1468,
      "ER": 1469,
      "æĽ´": 1470,
      "ĠJ": 1471,
      "ãĤ·ãĥ³ãĤ°ãĥ«": 1472,
      "å®¹": 1473,
      "çª": 1474,
      "ãĥ³ãĥĶ": 1475,
      "of": 1476,
      "ãĥĻãĥ«": 1477,
      "ä¹Ĺ": 1478,
      "ç¶Ļ": 1479,
      "ãĤĥ": 1480,
      "ä»ĭ": 1481,
      "æĻĤéĸĵ": 1482,
      "åįļ": 1483,
      "èĸ": 1484,
      "åİ»": 1485,
      "åĲĮå¹´": 1486,
      "æĬķ": 1487,
      "ãĥ¡ãĥ³ãĥĲãĥ¼": 1488,
      "ent": 1489,
      "om": 1490,
      "ãģĪãģŁ": 1491,
      "ç±³": 1492,
      "å¤ļãģı": 1493,
      "il": 1494,
      "æ¦Ĥè¦ģ": 1495,
      "äºĨ": 1496,
      "ãĥ¬ãĤ¤": 1497,
      "ĠO": 1498,
      "ãĥŀãĥ³": 1499,
      "çķ°": 1500,
      "éĺ²": 1501,
      "ãĤ¯ãĤ¿ãĥ¼": 1502,
      "åĻ¨": 1503,
      "ãĤ³ãĥ³": 1504,
      "èŃ·": 1505,
      "ä¸İ": 1506,
      "åĬ©": 1507,
      "é¨ĵ": 1508,
      "ãĤĴåĭĻ": 1509,
      "çĭ¬": 1510,
      "Ġ4": 1511,
      "ãĤ¢ãĥ³": 1512,
      "åĪĩ": 1513,
      "ç²": 1514,
      "å°ıåŃ¦æł¡": 1515,
      "ãģİ": 1516,
      "æħĭ": 1517,
      "=\"": 1518,
      "äººãģ®": 1519,
      "æĢĿ": 1520,
      "Ġï¼Ī": 1521,
      "ç·¨æĽ²": 1522,
      "ãģ«éĸ¢": 1523,
      "ãĤĪãģĨãģ«": 1524,
      "èĬ¸": 1525,
      "åĽĽ": 1526,
      "åĮ»": 1527,
      "ãģ®æĻ": 1528,
      "ä¿Ĥ": 1529,
      "IN": 1530,
      "ãģ®æĪ": 1531,
      "åķĨ": 1532,
      "ãĤĮãģ¦": 1533,
      "ãĤ¯ãĥŃ": 1534,
      "ãĥĵãĥ¥ãĥ¼": 1535,
      "ãĤ¨ãĥ«": 1536,
      "åĽ½éļĽ": 1537,
      "åĥı": 1538,
      "èĲ½": 1539,
      "è¡Ĩ": 1540,
      "èģ·": 1541,
      "ãĥ¼ãĥĦ": 1542,
      "æ¸¯": 1543,
      "span": 1544,
      "åĪ¶ä½ľ": 1545,
      "å°±": 1546,
      "ä¸ģ": 1547,
      "å®³": 1548,
      "åıĬ": 1549,
      "å°Ĥ": 1550,
      "ãĥ³ãĤ¸": 1551,
      "æ´¥": 1552,
      "2011": 1553,
      "Ġ199": 1554,
      "ãĥ³ãĥģ": 1555,
      "å¤§éĺª": 1556,
      "50": 1557,
      "ãģªãĤĭ": 1558,
      "å°İ": 1559,
      "éĻ¸": 1560,
      "ãĥĲãĥ¼": 1561,
      "ãģ®ãģ¿": 1562,
      "è¿½": 1563,
      "è¿°": 1564,
      "å¤ľ": 1565,
      "æ²¢": 1566,
      "å½±": 1567,
      "å©": 1568,
      "éĸĭçĻº": 1569,
      "è¡Ľ": 1570,
      "æŀĹ": 1571,
      "èĪŀ": 1572,
      "AN": 1573,
      "ãĤĮãģ¦ãģĦãĤĭ": 1574,
      "åŃĺåľ¨": 1575,
      "äºĶ": 1576,
      "åħ«": 1577,
      "åĲ«": 1578,
      "âĢĵ": 1579,
      "éŃĶ": 1580,
      "å¾©": 1581,
      "ãĥ©ãĥ³ãĥī": 1582,
      "æį": 1583,
      "æĸĩåĮĸ": 1584,
      "ãģªãģĮ": 1585,
      "ãĥĪãĥ©": 1586,
      "çĮ": 1587,
      "åĳĬ": 1588,
      "ãĤ¤ãĤ¹": 1589,
      "ãĥ¼ãĥģ": 1590,
      "éĹ": 1591,
      "åĢĭ": 1592,
      "çµĮæ¸Ī": 1593,
      "æķĻæİĪ": 1594,
      "æ´¾": 1595,
      "å¹´ãģĭãĤī": 1596,
      "éĩı": 1597,
      "æĺ¥": 1598,
      "æİ¥": 1599,
      "å§Ķåĵ¡": 1600,
      "ãģ¨åĲĮ": 1601,
      "ch": 1602,
      "ãģ¨ãģªãĤĬ": 1603,
      "ãĤ½ãĥ³": 1604,
      "è¦ı": 1605,
      "æºĸ": 1606,
      "éīĦéģĵ": 1607,
      "åĶ": 1608,
      "ä¼Ĭ": 1609,
      "æµľ": 1610,
      "ãĤµãĤ¤": 1611,
      "å®Ī": 1612,
      "æ£®": 1613,
      "æ»": 1614,
      "å¤®": 1615,
      "Ġ||": 1616,
      "ãĥ¼ãĥķ": 1617,
      "Ġå½¹": 1618,
      "ãģ®å°": 1619,
      "ç«¶": 1620,
      "æĮĻ": 1621,
      "ĠV": 1622,
      "å¸Ŀ": 1623,
      "Ġ2": 1624,
      "å¤±": 1625,
      "çĶŁãģ¾": 1626,
      "ãĤ¸ãĥ¥": 1627,
      "æłªå¼ı": 1628,
      "Ġ1": 1629,
      "åĨĨ": 1630,
      "æ®º": 1631,
      "æĦŁ": 1632,
      "åħ¬éĸĭ": 1633,
      "ï¼ģ": 1634,
      "ï¼Ŀ": 1635,
      "åıĭ": 1636,
      "ãĤĪãģĨãģª": 1637,
      "äºĭæ¥Ń": 1638,
      "ãĢģãĢİ": 1639,
      "æ²³": 1640,
      "åĪĹ": 1641,
      "Ġof": 1642,
      "æ¨ª": 1643,
      "ON": 1644,
      "æ´ĭ": 1645,
      "éĢ±": 1646,
      "ãģ®æĻĤ": 1647,
      "åīµ": 1648,
      "èµ°": 1649,
      "2010": 1650,
      "æĹ§": 1651,
      "ãģ¨ãģĹãģŁ": 1652,
      "ãĤ¢ãĥĭãĥ¡": 1653,
      "ãģ®å¥": 1654,
      "ç¸¾": 1655,
      "æĿ¡": 1656,
      "æĹ¥æľ¬ãģ®": 1657,
      "è³ª": 1658,
      "ä»ķ": 1659,
      "ãģ¨åħ±": 1660,
      "ãĥ¼ãĥŃ": 1661,
      "çģ«": 1662,
      "æľ«": 1663,
      "and": 1664,
      "èĮ": 1665,
      "å¼µ": 1666,
      "è¶³": 1667,
      "ç¥Ń": 1668,
      "çĹħ": 1669,
      "ãģ®ãģ¯": 1670,
      "é»Ĵ": 1671,
      "ãģ¸ãģ®": 1672,
      "ä»¥ä¸ĭ": 1673,
      "ãĥĥãĥģ": 1674,
      "ay": 1675,
      "éŁ¿": 1676,
      "éº": 1677,
      "ãģ®åį": 1678,
      "us": 1679,
      "ãĥķãĥ©ãĥ³ãĤ¹": 1680,
      "ãģ®å½": 1681,
      "ãģ«ãģĬãģĳãĤĭ": 1682,
      "Ġ9": 1683,
      "åĿĤ": 1684,
      "åłĤ": 1685,
      "é«ĺæł¡": 1686,
      "de": 1687,
      "æľª": 1688,
      "èĶ": 1689,
      "th": 1690,
      "ãģĻãĤĭãģ¨": 1691,
      "ãĤ¯ãĥª": 1692,
      "ä¾¡": 1693,
      "æŃ´åı²": 1694,
      "çķ¥": 1695,
      "ĠK": 1696,
      "FC": 1697,
      "ãĤĩãģĨ": 1698,
      "æ¸¡": 1699,
      "çł´": 1700,
      "un": 1701,
      "æĹ¥ãģ®": 1702,
      "ãģ®åľ°": 1703,
      "æłªå¼ıä¼ļç¤¾": 1704,
      "ç¨ĭ": 1705,
      "ç¤¾ä¼ļ": 1706,
      "ç´ł": 1707,
      "åįĺ": 1708,
      "éģ¸æīĭæ¨©": 1709,
      "åĽ½ãģ®": 1710,
      "å·»": 1711,
      "ãģ®æķ": 1712,
      "ãĥĭãĥ¼": 1713,
      "ä¸ģçĽ®": 1714,
      "é£Ľ": 1715,
      "ãĥ¼ãĥĲ": 1716,
      "èĩªèº«": 1717,
      "ãĥīãĥ©ãĥŀ": 1718,
      "ç¢º": 1719,
      "ãĤ¤ãĥĦ": 1720,
      "æ½": 1721,
      "æ¢": 1722,
      "å®¢": 1723,
      "éĢŁ": 1724,
      "ãĤĮãģ°": 1725,
      "ç¯ī": 1726,
      "AR": 1727,
      "å°¾": 1728,
      "å°Ĩ": 1729,
      "ãģµ": 1730,
      "ãĥ¼ãĥ«ãĥī": 1731,
      "ãģįãģŁ": 1732,
      "é³": 1733,
      "éĩĮ": 1734,
      "èģŀ": 1735,
      "çħ": 1736,
      "ãĤ°ãĥ«ãĥ¼ãĥĹ": 1737,
      "çį²": 1738,
      "èĪª": 1739,
      "ãĥ¼ãĥĵ": 1740,
      "Ġå¤§": 1741,
      "ä¹ĭ": 1742,
      "ãĥŀãĤ¤": 1743,
      "æĶ»": 1744,
      "ä¾ĭ": 1745,
      "åĩºçīĪ": 1746,
      "é¦Ļ": 1747,
      "çĽ¤": 1748,
      "åŃ¦éĥ¨": 1749,
      "ãĤĴæĭ": 1750,
      "éĽĦ": 1751,
      "ĠãĤ¢": 1752,
      "ãĤīãĤĮãģ¦ãģĦãĤĭ": 1753,
      "å¸¯": 1754,
      "å¹´ãģ«ãģ¯": 1755,
      "éļİ": 1756,
      "å¸°": 1757,
      "è¦ĸ": 1758,
      "ç«ł": 1759,
      "ãĤ¦ãĥ³": 1760,
      "ãģ®å¤§": 1761,
      "ãģ¨åĳ¼": 1762,
      "ãĢįãĢĮ": 1763,
      "ãĤ¸ãĤ¢": 1764,
      "ãĥ¼ãĤ·ãĥ§ãĥ³": 1765,
      "ãģ®åĨ": 1766,
      "ãĥŁãĥ¥ãĥ¼": 1767,
      "ãĤ¯ãĥ©ãĥĸ": 1768,
      "ST": 1769,
      "å®Ĺ": 1770,
      "ãĥ¼ãĥĸ": 1771,
      "ãģ®åĩ": 1772,
      "ãĥĲãĤ¹": 1773,
      "BS": 1774,
      "ç¹Ķ": 1775,
      "ãĥ¼ãĥ¬": 1776,
      "å¿Ĺ": 1777,
      "èĪĪ": 1778,
      "éĹĺ": 1779,
      "æ¯į": 1780,
      "ãĥ¼ãĥĭ": 1781,
      "éĸ¢ä¿Ĥ": 1782,
      "éĻ½": 1783,
      "æ³¢": 1784,
      "ãĥĭãĥ¥ãĥ¼": 1785,
      "éħįä¿¡": 1786,
      "ãĥĹãĥª": 1787,
      "ãģĹãģŁãģĮ": 1788,
      "çľģ": 1789,
      "ãģ®æī": 1790,
      "è¾º": 1791,
      "ed": 1792,
      "ãĤµãĥĥ": 1793,
      "å¿ħ": 1794,
      "å¾¡": 1795,
      "èĩªåĪĨ": 1796,
      "ãĤ¹ãĥĿ": 1797,
      "æ°ı": 1798,
      "ãĤ¹ãĤ³": 1799,
      "è¡ĮãĤıãĤĮãģŁ": 1800,
      "å½ĵæĻĤ": 1801,
      "40": 1802,
      "èŃ¦": 1803,
      "æĲ": 1804,
      "éĢļãĤĬ": 1805,
      "éĬĢ": 1806,
      "ãĤŃãĥ£ãĥ©": 1807,
      "æķĻèĤ²": 1808,
      "åľ°åŁŁ": 1809,
      "é¦ĸ": 1810,
      "å¸Ĥç«ĭ": 1811,
      "ãģķãĤī": 1812,
      "é«ĺçŃī": 1813,
      "ãĤĴæĶ": 1814,
      "ç´°": 1815,
      "è£ľ": 1816,
      "ãĥ¼ãĤ¹ãĥĪ": 1817,
      "æ¸ħ": 1818,
      "ä»¥éĻį": 1819,
      "ãĤĴè¦ĭ": 1820,
      "iv": 1821,
      "ç§ĭ": 1822,
      "ãģ¥": 1823,
      "çĢ": 1824,
      "ãĤ¹ãĤ¯": 1825,
      "ãģĹãģ¦ãģĬãĤĬ": 1826,
      "å²©": 1827,
      "çį²å¾Ĺ": 1828,
      "çĴ": 1829,
      "ãģªãģĮãĤī": 1830,
      "col": 1831,
      "æı´": 1832,
      "åł´åĲĪ": 1833,
      "éłĥ": 1834,
      "ãģŁãĤģãģ«": 1835,
      "ãĥ¼ãĥĳ": 1836,
      "ãģķãĤĮãģ¦ãģĦãģŁ": 1837,
      "å¤ı": 1838,
      "è¨Ńç«ĭ": 1839,
      "æĥ³": 1840,
      "åħĲ": 1841,
      "ãģ«ç§»": 1842,
      "åº«": 1843,
      "ãģ®å¯": 1844,
      "åħ¸": 1845,
      "ãģłãģĳ": 1846,
      "å¾ĵ": 1847,
      "ãģĪãģ¦": 1848,
      "æ°¸": 1849,
      "å¯Į": 1850,
      "æ®ĭ": 1851,
      "æĸŃ": 1852,
      "å¢Ĺ": 1853,
      "ä»¤": 1854,
      "ãĤŃãĥ¼": 1855,
      "!!": 1856,
      "Ġå£°": 1857,
      "æĥħåł±": 1858,
      "ç§Ģ": 1859,
      "ãĥªãĥ¼ãĤ¹": 1860,
      "éĿ©": 1861,
      "èī¦": 1862,
      "å¢ĥ": 1863,
      "100": 1864,
      "å¥³åŃĲ": 1865,
      "ãĥ¬ãĤ¹": 1866,
      "ãĥĩãĥ«": 1867,
      "ãģĦãģªãģĦ": 1868,
      "ãĥīãĤ¤ãĥĦ": 1869,
      "ãĤ¤ãĥĻ": 1870,
      "éĥ½å¸Ĥ": 1871,
      "IS": 1872,
      "ãĤ¢ãĥ¼": 1873,
      "æĹħ": 1874,
      "ä¸Ńå¤®": 1875,
      "ãĥĬãĥ¼": 1876,
      "è¬Ľ": 1877,
      "um": 1878,
      "ãĤĴæİ": 1879,
      "åĥį": 1880,
      "Ġ198": 1881,
      "åħ¬æ¼Ķ": 1882,
      "ãĥ«ãĤ¯": 1883,
      "å¾Įãģ®": 1884,
      "ãģŀ": 1885,
      "ãĥŃãĥ¼": 1886,
      "èĶµ": 1887,
      "è¨ĺå¿µ": 1888,
      "ãĥ©ãĤ¸ãĤª": 1889,
      "å¹´åº¦": 1890,
      "åĪ©çĶ¨": 1891,
      "ä¸ŃåĽ½": 1892,
      "ãģ®åī": 1893,
      "ãĥĪãĥª": 1894,
      "193": 1895,
      "ĨĴ": 1896,
      "ĳç´Ħ": 1897,
      "éĿŀ": 1898,
      "ãĥ´ãĤ§": 1899,
      "çİī": 1900,
      "ãĥķãĥĪ": 1901,
      "ãĥ«ãĤ¹": 1902,
      "ç©į": 1903,
      "åĭ¢": 1904,
      "te": 1905,
      "ra": 1906,
      "æŃ©": 1907,
      "åĪĬ": 1908,
      "è²¡": 1909,
      "Ġ2017": 1910,
      "çļĩ": 1911,
      "ãĤ»ãĥ³ãĤ¿ãĥ¼": 1912,
      "å¼ķãģį": 1913,
      "ãģ¨ãĤĤãģ«": 1914,
      "ãĥĩãĥ¥ãĥ¼": 1915,
      "Ġ5": 1916,
      "çµµ": 1917,
      "èª²": 1918,
      "åŃ¦èĢħ": 1919,
      "è±¡": 1920,
      "000": 1921,
      "ä¸ĬãģĴ": 1922,
      "å¾³": 1923,
      "ĊĠ": 1924,
      "æĨ": 1925,
      "48": 1926,
      "ãģªãģĬ": 1927,
      "Ġ18": 1928,
      "æĻĤãģ«": 1929,
      "çµĲæŀľ": 1930,
      "ãģĭãģ¤": 1931,
      "èªŃ": 1932,
      "å¯Ł": 1933,
      "ãģ®åĩº": 1934,
      "ãĤĴåıĸ": 1935,
      "ãĥ³ãĥĩãĤ£": 1936,
      "ãĤŃãĥ³ãĤ°": 1937,
      "ãĥ¼ãĥĨãĤ£": 1938,
      "ãģ»ãģĭ": 1939,
      "å¤īæĽ´": 1940,
      "78": 1941,
      "Ġthe": 1942,
      "æł¹": 1943,
      "ãģ¨ãģªãģ£ãģ¦ãģĦãĤĭ": 1944,
      "æ®µ": 1945,
      "ä»¥ä¸Ĭ": 1946,
      "ãģ®åł": 1947,
      "éģº": 1948,
      "ãĥģãĤ§": 1949,
      "å±ħ": 1950,
      "ãģķãĤĵ": 1951,
      "å®ĩ": 1952,
      "æ¯İ": 1953,
      "èµ¤": 1954,
      "ãĤµãĥ³": 1955,
      "æ·±": 1956,
      "Ġæ¼Ķ": 1957,
      "ãĤĴæĬ": 1958,
      "ãĥĮ": 1959,
      "ãģ®ãĤ¢": 1960,
      "ãĤ¤ãĥĻãĥ³ãĥĪ": 1961,
      "ãĥ¼ãĥĢ": 1962,
      "èª¿æŁ»": 1963,
      "æ¿": 1964,
      "ãģĦãģı": 1965,
      "åıĸãĤĬ": 1966,
      "å®Ŀ": 1967,
      "ãĥĹãĥ©": 1968,
      "åı³": 1969,
      "ãĤĴæ±": 1970,
      "è³Ģ": 1971,
      "äººãģĮ": 1972,
      "è¡Ĺ": 1973,
      "æĸ½è¨Ń": 1974,
      "åģ¥": 1975,
      "è¶Ĭ": 1976,
      "æľ¬ä½ľ": 1977,
      "ãģĵãģ¨ãģ§": 1978,
      "ç¿Į": 1979,
      "VE": 1980,
      "çĴ°": 1981,
      "èŃ°åĵ¡": 1982,
      "æ¶Ī": 1983,
      "ãģĵãģĨ": 1984,
      "ãĥ¼ãĤ¿": 1985,
      "ãģ¼": 1986,
      "ä½ķ": 1987,
      "ä¸ŃåŃ¦æł¡": 1988,
      "æ¨¹": 1989,
      "çķĻ": 1990,
      "ãĤ¤ãĤ®": 1991,
      "Ġm": 1992,
      "ãģªãĤī": 1993,
      "æıĲ": 1994,
      "æĹ©": 1995,
      "çµĤäºĨ": 1996,
      "çĦ¶": 1997,
      "ãĥªãĤ¹ãĥĪ": 1998,
      "ç¾¤": 1999,
      "åĽ²": 2000,
      "æĮ¯": 2001,
      "å¤§ãģį": 2002,
      "è±Ĭ": 2003,
      "æ±ł": 2004,
      "ãģ¾ãĤĬ": 2005,
      "è¨³": 2006,
      "å¹´ä»£": 2007,
      "å°±ä»»": 2008,
      "ãģĵãĤį": 2009,
      "æľĢçµĤ": 2010,
      "âĨĴ": 2011,
      "ãĤ¤ãĤ®ãĥªãĤ¹": 2012,
      "åĢī": 2013,
      "ãģłãģĮ": 2014,
      "Ġf": 2015,
      "ä¼´": 2016,
      "ãģĹãģı": 2017,
      "è²ł": 2018,
      "ãģ®æĪ¦": 2019,
      "ri": 2020,
      "ãģ®æĿ": 2021,
      "éģ¸æĮĻ": 2022,
      "ãĥªãĥªãĥ¼ãĤ¹": 2023,
      "æ¯Ķ": 2024,
      "ä½įç½®": 2025,
      "åĬĩåł´": 2026,
      "IC": 2027,
      "ãĥŁãĥ¥ãĥ¼ãĤ¸": 2028,
      "ãģ®åĲį": 2029,
      "ãĤ·ãĥ¼": 2030,
      "ĠU": 2031,
      "âĢ»": 2032,
      "çĢ¬": 2033,
      "ãģ¨åħ±ãģ«": 2034,
      "ãĥ³ãģ¯": 2035,
      "èĻ": 2036,
      "æ¤ľ": 2037,
      "è¶ħ": 2038,
      "ãĤĴæı": 2039,
      "è¾²": 2040,
      "ä¸ĸç´Ģ": 2041,
      "ãĥ³ãĥķ": 2042,
      "åĪĿãģ®": 2043,
      "æ¡Ī": 2044,
      "ãĥĹãĥŃãĥĩãĥ¥ãĥ¼": 2045,
      "Ġ:": 2046,
      "çªģ": 2047,
      "ãĤ¾": 2048,
      "äºĭä»¶": 2049,
      "è²´": 2050,
      "ãĤĴåıĹãģĳ": 2051,
      "æľĽ": 2052,
      "ãĤıãģĽ": 2053,
      "ä¸¸": 2054,
      "éĻ¤": 2055,
      "ä½µ": 2056,
      "è¨¼": 2057,
      "èĪ¬": 2058,
      "å¹¸": 2059,
      "ãĤ«ãĥĥãĥĹ": 2060,
      "å¼¾": 2061,
      "å©ļ": 2062,
      "èħ": 2063,
      "ãĤ·ãĤ§": 2064,
      "ãģĨãģ¡": 2065,
      "æĭħå½ĵ": 2066,
      "å®¿": 2067,
      "åıĬãģ³": 2068,
      "ä¹Ŀ": 2069,
      "èģĸ": 2070,
      "æĽ¿": 2071,
      "AL": 2072,
      "ãģķãĤīãģ«": 2073,
      "å¹´éĸĵ": 2074,
      "ãĤ¤ãĥ¤": 2075,
      "æĹ¥ãģĭãĤī": 2076,
      "Ġ6": 2077,
      "æĿĲ": 2078,
      "éģł": 2079,
      "ãĤĴæĮģãģ¤": 2080,
      "çµĮæŃ´": 2081,
      "è¨Ńç½®": 2082,
      "æĹ¥çĻºå£²": 2083,
      "ç·ł": 2084,
      "äº¡": 2085,
      "çĽ®ãģ®": 2086,
      "ç¿Ĵ": 2087,
      "æĢ¥": 2088,
      "ãĥ¼ãĤ¿ãĥ¼": 2089,
      "ãĥĲãĤ¤": 2090,
      "ãĤıãĤĬ": 2091,
      "HK": 2092,
      "ãĤĴçµĮ": 2093,
      "è¨ĪçĶ»": 2094,
      "åı¤å±ĭ": 2095,
      "çĸ": 2096,
      "ãĤŃãĥ¥": 2097,
      "å¥ı": 2098,
      "éĽ£": 2099,
      "ãĥĪãĥ«": 2100,
      "ãĤ³ãĥŁ": 2101,
      "Ġ2016": 2102,
      "çī¹åĪ¥": 2103,
      "ãĥĩãĥĵãĥ¥ãĥ¼": 2104,
      "èªĮ": 2105,
      "åĽ³æĽ¸": 2106,
      "æºĲ": 2107,
      "ãģ«å¯¾ãģĹãģ¦": 2108,
      "ãĥĲãĥ«": 2109,
      "çĻĤ": 2110,
      "æºĢ": 2111,
      "å»ĥ": 2112,
      "å¥ĳç´Ħ": 2113,
      "ãĥĽãĥ¼ãĥ«": 2114,
      "Ġp": 2115,
      "2023": 2116,
      "ir": 2117,
      "ãĥĭãĥ¥": 2118,
      "ãĥ³ãĥĳ": 2119,
      "ãĥ³ãĤ¬": 2120,
      "ad": 2121,
      "è¤": 2122,
      "æ²¿": 2123,
      "è¢": 2124,
      "Ġ2018": 2125,
      "ãĤµãĥĥãĤ«ãĥ¼": 2126,
      "ãģ®æĮ": 2127,
      "ãĤ¤ãĥ³ãĤ¿": 2128,
      "ãģ®åĬ": 2129,
      "æŀļ": 2130,
      "ãĤ¹ãĥĨãĤ£": 2131,
      "èĭ¥": 2132,
      "ãĤ¯ãĤ·ãĥ§ãĥ³": 2133,
      "åħ¨åĽ½": 2134,
      "AT": 2135,
      "ç·ıåĲĪ": 2136,
      "éĥ·": 2137,
      "é¤Ĭ": 2138,
      "ãĤ·ãĥ£ãĥ«": 2139,
      "ãģĿãģ®ä»ĸ": 2140,
      "ãģ¨åĳ¼ãģ°": 2141,
      "å¹ķ": 2142,
      "è·¡": 2143,
      "ãĤĤãģĤãĤĭ": 2144,
      "ãĤħ": 2145,
      "ãĤĴãĤĤ": 2146,
      "å¡ļ": 2147,
      "ç®Ĺ": 2148,
      "ä½İ": 2149,
      "åĲįåı¤å±ĭ": 2150,
      "åįĶä¼ļ": 2151,
      "æĪ¦ãģ§": 2152,
      "ãģ®æĺ": 2153,
      "ur": 2154,
      "ãĥªãĥ³ãĤ°": 2155,
      "åĨĻ": 2156,
      "æ³ī": 2157,
      "ï¼ı": 2158,
      "ãģªãģ©ãģ®": 2159,
      "Ġãģ¯": 2160,
      "ãģĮãģĤãĤĬ": 2161,
      "ä¼ĳ": 2162,
      "æĿ¿": 2163,
      "ãĥªãĤª": 2164,
      "ãĢĤãĢĮ": 2165,
      "60": 2166,
      "å¾Ĵ": 2167,
      "ãĤ¹ãĤ«": 2168,
      "ãĤ¦ãĤ©": 2169,
      "ot": 2170,
      "åľ°åĮº": 2171,
      "ãĥ¡ãĥ³ãĥĪ": 2172,
      "ãģĻãĤĭãģĵãģ¨ãģĮ": 2173,
      "ãĥĥãĤ·ãĥ¥": 2174,
      "ä¼ģçĶ»": 2175,
      "ãĥ³ãĥĸ": 2176,
      "åł´æīĢ": 2177,
      "Âł": 2178,
      "å·¦": 2179,
      "æ¨Ļ": 2180,
      "ç¯Ģ": 2181,
      "ç§ģ": 2182,
      "çŃĸ": 2183,
      "å½¼å¥³": 2184,
      "ag": 2185,
      "ãĥ¼ãģ®": 2186,
      "è²©": 2187,
      "ãģ¤ãģ®": 2188,
      "ãĤ¸ãĥ§ãĥ³": 2189,
      "ä¾¿": 2190,
      "ä»¥ä¸ĭãģ®": 2191,
      "åĬŁ": 2192,
      "ãĥ¦ãĥĭ": 2193,
      "å§Ķåĵ¡ä¼ļ": 2194,
      "2009": 2195,
      "Ġv": 2196,
      "çŁŃ": 2197,
      "éİ": 2198,
      "ãģ¨ãģį": 2199,
      "æ±ºåĭĿ": 2200,
      "ãģ®å¥³": 2201,
      "em": 2202,
      "ãģ¡ãĤĥ": 2203,
      "ãĥĥãĥĦ": 2204,
      "ãĤ¿ãĤ¤ãĥĪ": 2205,
      "im": 2206,
      "ãĥıãĤ¤": 2207,
      "ãģ®åĮ": 2208,
      "ãĥ¢ãĥ³": 2209,
      "å¤ªéĥİ": 2210,
      "èĦļ": 2211,
      "ä»®": 2212,
      "åħĦ": 2213,
      "ow": 2214,
      "ãģķãģĽãĤĭ": 2215,
      "ãĥ¼ãĥĩãĤ£": 2216,
      "å¯Ħ": 2217,
      "ãģ®å¼": 2218,
      "ec": 2219,
      "çħ§": 2220,
      "ter": 2221,
      "èı¯": 2222,
      "ï¼ī-": 2223,
      "HE": 2224,
      "äººåı£": 2225,
      "æĪ¿": 2226,
      "å®Łæĸ½": 2227,
      "å·®": 2228,
      "Ġin": 2229,
      "ãĥĸãĥª": 2230,
      "åĲĪè¡Ĩ": 2231,
      "ãĥĩãĤ¶": 2232,
      "ä¹Ł": 2233,
      "OR": 2234,
      "AM": 2235,
      "ãĤ±ãĥĥãĥĪ": 2236,
      "å¿ħè¦ģ": 2237,
      "æİ¨": 2238,
      "èĸ¬": 2239,
      "å»¶": 2240,
      "ãĤŃãĥ£ãĥ©ãĤ¯ãĤ¿ãĥ¼": 2241,
      "Ħı": 2242,
      "Ġ197": 2243,
      "æľĢé«ĺ": 2244,
      "Ġs": 2245,
      "åľ°æĸ¹": 2246,
      "æĪ¦äºī": 2247,
      "os": 2248,
      "ãĤ¿ãĤ¤ãĥĪãĥ«": 2249,
      "æĺĩ": 2250,
      "ãģĭãĤīãģ¯": 2251,
      "ç¾İè¡ĵ": 2252,
      "ãĥ¼ãĥĪãĥ«": 2253,
      "å»ºè¨Ń": 2254,
      "Ġ7": 2255,
      "å²¸": 2256,
      "âĺ": 2257,
      "ãĥ¼ãĥªãĥ¼": 2258,
      "åĲĮãģĺ": 2259,
      "ä¼ģæ¥Ń": 2260,
      "ãĥ³ãĥŀ": 2261,
      "ãģ»ãģ©": 2262,
      "å¨": 2263,
      "èĢĥãģĪ": 2264,
      "ãĥŀãĥ«": 2265,
      "æĤª": 2266,
      "è£ģ": 2267,
      "ãĤ¢ãĥĬ": 2268,
      "ãģ®åĭ": 2269,
      "éłĨ": 2270,
      "ŀľ": 2271,
      "è£½ä½ľ": 2272,
      "ãĥ³ãĥĦ": 2273,
      "ä¸Ńå¿ĥ": 2274,
      "çĽŁ": 2275,
      "Ġ\"": 2276,
      "è«ĩ": 2277,
      "ation": 2278,
      "æ¨¡": 2279,
      "ãĥ¶": 2280,
      "CD": 2281,
      "é³¥": 2282,
      "ãģ«éĸ¢ãģĻãĤĭ": 2283,
      "éĻĲå®ļ": 2284,
      "èŃ°ä¼ļ": 2285,
      "ä¸ĢèĪ¬": 2286,
      "çĨ±": 2287,
      "æıĽ": 2288,
      "èĪİ": 2289,
      "è¡Ģ": 2290,
      "æµ¦": 2291,
      "ãĤĴå¾Ĺ": 2292,
      "é«ĺçŃīåŃ¦æł¡": 2293,
      "éŁĵ": 2294,
      "ãģĿãģĹãģ¦": 2295,
      "ãģĸ": 2296,
      "æ¤į": 2297,
      "äº¬éĥ½": 2298,
      "ÃĹ": 2299,
      "åĬ¹": 2300,
      "ãĤ¢ãĥ¡ãĥªãĤ«åĲĪè¡Ĩ": 2301,
      "æľĿæĹ¥": 2302,
      "ãģ¨ãģ¨ãĤĤãģ«": 2303,
      "èŃĺ": 2304,
      "æĪ»": 2305,
      "ãģªãĤĬ": 2306,
      "åħ¬å¼ı": 2307,
      "åĬ´": 2308,
      "åģľ": 2309,
      "äº¤éĢļ": 2310,
      "èĩ£": 2311,
      "åŃ¦çĶŁ": 2312,
      "åī²": 2313,
      "éģķ": 2314,
      "ãĤ¹ãĥĨãĥł": 2315,
      "ãģĭãĤīãģ®": 2316,
      "colspan": 2317,
      "åº·": 2318,
      "å¸Ń": 2319,
      "è§Ĵ": 2320,
      "ĠY": 2321,
      "çµ¦": 2322,
      "2008": 2323,
      "ç®¡çĲĨ": 2324,
      "å¥³æĢ§": 2325,
      "éĪ": 2326,
      "å®ħ": 2327,
      "åĪĳ": 2328,
      "ãģĭãģĳãģ¦": 2329,
      "ãģ«åĬł": 2330,
      "æ¾": 2331,
      "ç§ĳåŃ¦": 2332,
      "ãĤĴåĲ«": 2333,
      "çµĮåĸ¶": 2334,
      "ãĤ·ãĤ¹ãĥĨãĥł": 2335,
      "ãģŀãĤĮ": 2336,
      "ãĤ¹ãģ®": 2337,
      "ãĤ¤ãĥī": 2338,
      "ãĥįãĥĥãĥĪ": 2339,
      "ãģĿãĤĮãģŀãĤĮ": 2340,
      "æ¥µ": 2341,
      "ãĤįãģĨ": 2342,
      "Ġ8": 2343,
      "æĻ¯": 2344,
      "å¤¢": 2345,
      "row": 2346,
      "ãĥĳãĥ¼": 2347,
      "ãĢĳ": 2348,
      "ãĢĲ": 2349,
      "id": 2350,
      "äººéĸĵ": 2351,
      "45": 2352,
      "äºĭåĭĻ": 2353,
      "èĩªåĭķ": 2354,
      "æĬĢè¡ĵ": 2355,
      "è¤ĩ": 2356,
      "å¾´": 2357,
      "ãĥĢãĥ¼": 2358,
      "ãĤĴè¡ĮãģĨ": 2359,
      "EN": 2360,
      "ç¬¬ä¸Ģ": 2361,
      "åŁ·": 2362,
      "è¨ª": 2363,
      "ãģ«ãģªãĤĬ": 2364,
      "åħŃ": 2365,
      "è¦ļ": 2366,
      "æķ´": 2367,
      "ers": 2368,
      "ä¸Ģæĸ¹": 2369,
      "ä¸Ńãģ«": 2370,
      "ãĥ¢ãĥĩãĥ«": 2371,
      "æĿ±äº¬éĥ½": 2372,
      "ak": 2373,
      "åīįãģ«": 2374,
      "ãģ®åł´": 2375,
      "ç«¹": 2376,
      "å¼Ł": 2377,
      "ĠĊĊ": 2378,
      "ãĥĳãĥ³": 2379,
      "ĠThe": 2380,
      "ãĥŀãĥ¼": 2381,
      "ç²¾": 2382,
      "ãĥĩãĤ£ãĤ¢": 2383,
      "Ġb": 2384,
      "Ġd": 2385,
      "ãĥ¼ãĥĬãĥ¼": 2386,
      "ãĤĴæŀľ": 2387,
      "ĠâĢĵ": 2388,
      "Ġå°ı": 2389,
      "ãĤĴæŀľãģŁ": 2390,
      "ãĥĨãĥ¼ãĥŀ": 2391,
      "æģĭ": 2392,
      "ãģ«éģ¸": 2393,
      "å£Ĭ": 2394,
      "ç§»ç±į": 2395,
      "å¸ĥ": 2396,
      "åĩ¦": 2397,
      "åī¯": 2398,
      "BN": 2399,
      "ãĤªãĥ¼ãĥĹ": 2400,
      "ãĤ®ãĥ¥": 2401,
      "ãĥ¬ãĥ³": 2402,
      "è²©å£²": 2403,
      "åĢĻ": 2404,
      "ãĤ¶ãĥ¼": 2405,
      "çĻ¾": 2406,
      "ãĥŃãĥĥãĤ¯": 2407,
      "ãģ®å±": 2408,
      "ãģĮçĻº": 2409,
      "nd": 2410,
      "éĩİçĲĥ": 2411,
      "è¿Ķ": 2412,
      "ãĥŃãĤ·ãĤ¢": 2413,
      "èĢħãģ®": 2414,
      "åħ¬åľĴ": 2415,
      "æģµ": 2416,
      "Ġ10": 2417,
      "ãĤĭãģ¨": 2418,
      "ãģ¾ãģŁãģ¯": 2419,
      "ãĤĴçį²å¾Ĺ": 2420,
      "ãĤ»ãĥ«": 2421,
      "ãĤĬãģ®": 2422,
      "ãģ®å·": 2423,
      "æµ·éģĵ": 2424,
      "NHK": 2425,
      "ä¹±": 2426,
      "âĢĿ": 2427,
      "æĴ®": 2428,
      "å¾Įãģ¯": 2429,
      "çĶŁæ´»": 2430,
      "AS": 2431,
      "åĩºèº«ãģ®": 2432,
      "ç£": 2433,
      "æ±ºå®ļ": 2434,
      "ãģ«ä¼´": 2435,
      "èĪŀåı°": 2436,
      "æķħ": 2437,
      "ãģĻãģ¹": 2438,
      "ãĥĵãĥ«": 2439,
      "km": 2440,
      "æĳ": 2441,
      "ãĥ³ãĥĶãĥĥãĤ¯": 2442,
      "ãĤ¢ãĤ¤ãĥīãĥ«": 2443,
      "ãģĵãĤĮãģ¯": 2444,
      "ãĥľãĥ¼ãĥ«": 2445,
      "å¥½ãģį": 2446,
      "ãĤ¹ãģ¯": 2447,
      "ãĤ¹ãĥ¼ãĥĳ": 2448,
      "ãģĵãģ¨ãģĭãĤī": 2449,
      "2007": 2450,
      "ãģ®ä¸Ģéĥ¨": 2451,
      "é®": 2452,
      "ä»²": 2453,
      "è©ķä¾¡": 2454,
      "ãĢĪ": 2455,
      "OK": 2456,
      "ãģ®ä¸»": 2457,
      "190": 2458,
      "35": 2459,
      "ĠSt": 2460,
      "ãĢī": 2461,
      "åħ¼": 2462,
      "ç«¯": 2463,
      "Ġc": 2464,
      "éĪ´": 2465,
      "éĢ£ç¶ļ": 2466,
      "ãĤĤãģ®ãģ®": 2467,
      "éĿĻ": 2468,
      "å½¦": 2469,
      "æ³¨": 2470,
      "ãĥĨãĥ«": 2471,
      "|-||": 2472,
      "ãģ«å°±ä»»": 2473,
      "åķıé¡Į": 2474,
      "ãĥķãĤ¸": 2475,
      "çµĦç¹Ķ": 2476,
      "æłĦ": 2477,
      "ãĤ¹ãĥĿãĥ¼ãĥĦ": 2478,
      "ãĥĪãĤ¥": 2479,
      "éĤ¦": 2480,
      "ä¸Ģéĥ¨": 2481,
      "æĬľ": 2482,
      "ãĥĵãĥ¼": 2483,
      "æķ£": 2484,
      "RE": 2485,
      "è¨±": 2486,
      "ç¤¾éķ·": 2487,
      "ãĥķãĥ«": 2488,
      "å°Ħ": 2489,
      "ãģ®æİ": 2490,
      "ub": 2491,
      "ãĥ³ãĥĨãĤ£": 2492,
      "ãģ®æ°": 2493,
      "ãĥ¼ãĥ´": 2494,
      "åĪĿãĤģãģ¦": 2495,
      "ĠãĤ¨": 2496,
      "ãĥ³ãĤ¯": 2497,
      "ãģ®å§": 2498,
      "ãģ«åĩº": 2499,
      "oc": 2500,
      "ãĤīãģļ": 2501,
      "ãĥĲãĥ³ãĥī": 2502,
      "éĥ¨åĪĨ": 2503,
      "ç´Ļ": 2504,
      "æ¹¾": 2505,
      "ä¸ĥ": 2506,
      "å¯Ĩ": 2507,
      "çĪµ": 2508,
      "å¹¼": 2509,
      "èµ·ãģĵ": 2510,
      "ãģĭãģ¤ãģ¦": 2511,
      "æī¿": 2512,
      "ãĥŃãĥ¼ãĥŀ": 2513,
      "ãĥ¡ãĥ¼ãĥĪãĥ«": 2514,
      "åĽ³æĽ¸é¤¨": 2515,
      "ãģ®è²": 2516,
      "ç¾½": 2517,
      "çĬ¶æħĭ": 2518,
      "oo": 2519,
      "éĸĵãģ«": 2520,
      "éļĽãģ«": 2521,
      "ãģ¤ãģĭ": 2522,
      "æ¨ªæµľ": 2523,
      "2006": 2524,
      "ãĥĢãĥ«": 2525,
      "åºģ": 2526,
      "ãģ®åº": 2527,
      "ãģĦãģ§": 2528,
      "éĢĶ": 2529,
      "ãĥľãĥ¼": 2530,
      "ãģ®æģ": 2531,
      "ãĤµãĥ¼ãĥĵ": 2532,
      "ãģĭãģĳ": 2533,
      "çĶŁãģ¾ãĤĮ": 2534,
      "ä»ĺãģĳ": 2535,
      "ãĤĴè¨ĺéĮ²": 2536,
      "Ġ2019": 2537,
      "éľ²": 2538,
      "ãģ®ãģ§": 2539,
      "33": 2540,
      "46": 2541,
      "ãĤ¸ãĥ£ãĥ¼": 2542,
      "ign": 2543,
      "çµ¶": 2544,
      "æ©Łéĸ¢": 2545,
      "éł¼": 2546,
      "AC": 2547,
      "åĲĽ": 2548,
      "ãģ®ãĤ³": 2549,
      "æĮĩå®ļ": 2550,
      "ä¼ļéķ·": 2551,
      "ãģ£ãģ¦ãģĬãĤĬ": 2552,
      "éħĴ": 2553,
      "ãĥ³ãĥĵ": 2554,
      "ãĥĪãĥ¬": 2555,
      "æĶ¿åºľ": 2556,
      "ãģĿãģĨ": 2557,
      "äººãģ¯": 2558,
      "2000": 2559,
      "Ġ12": 2560,
      "ãģ¨ãģĹãģ¦ãģ¯": 2561,
      "èĥĮ": 2562,
      "ãĢįãĢĤ": 2563,
      "ãģ®åŁ": 2564,
      "ç¥ĸ": 2565,
      "èįī": 2566,
      "ov": 2567,
      "åĲĪãĤıãģĽ": 2568,
      "è¿°ãģ¹": 2569,
      "æĪĲç¸¾": 2570,
      "çı¾åľ¨ãģ®": 2571,
      "é¹": 2572,
      "ul": 2573,
      "ãĤ¿ãĥ«": 2574,
      "55": 2575,
      "ãģĤãģŁ": 2576,
      "ãĥķãĥ¬": 2577,
      "éĽĳ": 2578,
      "rowspan": 2579,
      "ãĤĴåĭĻãĤģãģŁ": 2580,
      "æĵ": 2581,
      "é¾": 2582,
      "åıĹè³ŀ": 2583,
      "ãĤıãĤĮãĤĭ": 2584,
      "äºĪå®ļ": 2585,
      "ãĤªãĥªãĥ³ãĥĶãĥĥãĤ¯": 2586,
      "åħ¥ãĤĬ": 2587,
      "ãĥģãĥ¥": 2588,
      "ä¸»ç¾©": 2589,
      "Ġ196": 2590,
      "ç«¶æĬĢ": 2591,
      "é®®": 2592,
      "éĥ¨ãģ«": 2593,
      "Ġä¸Ń": 2594,
      "ãĥĩãĤ¶ãĤ¤ãĥ³": 2595,
      "ãģ¨ãģĹ": 2596,
      "\"|": 2597,
      "èĢħãģ¯": 2598,
      "«çĶ»": 2599,
      "æ¸¬": 2600,
      "ãĤīãģ®": 2601,
      "æįķ": 2602,
      "ãģ¨è¨Ģ": 2603,
      "åĭĿåĪ©": 2604,
      "Ġãģ®": 2605,
      "å½ĵåĪĿ": 2606,
      "éĻº": 2607,
      "ut": 2608,
      "ç¬¬äºĮ": 2609,
      "ç·¨éĽĨ": 2610,
      "è©³": 2611,
      "èĦ±": 2612,
      "Ġä½ľè©ŀ": 2613,
      "åħ±åĴĮ": 2614,
      "´»": 2615,
      "ãģĮãģĤãģ£ãģŁ": 2616,
      "åľ§": 2617,
      "éģĭåĸ¶": 2618,
      "ãĥĪãĥŃ": 2619,
      "ãĤ³ãĥŃ": 2620,
      "ãģ®å¸": 2621,
      "å¥ª": 2622,
      "Ġæĸ°": 2623,
      "ç¦ıå²¡": 2624,
      "ãĤĴéĢļ": 2625,
      "ãģ®è£": 2626,
      "æľį": 2627,
      "ãĥĹãĥŃãĥĩãĥ¥ãĥ¼ãĤµãĥ¼": 2628,
      "ãĥįãĥ«": 2629,
      "ãĥ¼ãĥį": 2630,
      "åĢĴ": 2631,
      "æ¸©": 2632,
      "ãģ®æµ": 2633,
      "ä¼¯": 2634,
      "ãĤ¤ãĤ¿": 2635,
      "éº»": 2636,
      "å¾ħ": 2637,
      "ãĥ³ãĥį": 2638,
      "IT": 2639,
      "ãĥ¼ãĥĻ": 2640,
      "è²»": 2641,
      "è¥²": 2642,
      "æħ¶": 2643,
      "è«¸": 2644,
      "éĺ¿": 2645,
      "åºĥå³¶": 2646,
      "èĢħãģĮ": 2647,
      "ãĤĴçµĮãģ¦": 2648,
      "é¾į": 2649,
      "igh": 2650,
      "é¨İ": 2651,
      "ç¥¨": 2652,
      "ç´Ģåħĥ": 2653,
      "ãĤĴçµĲ": 2654,
      "éģĬ": 2655,
      "ãģ¨ãģĵãĤį": 2656,
      "TV": 2657,
      "ãģ®åŃĲ": 2658,
      "çĤº": 2659,
      "ä»¥å¤ĸ": 2660,
      "ãģ®åĳ": 2661,
      "åĤ·": 2662,
      "æĽľæĹ¥": 2663,
      "åıĸç·ł": 2664,
      "ãĥĥãĥĳ": 2665,
      "åĮĹæµ·éģĵ": 2666,
      "ãĤĴéĸĭå§ĭ": 2667,
      "ie": 2668,
      "å¹´ãģ¾ãģ§": 2669,
      "é¹¿": 2670,
      "çī©èªŀ": 2671,
      "OM": 2672,
      "åĲ¹": 2673,
      "éģĭåĭķ": 2674,
      "ãĤ¹ãĥĨãĥ¼ãĤ¸": 2675,
      "æ§ĭæĪĲ": 2676,
      "è¼ª": 2677,
      "ãģ®å»": 2678,
      "OU": 2679,
      "å¸ĿåĽ½": 2680,
      "éĢļå¸¸": 2681,
      "ãģĹãģ¾ãģĨ": 2682,
      "åħ·": 2683,
      "ãģĵãģ¨ãģ¯": 2684,
      "çĨĬ": 2685,
      "ä¿³": 2686,
      "å®£": 2687,
      "çµĲå©ļ": 2688,
      "ãĤµãĤ¤ãĥĪ": 2689,
      "çĶŁçĶ£": 2690,
      "ãģĿãģĵ": 2691,
      "ĠæĹ¥æľ¬": 2692,
      "å¼ĺ": 2693,
      "åħ¨ãģ¦": 2694,
      "ãĤµãĥ¼ãĥĵãĤ¹": 2695,
      "éģ©": 2696,
      "åĺ": 2697,
      "ãĤĴçĽ®": 2698,
      "189": 2699,
      "ãĤ¹ãĤ¿ãĥĥ": 2700,
      "ãĤ¦ãĥ³ãĥī": 2701,
      "æľĪãģ®": 2702,
      "çĶ²": 2703,
      "åĢ¤": 2704,
      "æľĢãĤĤ": 2705,
      "ãĥ³ãģĮ": 2706,
      "âĺĨ": 2707,
      "ç¥ŀç¤¾": 2708,
      "ãĤīãĤĮãģ¦": 2709,
      "Ġand": 2710,
      "çĪĨ": 2711,
      "ãģ¾ãģ¾": 2712,
      "ãĥĲãĥ©": 2713,
      "å¦»": 2714,
      "è¦§": 2715,
      "èĩªçĶ±": 2716,
      "åĲįãģ¯": 2717,
      "ãģŁãģł": 2718,
      "å¤§æŃ£": 2719,
      "OL": 2720,
      "å½¼ãģ¯": 2721,
      "ç§Ĵ": 2722,
      "Ġ2015": 2723,
      "ãĥŁãĥ¼": 2724,
      "æĸ°èģŀ": 2725,
      "æĶ¿æ²»": 2726,
      "å®¶ãģ®": 2727,
      "åıĸç·łå½¹": 2728,
      "åĽł": 2729,
      "æĭł": 2730,
      "ãģ®åīį": 2731,
      "2005": 2732,
      "ç´Ģåħĥåīį": 2733,
      "åĸĦ": 2734,
      "çĶ·åŃĲ": 2735,
      "ãģ®ãģŁãĤģãģ«": 2736,
      "ãģ®æĸ°": 2737,
      "è¡£": 2738,
      "ãĤĴæ±º": 2739,
      ")ãĢģ": 2740,
      "Ġãĥŀ": 2741,
      "æı®": 2742,
      "æ¥½æĽ²": 2743,
      "kg": 2744,
      "æĴ®å½±": 2745,
      "ãĤ¹ãĥĶ": 2746,
      "AD": 2747,
      "çģ½": 2748,
      "ãģ«å¯¾ãģĻãĤĭ": 2749,
      "ãĤ¿ãĤ¤ãĥł": 2750,
      "éģİåİ»": 2751,
      "çĮ®": 2752,
      "åĲĪä½µ": 2753,
      "éĥ¨éĸĢ": 2754,
      "ãģĹãģªãģĦ": 2755,
      "çĻ»éĮ²": 2756,
      "è£ķ": 2757,
      "æľĢå¤§": 2758,
      "ĠãĤ«": 2759,
      "ç«ľ": 2760,
      "ia": 2761,
      "èĪªç©º": 2762,
      "å¤ļãģĦ": 2763,
      "ãģ«åıĤåĬł": 2764,
      "ãģĭãĤĬ": 2765,
      "æıı": 2766,
      "èªī": 2767,
      "åĢĭäºº": 2768,
      "æĻº": 2769,
      "ãģ¡ãĤĥãĤĵ": 2770,
      "ãĥĢãĤ¤": 2771,
      "ç½ª": 2772,
      "LE": 2773,
      "ç«ĭãģ¡": 2774,
      "80": 2775,
      "ãģ¾ãģ£ãģŁ": 2776,
      "ãģ®ãĤĪãģĨãģª": 2777,
      "å¸Į": 2778,
      "ãĥ¬ãĥ¼ãĤ·ãĥ§ãĥ³": 2779,
      "æķĻä¼ļ": 2780,
      "Ġå±±": 2781,
      "47": 2782,
      "ãĥĻãĤ¹ãĥĪ": 2783,
      "å¡ģ": 2784,
      "ãģ§ãģ¯ãģªãģĦ": 2785,
      "ãĤ¤ãĥ©": 2786,
      "ãĤªãĥªãĤ¸": 2787,
      "ãģ®å°ı": 2788,
      "ãĤªãĥĸ": 2789,
      "æ¾¤": 2790,
      "ãĤīãģĭ": 2791,
      "ãĥ«ãĥī": 2792,
      "ãĥķãĤ¸ãĥĨãĥ¬ãĥĵ": 2793,
      "èĢģ": 2794,
      "ãĥ¯ãĥ¼ãĥ«ãĥī": 2795,
      "æ²¡": 2796,
      "å°ĤéĸĢ": 2797,
      "IVE": 2798,
      "æĶ»æĴĥ": 2799,
      "ç¨²": 2800,
      "ãĤ®ãĥ¼": 2801,
      "åĬĽãĤĴ": 2802,
      "AK": 2803,
      "ãĤ¢ãĥĥãĥĹ": 2804,
      "37": 2805,
      "ç·´": 2806,
      "36": 2807,
      "éĸī": 2808,
      "çīĩ": 2809,
      "ãģ®æĽ": 2810,
      "ãģ«æĶ¹": 2811,
      "ãģĻãĤĭãģŁãĤģ": 2812,
      "çī¹å¾´": 2813,
      "è¢«": 2814,
      "The": 2815,
      "å¼ģ": 2816,
      "èºį": 2817,
      "ãĤĴåĩº": 2818,
      "èªķ": 2819,
      "ard": 2820,
      "FA": 2821,
      "éļĨ": 2822,
      "æķĳ": 2823,
      "å®Įåħ¨": 2824,
      "æ²ĸ": 2825,
      "çŁ¢": 2826,
      "çłĶç©¶æīĢ": 2827,
      "æĹ¥ãģ«ãģ¯": 2828,
      "ãģ«åĲĳ": 2829,
      "ab": 2830,
      "ãĤĮãģ¦ãģĦãģŁ": 2831,
      "è©©": 2832,
      "ãĤ¹ãĤ¿ãĥĥãĥķ": 2833,
      "op": 2834,
      "æķµ": 2835,
      "éĸĭåĤ¬ãģķãĤĮãģŁ": 2836,
      "æİĽ": 2837,
      "ä¸¦": 2838,
      "åŃ¦åľĴ": 2839,
      "åĽ£ä½ĵ": 2840,
      "ãĥ¬ãĥ¼ãĤ¹": 2841,
      "èĦļæľ¬": 2842,
      "åīĩ": 2843,
      "ãģ«åĩºåł´": 2844,
      "ãĤªãĥªãĤ¸ãĥĬãĥ«": 2845,
      "||||": 2846,
      "yle": 2847,
      "ãģ¸ãģ¨": 2848,
      "ãĤĴæĭħå½ĵ": 2849,
      "æĬĹ": 2850,
      "éĢĥ": 2851,
      "çī¹ãģ«": 2852,
      "çı¾ä»£": 2853,
      "ãģ«ãģĹãģŁ": 2854,
      "ãĥĳãĤ¤": 2855,
      "ãģ§ãģ¯ãģªãģı": 2856,
      "AP": 2857,
      "éļ£": 2858,
      "ãģ¨æĢĿ": 2859,
      "æĦĽçŁ¥": 2860,
      "é«ĺãģĦ": 2861,
      "ãĤ¦ãĥ«": 2862,
      "ãĤ²ãĤ¹ãĥĪ": 2863,
      "ãĤ´ãĥ¼ãĥ«": 2864,
      "ãĥ¬ãĥĥ": 2865,
      "OW": 2866,
      "ãĤıãĤĭ": 2867,
      "ãĥĭãĤ³": 2868,
      "ä»ĸãģ®": 2869,
      "ãĤ½ãĥķãĥĪ": 2870,
      "æľŁéĸĵ": 2871,
      "ãĤªãĥ¼ãĤ¹ãĥĪ": 2872,
      "ç§ĺ": 2873,
      "ãĤĴåıĹãģĳãģŁ": 2874,
      "ãĤ·ãĥ³": 2875,
      "æĺłåĥı": 2876,
      "ãģķãģĽãģŁ": 2877,
      "äººåħ¬": 2878,
      "ãĤ¢ãĤ¯": 2879,
      "VD": 2880,
      "ãĤ¤ãĤ¿ãĥªãĤ¢": 2881,
      "ãĥ©ãĤ¹": 2882,
      "åŃĲãģ®": 2883,
      "align": 2884,
      "âĢľ": 2885,
      "çĹħéĻ¢": 2886,
      "ce": 2887,
      "åįĶåĬĽ": 2888,
      "æľĿé®®": 2889,
      "è¸": 2890,
      "ãĤ¯ãĥ«": 2891,
      "ãĤĪãģĨãģ«ãģªãģ£ãģŁ": 2892,
      "ãĤĵãģª": 2893,
      "ä¸»ãģª": 2894,
      "ä»ģ": 2895,
      "39": 2896,
      "ãģĺãģ¦": 2897,
      "ãģ®æīĭ": 2898,
      "2004": 2899,
      "ãĤĴå§ĭ": 2900,
      "çĹĩ": 2901,
      "çµĦãģ¿": 2902,
      "ï¼īãĢį": 2903,
      "ä¼ļèŃ°": 2904,
      "æ³ģ": 2905,
      "è¿İ": 2906,
      "ãĤĴæ®": 2907,
      "éĢ£åĲĪ": 2908,
      "ãĤ³ãĥ¼ãĥī": 2909,
      "ãĤ¹ãĥļãĤ¤ãĥ³": 2910,
      "cm": 2911,
      "Ġ11": 2912,
      "ãģķãĤĮãģ¦ãģĬãĤĬ": 2913,
      "å¹ħ": 2914,
      "ç¬ĳ": 2915,
      "å¹´çĶŁ": 2916,
      "II": 2917,
      "å±¤": 2918,
      "æ³ķäºº": 2919,
      "ãģ®äºº": 2920,
      "åįļå£«": 2921,
      "ãģ®æĬ": 2922,
      "æ»ħ": 2923,
      "ãĤĴä½ľ": 2924,
      "ĠĠĠĠ": 2925,
      "èĭ±èªŀ": 2926,
      "38": 2927,
      "å®ĮæĪĲ": 2928,
      "ãĥªãĥĨãĤ£": 2929,
      "éª": 2930,
      "å¯©": 2931,
      "æ¸Ľ": 2932,
      "ãĥĽãĥ¼ãĥł": 2933,
      "BC": 2934,
      "èĵ": 2935,
      "æİ¡": 2936,
      "çŃĨ": 2937,
      "ãĤĴåıİ": 2938,
      "é§Ĩ": 2939,
      "ãĤ¯ãĥ¬": 2940,
      "ãģĺãģŁ": 2941,
      "32": 2942,
      "éĥµ": 2943,
      "ä¸»æ¼Ķ": 2944,
      "æ±Ĥ": 2945,
      "ãĥĪãĥĥãĥĹ": 2946,
      "ãĤ¢ãĤ¸ãĤ¢": 2947,
      "åĸľ": 2948,
      "å²Ĳ": 2949,
      "ãģĵãģ¨ãĤĤ": 2950,
      "æŁĵ": 2951,
      "è¼¸": 2952,
      "ãĤ¢ãĥ¡ãĥªãĤ«åĲĪè¡ĨåĽ½": 2953,
      "å°ıèª¬": 2954,
      "ãĤ¤ãĥ³ãĥī": 2955,
      "æĪĲåĬŁ": 2956,
      "å·¥æ¥Ń": 2957,
      "éģĵè·¯": 2958,
      "éĥ¨ãģ®": 2959,
      "ãģ²ãģ¨": 2960,
      "åĭ¤": 2961,
      "ãģ®å¦": 2962,
      "ãģŁãģĦ": 2963,
      "æľĪãģ«ãģ¯": 2964,
      "ap": 2965,
      "ãĥŃãĥ³": 2966,
      "åįĥèĳī": 2967,
      "ä¼¼": 2968,
      "åŃ£": 2969,
      "style": 2970,
      "çĴ°å¢ĥ": 2971,
      "åĽ½åĨħ": 2972,
      "çĩ": 2973,
      "ãĥ´ãĤ©": 2974,
      "ãĥ©ãĤ¤ãĥ³": 2975,
      "ãĥķãĥ©ãĥ³": 2976,
      "éļľ": 2977,
      "ãĥ©ãĤ¤ãĥĪ": 2978,
      "49": 2979,
      "æľŃ": 2980,
      "ãĥķãĥª": 2981,
      "ãģ®ä¸Ĭ": 2982,
      "çĭ¬ç«ĭ": 2983,
      "ä¾Ŀ": 2984,
      "ãĥ¼ãĥľ": 2985,
      "çķªåı·": 2986,
      "US": 2987,
      "çĽĽ": 2988,
      "av": 2989,
      "ãĥĻãĥ¼ãĤ¹": 2990,
      "ãĤĴçĻº": 2991,
      "ãĥĦãĤ¢ãĥ¼": 2992,
      "ãĥĩãĤª": 2993,
      "é¡ĺ": 2994,
      "ãĥŁãĥĭ": 2995,
      "ãĥĵãĤ¢": 2996,
      "ãģ¨åĳ¼ãģ°ãĤĮãĤĭ": 2997,
      "ãĤ½ãĥ³ãĤ°": 2998,
      "ãĥĿãĥ¼ãĥĪ": 2999,
      "éĸ¢éĢ£": 3000,
      "åĽº": 3001,
      "ä¹Ŀå·ŀ": 3002,
      "ãĥĿãĤ¸": 3003,
      "ãĥķãĤ¡ãĤ¤": 3004,
      "åįł": 3005,
      "Ġ&": 3006,
      "ãģ¨åĲĮãģĺ": 3007,
      "ãģ®ãģĮ": 3008,
      "èĩ³": 3009,
      "ãĥ¼ãĥ«ãĤº": 3010,
      "ãĥŁãĥ¥ãĥ¼ãĤ¸ãĥĥãĤ¯": 3011,
      "è¨Ńè¨Ī": 3012,
      "æ±ŁæĪ¸": 3013,
      "ä»¥æĿ¥": 3014,
      "ãĥ¼ãĥŁ": 3015,
      "Ġ978": 3016,
      "æľĪåı·": 3017,
      "æĿ¥æŃ´": 3018,
      "åį°": 3019,
      "2003": 3020,
      "Ġ2020": 3021,
      "å®¶æĹı": 3022,
      "ãĤĴçĶ¨": 3023,
      "ãģ©ãģĨ": 3024,
      "ç«¥": 3025,
      "çĶ±æĿ¥": 3026,
      "ãģĦãģ¦ãģĦãĤĭ": 3027,
      "å®Ļ": 3028,
      "ä¿³åĦª": 3029,
      "Ġ#": 3030,
      "æ¡ľ": 3031,
      "å§¿": 3032,
      "ãĥ¬ãĤ®ãĥ¥": 3033,
      "ç´¹": 3034,
      "art": 3035,
      "ight": 3036,
      "æĻ®": 3037,
      "çĽ¸æīĭ": 3038,
      "ãģªãģ£ãģŁ": 3039,
      "ç´Ķ": 3040,
      "è²·": 3041,
      "çĻºè¡¨ãģķãĤĮãģŁ": 3042,
      "éłħ": 3043,
      "ãĤ¤ãĤº": 3044,
      "ä¸įæĺİ": 3045,
      "ãģ«æīĢå±ŀ": 3046,
      "è¨Ńå®ļ": 3047,
      "ãĤĴä½¿": 3048,
      "ãģ®å¯¾": 3049,
      "34": 3050,
      "ãĤ«ãĥª": 3051,
      "ãģ®åĨħ": 3052,
      "ãĥ³ãĥĢãĥ¼": 3053,
      "ãĥĨãĥ³": 3054,
      "Ġ[": 3055,
      "åĲĳãģĳ": 3056,
      "ãģ®æ¥": 3057,
      "ãĤ¿ãĥ³": 3058,
      "TBS": 3059,
      "çĬ¯": 3060,
      "ãĢħãģª": 3061,
      "âĢ¦": 3062,
      "ãģ®æķĻ": 3063,
      "éłĪ": 3064,
      "èĩªåĭķè»Ĭ": 3065,
      "ãĥĥãĤ°": 3066,
      "ãĤ¦ãĥł": 3067,
      "æĹ¥ãģ¾ãģ§": 3068,
      "ãģ«ä¼´ãģĦ": 3069,
      "188": 3070,
      "æŀł": 3071,
      "ãģ®ãĤ¨": 3072,
      "ãĤıãĤĮãģŁ": 3073,
      "ãģ¾ãĤĭ": 3074,
      "é¶": 3075,
      "èŃ¦å¯Ł": 3076,
      "æī±": 3077,
      "æĸ°ãģŁ": 3078,
      "èĩ¨": 3079,
      "åīįãģ®": 3080,
      "ãģĽãĤĭ": 3081,
      "ãĥ³ãĥįãĥ«": 3082,
      "ãĤĴä¸İ": 3083,
      "ãĥĬãĤ¤": 3084,
      "ä»ĺãģį": 3085,
      "ãĤ¹ãĤ¿ãĤ¸ãĤª": 3086,
      "ĠãĢľ": 3087,
      "ãĤ¤ãĥ³ãĤ°": 3088,
      "ãģ«ãģ¤ãģĦãģ¦ãģ¯": 3089,
      "ãģ®æ¨": 3090,
      "ãģĦãģ«": 3091,
      "çĶ£æ¥Ń": 3092,
      "70": 3093,
      "Ġé«ĺ": 3094,
      "ãĥķãĥŃ": 3095,
      "ãģĦãģ¯": 3096,
      "åĶ±": 3097,
      "åĬ´åĥį": 3098,
      "ãĤµãĥ«": 3099,
      "éĩįè¦ģ": 3100,
      "æ¼«çĶ»": 3101,
      "ãĤ«ãĥ¼ãĥī": 3102,
      "åŃ¦ä¼ļ": 3103,
      "ãģ¨ãģĹãģ¦ãģĦãĤĭ": 3104,
      "ãģĻãĤĭãģĮ": 3105,
      "ä¸Ńãģ®": 3106,
      "ãĤĴåĲ«ãĤĢ": 3107,
      "åĳ¨å¹´": 3108,
      "æ¼Ķåĩº": 3109,
      "æľĢåĪĿ": 3110,
      "ãĥĶãĤ¢": 3111,
      "ãĤĴåıĹè³ŀ": 3112,
      "ãģ®å¿": 3113,
      "41": 3114,
      "æĩ": 3115,
      "äºľ": 3116,
      "éĻ£": 3117,
      "ãģ®ãģĭ": 3118,
      "ãĢįãĢģ": 3119,
      "æ©Łèĥ½": 3120,
      "Ġä¸ī": 3121,
      "ĠãĢģ": 3122,
      "è¾ŀ": 3123,
      "ãģ®ãĤĪãģĨãģ«": 3124,
      "åĦĦ": 3125,
      "ç¸Ħ": 3126,
      "çĲĨçĶ±": 3127,
      "ãģªãģ©ãĤĴ": 3128,
      "ãĥĭãĥ¥ãĥ¼ãĥ": 3129,
      "ãģ®æĮĩ": 3130,
      "ç¥ŀå¥Ī": 3131,
      "åĨħãģ«": 3132,
      "ill": 3133,
      "çĤ¹ãģ§": 3134,
      "ãĤĴåıĸãĤĬ": 3135,
      "ãĤ®ãĥ£": 3136,
      "æľĪãģĭãĤī": 3137,
      "ãĤĴè¡Įãģ£ãģŁ": 3138,
      "wit": 3139,
      "é£Ľè¡Į": 3140,
      "éĢĨ": 3141,
      "å¿ł": 3142,
      "ç´¹ä»ĭ": 3143,
      "å¸¸ãģ«": 3144,
      "é¡Ķ": 3145,
      "RO": 3146,
      "éĬĢè¡Į": 3147,
      "æ¯Ľ": 3148,
      "44": 3149,
      "ãģ®æ¯": 3150,
      "ãĥ¡ãĤ¤": 3151,
      "æĸĩåº«": 3152,
      "ĠæĿ±": 3153,
      "æĲº": 3154,
      "ãĥįãĤ¹": 3155,
      "éĥµä¾¿": 3156,
      "åĨįãģ³": 3157,
      "ãĤ¸ãĤ§ãĤ¯ãĥĪ": 3158,
      "çĻºè¡¨ãģĹãģŁ": 3159,
      "èĬ¸è¡ĵ": 3160,
      "ãģĮåĩº": 3161,
      "ä¹ĥ": 3162,
      "åıİéĮ²æĽ²": 3163,
      "éĪ´æľ¨": 3164,
      "è£½éĢł": 3165,
      "éħ¸": 3166,
      "å¤§åŃ¦éĻ¢": 3167,
      "å¤ļãģıãģ®": 3168,
      "é»Ħ": 3169,
      "ãĤ¢ãĥª": 3170,
      "çł²": 3171,
      "æģ¯": 3172,
      "ãģ®ä¸Ńãģ§": 3173,
      "ç¥ŀå¥Īå·Ŀ": 3174,
      "ãĤħãģĨ": 3175,
      "ãĤĴæıĲ": 3176,
      "ãĥ©ãĥł": 3177,
      "ãĥ¡ãĥĢãĥ«": 3178,
      "NE": 3179,
      "éª¨": 3180,
      "ãĥĿãĤ¸ãĤ·ãĥ§ãĥ³": 3181,
      "çĻºå£²ãģķãĤĮãģŁ": 3182,
      "å°ĳå¥³": 3183,
      "ãģ¯ä»¥ä¸ĭãģ®": 3184,
      "ãĥĭãĥ³ãĤ°": 3185,
      "åİŁä½ľ": 3186,
      "ãģĭãĤĮãģŁ": 3187,
      "åĨĻçľŁ": 3188,
      "¼Ķ": 3189,
      "ãĤīãģ¯": 3190,
      "2002": 3191,
      "ãĤĴéĸĭ": 3192,
      "åħ±åĲĮ": 3193,
      "ãĥ³ãĤº": 3194,
      "1999": 3195,
      "ãģ®ä¸ĭ": 3196,
      "ä¸»ãģ«": 3197,
      "ãĥĩãĥ¼ãĤ¿": 3198,
      "ãģĵãģ¨ãģ«": 3199,
      "ãĥ¼ãĥ©ãĥ³ãĥī": 3200,
      "ãģĵãģĵ": 3201,
      "ãĤĤãģ¨": 3202,
      "ãģ®æĺł": 3203,
      "ãĥ¨ãĥ¼ãĥŃ": 3204,
      "ive": 3205,
      "åĵ²": 3206,
      "èªķçĶŁ": 3207,
      "ãģ®ãģ¡": 3208,
      "æ¿Ģ": 3209,
      "ãĥŁãĤ¢": 3210,
      "SP": 3211,
      "xt": 3212,
      "ãĤĴä¸Ńå¿ĥ": 3213,
      "ãģĭãģª": 3214,
      "éĽ»æ°Ĺ": 3215,
      "åĪĩãĤĬ": 3216,
      "ä¸ĺ": 3217,
      "ãģ«åĪĨ": 3218,
      "¾éĢģ": 3219,
      "æ®¿": 3220,
      "ãģ®æ§": 3221,
      "ãģ®æĢ": 3222,
      "ä»ķäºĭ": 3223,
      "ãĤ¯ãĤ¹": 3224,
      "ãĤ¸ãĥ¼": 3225,
      "ãĤ¢ãĥ¬": 3226,
      "é¡į": 3227,
      "äºĪéģ¸": 3228,
      "ãĥ¯ãĥ¼": 3229,
      "éľĬ": 3230,
      "çĦ¼": 3231,
      "åĲįèªī": 3232,
      "å¾ĹçĤ¹": 3233,
      "åĪĹè»Ĭ": 3234,
      "ãĤ»ãĤ¹": 3235,
      "ãģ¨ãģķãĤĮãĤĭ": 3236,
      "ãģĵãģ¨ãģĮãģ§ãģįãĤĭ": 3237,
      "ãģĹãģ¦ãģĦãģŁãģĮ": 3238,
      "ãĥĵãĥĩãĤª": 3239,
      "éŁĵåĽ½": 3240,
      "ãĥĳãĥ©": 3241,
      "ãģĹãģ°": 3242,
      "ï¼Ī*": 3243,
      "è¡Įåĭķ": 3244,
      "CM": 3245,
      "DVD": 3246,
      "ãģ®èĪ": 3247,
      "åĭĿãģ¡": 3248,
      "éĽ²": 3249,
      "ãĥĭãĥ¥ãĥ¼ãĤ¹": 3250,
      "ĠãĤ³": 3251,
      "ãĤıãģ£ãģŁ": 3252,
      "ãģĭãģĦ": 3253,
      "ãĥ¨ãĥ¼ãĥŃãĥĥãĥĳ": 3254,
      "ct": 3255,
      "ç©ºæ¸¯": 3256,
      "æ§ĭéĢł": 3257,
      "ĠãĤª": 3258,
      "åĢĻè£ľ": 3259,
      "ãĥ³ãĥľ": 3260,
      "å»ĥæŃ¢": 3261,
      "ãģ¨ãģĦãģ£ãģŁ": 3262,
      "ç¨İ": 3263,
      "èĹ©": 3264,
      "éĽ¨": 3265,
      "é¬": 3266,
      "çĶ·æĢ§": 3267,
      "ãĤĤãģ®ãģ§ãģĤãĤĭ": 3268,
      "æķ·": 3269,
      "è£ģåĪ¤": 3270,
      "ç¥ŀæĪ¸": 3271,
      "å¾ĭ": 3272,
      "è²¨": 3273,
      "å¹¹": 3274,
      "2001": 3275,
      "est": 3276,
      "ãĤ«ãĥ©": 3277,
      "ãģĻãģ¹ãģ¦": 3278,
      "é£¾": 3279,
      "ãģ®æĦı": 3280,
      "æ²¿éĿ©": 3281,
      "ãģ®æ´»": 3282,
      "ãĤ·ãĥĨãĤ£": 3283,
      "åºŃ": 3284,
      "çµ±éłĺ": 3285,
      "å®ĩå®Ļ": 3286,
      "éģĭè¡Į": 3287,
      "ãĤıãģŁ": 3288,
      "ãĥ³ãĥĬ": 3289,
      "our": 3290,
      "åŃ«": 3291,
      "ä¼¸": 3292,
      "çĲĨäºĭ": 3293,
      "AG": 3294,
      "ãĥīãĥª": 3295,
      "èģ´": 3296,
      "æİ²": 3297,
      "ãģłãģ£ãģŁãģĮ": 3298,
      "ãĥ¬ãĤ®ãĥ¥ãĥ©ãĥ¼": 3299,
      "ãģ«ãģ¨": 3300,
      "ãģ®å½±": 3301,
      "è¦ıæ¨¡": 3302,
      "56": 3303,
      "ell": 3304,
      "ãģ®å£": 3305,
      "ãĢĤãĢİ": 3306,
      "ãĤ±ãĥ«": 3307,
      "ç¤¼": 3308,
      "æ¹ĸ": 3309,
      "ãģĮè¡ĮãĤı": 3310,
      "ĠIn": 3311,
      "1990": 3312,
      "res": 3313,
      "ãĤ¹ãĥļãĤ·ãĥ£ãĥ«": 3314,
      "ãĥ¡ãĥĩãĤ£ãĤ¢": 3315,
      "è»½": 3316,
      "è¿½åĬł": 3317,
      "è£ı": 3318,
      "ãģ®å»º": 3319,
      "åĦªç§Ģ": 3320,
      "ãĤĵãģ©": 3321,
      "ãģ¶ãĤĬ": 3322,
      "ãģĦãģļ": 3323,
      "æī¹": 3324,
      "ãĤĴä½¿çĶ¨": 3325,
      "çĸĳ": 3326,
      "æĭ¡": 3327,
      "58": 3328,
      "æĪ¦éĹĺ": 3329,
      "æķ°ãģ¯": 3330,
      "ine": 3331,
      "æĹ¥æľ¬èªŀ": 3332,
      "æķ°ãģ®": 3333,
      "åħ±åĴĮåĽ½": 3334,
      "åĲįãģ®": 3335,
      "å°ĳå¹´": 3336,
      "ãĤ¬ãĥ«": 3337,
      "ç¦ģ": 3338,
      "ãĤ¤ãĥ³ãĥĪ": 3339,
      "ĠãĢĤ": 3340,
      "éĽª": 3341,
      "©Ł": 3342,
      "hi": 3343,
      "ä¸Ģéĥİ": 3344,
      "âĹ": 3345,
      "åĨħå®¹": 3346,
      "ne": 3347,
      "äºĭåĭĻæīĢ": 3348,
      "54": 3349,
      "å§«": 3350,
      "è¨İ": 3351,
      "åĩºãģĹãģŁ": 3352,
      "ç·Ĵ": 3353,
      "ãģ«éĢ²": 3354,
      "ãĥķãĤ¡ãĥ³": 3355,
      "ç´į": 3356,
      "å½©": 3357,
      "ä¿Ĭ": 3358,
      "åĽ½æ°ĳ": 3359,
      "ä½ĲèĹ¤": 3360,
      "ID": 3361,
      "ãĤĪãĤĬãĤĤ": 3362,
      "å¢³": 3363,
      "ãĥĸãĥŃ": 3364,
      "ç°": 3365,
      "all": 3366,
      "Ġ2014": 3367,
      "ãĤ¦ãĥĪ": 3368,
      "ãĥĸãĥ¬": 3369,
      "ãģ¨èĢĥãģĪ": 3370,
      "æŃ»åİ»": 3371,
      "ãĤ¢ãĥ©": 3372,
      "æİ¢": 3373,
      "ãģ®éĸĵ": 3374,
      "æĽ¸æĪ¿": 3375,
      "ãĥĭãĥĥãĤ¯": 3376,
      "ãģ¨å¯¾": 3377,
      "og": 3378,
      "èĩªçĦ¶": 3379,
      "åĨħãģ®": 3380,
      "ãģ«å¯¾ãģĹ": 3381,
      "ãĥĹãĥ¬ãĥ¼": 3382,
      "é½": 3383,
      "å«": 3384,
      "çłĤ": 3385,
      "èıľ": 3386,
      "æĢª": 3387,
      "éĤ£": 3388,
      "è«ĭ": 3389,
      "å¶": 3390,
      "åŃ¦ç§ĳ": 3391,
      "ãģ¾ãģĻ": 3392,
      "æĺĵ": 3393,
      "57": 3394,
      "å»ºç¯ī": 3395,
      "59": 3396,
      "ãģ«ãģĤãģŁ": 3397,
      "ãĤĴãģ¤": 3398,
      "ãĤ¨ãĥ³ãĤ¸": 3399,
      "ãĢĢãĢĢ": 3400,
      "42": 3401,
      "Ã©": 3402,
      "ãĥ¼ãĥĢãĥ¼": 3403,
      "å¨ĺ": 3404,
      "ãĥĳãĥ¼ãĥĪ": 3405,
      "åĳ¨è¾º": 3406,
      "ãĥĭãĥ¥ãĥ¼ãĥ¨": 3407,
      "æĮģãģ¡": 3408,
      "eb": 3409,
      "ãģ«ãģªãģ£ãģ¦ãģĦãĤĭ": 3410,
      "ãģ«åĩºæ¼Ķ": 3411,
      "å¦¹": 3412,
      "éĥ¨éļĬ": 3413,
      "Ġl": 3414,
      "ĠãĤµ": 3415,
      "ãĤ³ãĥ¼ãĥĬãĥ¼": 3416,
      "ãĥ«ãĥ¼": 3417,
      "å·¡": 3418,
      "ãģ®å½±éŁ¿": 3419,
      "éĸ£": 3420,
      "ãĥ¦ãĥĭãĥĥãĥĪ": 3421,
      "ãĥĭãĥ¥ãĥ¼ãĥ¨ãĥ¼ãĤ¯": 3422,
      "ãĤ¹ãĤ±": 3423,
      "ãģ®å®Ł": 3424,
      "ç¯Ħ": 3425,
      "ãĤ°ãĥ¬": 3426,
      "çľĮç«ĭ": 3427,
      "èªĺ": 3428,
      "æĨ²": 3429,
      "æ§ĺãĢħãģª": 3430,
      "ãĥ¡ãĥ¼ãĤ¸": 3431,
      "ãģ®æł": 3432,
      "éĢ£éĤ¦": 3433,
      "åı¯èĥ½æĢ§": 3434,
      "'s": 3435,
      "ãģ®æĪĲ": 3436,
      "Ġ2021": 3437,
      "çŃĶ": 3438,
      "è¡ĮæĶ¿": 3439,
      "ãĥģãĥ§": 3440,
      "éĬĥ": 3441,
      "é§Ĳ": 3442,
      "å±ķéĸĭ": 3443,
      "åĭĩ": 3444,
      "çı¾åľ¨ãģ¯": 3445,
      "ãĥ¯ãĥ¼ãĤ¯": 3446,
      "ãĤīãģĻ": 3447,
      "ãĤ¦ãĥ³ãĤµãĥ¼": 3448,
      "ãģ®æĶ¯": 3449,
      "ãģ®è¿": 3450,
      "æŁ³": 3451,
      "å¯¿": 3452,
      "åľ°ãģ«": 3453,
      "if": 3454,
      "ç«ĭãģ¦": 3455,
      "è·¯ç·ļ": 3456,
      "å½±éŁ¿": 3457,
      "Ġ|": 3458,
      "éĽħ": 3459,
      "ãĤªãĥ¼ãĥĹãĥ³": 3460,
      "èĴ": 3461,
      "åĪĿæľŁ": 3462,
      "YO": 3463,
      "ãģĺãĤģ": 3464,
      "ãĤ¹ãĤŃ": 3465,
      "çĶŁãģį": 3466,
      "è¼Ŀ": 3467,
      "ãĥĺãĥ«": 3468,
      "çķ¥æŃ´": 3469,
      "æĵį": 3470,
      "ãĤ¹ãĥŀ": 3471,
      "ãĥĹãĥŃãĤ¸ãĤ§ãĤ¯ãĥĪ": 3472,
      "å¤§çµ±éłĺ": 3473,
      "ãĥĨãĥ¬ãĥĵæľĿæĹ¥": 3474,
      "éĥ¨å±ĭ": 3475,
      "åŃĿ": 3476,
      "ãĤ¢ãĥķ": 3477,
      "«éľ²": 3478,
      "ãĤ¯ãĥ©ãĤ¹": 3479,
      "ãĥ¼ãĤ«ãĥ¼": 3480,
      "ãģ«æĪ»": 3481,
      "90": 3482,
      "ä¾µ": 3483,
      "ç¶Ń": 3484,
      "åĩºãģĹ": 3485,
      "ãģ«ãĤĪãĤĭãģ¨": 3486,
      "ä»®éĿ¢": 3487,
      "æĪĳ": 3488,
      "ĿéĽ¢": 3489,
      "çķ°ãģªãĤĭ": 3490,
      "ãģ¨ãģĨ": 3491,
      "åŁ¼": 3492,
      "æĶ¯æı´": 3493,
      "ãĥīãĤ¥": 3494,
      "èº«éķ·": 3495,
      "çĽ®çļĦ": 3496,
      "åĪĿåĽŀ": 3497,
      "ãĤīãģªãģĦ": 3498,
      "ãĤ¨ãĤ¤": 3499,
      "åħ¨ä½ĵ": 3500,
      "Ġãĥı": 3501,
      "ãĥ©ãĥľ": 3502,
      "äººãĤĴ": 3503,
      "HI": 3504,
      "ãģĺãĤĭ": 3505,
      "éĸ¢è¥¿": 3506,
      "ãģ®æĶ¿": 3507,
      "éŃĶæ³ķ": 3508,
      "æ¶²": 3509,
      "ä»Ļ": 3510,
      "ãĤĴåĭĻãĤģ": 3511,
      "43": 3512,
      "æµ·è»į": 3513,
      "ass": 3514,
      "ãĤµãĥĥãĤ«ãĥ¼éģ¸æīĭ": 3515,
      "ãģ®çĻº": 3516,
      "çĽĬ": 3517,
      "ãĤ¢ãĤ«": 3518,
      "è¨´": 3519,
      "å§ī": 3520,
      "ï¼į": 3521,
      "éĭ": 3522,
      "å¤§ãģįãģª": 3523,
      "è¨Ģèĳī": 3524,
      "ãĥ³ãĥĻ": 3525,
      "ãģ®æĸĩ": 3526,
      "ãģ§ãģįãģªãģĦ": 3527,
      "ãģ®ä¸Ģãģ¤": 3528,
      "éľĩ": 3529,
      "EC": 3530,
      "ãģŁãģłãģĹ": 3531,
      "æĢ§æł¼": 3532,
      "æĿī": 3533,
      "ä¸»äººåħ¬": 3534,
      "é¶´": 3535,
      "åĪ»": 3536,
      "ãģ¨è¿°ãģ¹": 3537,
      "æĸĩåŃ¦": 3538,
      "ãĤĵãģ§ãģĦãĤĭ": 3539,
      "éĥ¨éķ·": 3540,
      "ãģıãĤĭ": 3541,
      "çĽĹ": 3542,
      "åŃĲä¾Ľ": 3543,
      "åŃ¦åĮº": 3544,
      "éģ£": 3545,
      "ãģªãģ©ãģĮ": 3546,
      "ãĤ¬ãĥ¼": 3547,
      "ä½Ļ": 3548,
      "çĳ": 3549,
      "åłĢ": 3550,
      "éĻ¢èŃ°åĵ¡": 3551,
      "æµ©": 3552,
      "åŃ¦éĻ¢": 3553,
      "ãģ«åŁº": 3554,
      "è©¦é¨ĵ": 3555,
      "ãĤ«ãĥĬ": 3556,
      "od": 3557,
      "ãĥ¼ãĥİ": 3558,
      "ãĤ°ãĥª": 3559,
      "æ¢¨": 3560,
      "æĹ¢": 3561,
      "ISBN": 3562,
      "ãģĦãģ®": 3563,
      "ãģ«ãģªãģ£ãģ¦": 3564,
      "ãģľ": 3565,
      "äºĴ": 3566,
      "é¬¼": 3567,
      "ãĤ½ãĥŃ": 3568,
      "ç·¨æĪĲ": 3569,
      "ãĤ²ãĥ³": 3570,
      "æ¸ĭ": 3571,
      "ãģĽãĤĵ": 3572,
      "éĸĭæ¥Ń": 3573,
      "ï¼īï¼Ī": 3574,
      "ãģ¯ä»¥ä¸ĭãģ®éĢļãĤĬ": 3575,
      "å·¨": 3576,
      "åī£": 3577,
      "ĠCh": 3578,
      "åĽ½ç«ĭ": 3579,
      "1998": 3580,
      "èĮ¶": 3581,
      "ãĤĴè¡¨": 3582,
      "ãģ®æĿ±": 3583,
      "ãģ¬": 3584,
      "ãĥĥãĤ»": 3585,
      "çĻ»åł´ãģĻãĤĭ": 3586,
      "åŁ¼çİī": 3587,
      "ãĥ©ãĥ³ãĤŃãĥ³ãĤ°": 3588,
      "ãģ«ãģĤãģ£ãģŁ": 3589,
      "çĶ°ä¸Ń": 3590,
      "ãģĹãĤĪãģĨ": 3591,
      "1995": 3592,
      "ä¸ĩåĨĨ": 3593,
      "æĿŁ": 3594,
      "ãĤĴç¤º": 3595,
      "ãĢį(": 3596,
      "ãĤºãĥł": 3597,
      "ãģĪãģ°": 3598,
      "çİĭåĽ½": 3599,
      "ç·ĳ": 3600,
      "ãģ®éķ·": 3601,
      "èĨ": 3602,
      "ãĤ¬ãĥ³": 3603,
      "ik": 3604,
      "ä½ľå®¶": 3605,
      "èĥ½åĬĽ": 3606,
      "å¸Ĥéķ·": 3607,
      "è¾¼ãģ¿": 3608,
      "ä¸Ńãģ§": 3609,
      "åŁºæľ¬": 3610,
      "ĠãģĤ": 3611,
      "ä½³": 3612,
      "ãĤ¯ãĥªãĤ¹": 3613,
      "ä¸ĬãģĮ": 3614,
      "ä»ı": 3615,
      "ãģ®ãĥŀ": 3616,
      "èĪĹ": 3617,
      "ãģ»ãģ¨": 3618,
      "ãĤ»ãĥ³ãĥĪ": 3619,
      "ãĥ¼ãĤ¸ãĥ§": 3620,
      "åĪĿä»£": 3621,
      "ãģĭãĤı": 3622,
      "åıĮ": 3623,
      "äºĭæķħ": 3624,
      "æĪĲç«ĭ": 3625,
      "ãģ®æĸ¹": 3626,
      "æĦĽçŁ¥çľĮ": 3627,
      "æ°ĳä¸»": 3628,
      "ãĤĦãģĻ": 3629,
      "åĨ¬": 3630,
      "ŀį": 3631,
      "ãĤĦãģ¾": 3632,
      "çī§": 3633,
      "ãĥ³ãĥĹãĥª": 3634,
      "ãģ®ãĤª": 3635,
      "ãĤŃãĥ£ãĤ¹ãĥĪ": 3636,
      "ING": 3637,
      "ãĤĪãģı": 3638,
      "éļł": 3639,
      "ãģĹãĤĩãģĨ": 3640,
      "ãĤ¦ãĤ§ãĤ¤": 3641,
      "187": 3642,
      "å·¥åł´": 3643,
      "ãģĶãģ¨": 3644,
      "ãĤ¨ãĥ³": 3645,
      "1994": 3646,
      "OS": 3647,
      "ç§°ãģ¯": 3648,
      "èįĴ": 3649,
      "ION": 3650,
      "æļ´": 3651,
      "1996": 3652,
      "ãĥ©ãĤ°": 3653,
      "åĸ¶æ¥Ń": 3654,
      "è³ĩæĸĻ": 3655,
      "æĮĩå°İ": 3656,
      "èĩªæ²»": 3657,
      "éŃļ": 3658,
      "Ġ2022": 3659,
      "ãĤĴåĭĻãĤģãĤĭ": 3660,
      "ãģ®åł´åĲĪ": 3661,
      "ob": 3662,
      "ï¼īï¼ļ": 3663,
      "ãĤ¢ãĥ³ãĥī": 3664,
      "èĭ¦": 3665,
      "ãģ¾ãģ§ãģ®": 3666,
      "ãĥŁãĥ¥": 3667,
      "ãĤ¹ãĥĪãĥ©": 3668,
      "1997": 3669,
      "çĶŁå¾Ĵ": 3670,
      "å¥¥": 3671,
      "çĶŁçī©": 3672,
      "å¤īåĮĸ": 3673,
      "ãģĴãģŁ": 3674,
      "è»įãģ¯": 3675,
      "åĲ¦": 3676,
      "å¤§èĩ£": 3677,
      "ãģĦãģ¡": 3678,
      "ï¼Į": 3679,
      "ãĥĢãĥ³": 3680,
      "é£¯": 3681,
      "çµ±åĲĪ": 3682,
      "ãĥĢãĥ³ãĤ¹": 3683,
      "ãģ®ãģĤãĤĭ": 3684,
      "åĭķçī©": 3685,
      "çµĮé¨ĵ": 3686,
      "ãĥŃãĥ³ãĥī": 3687,
      "åľ°çĲĨ": 3688,
      "ç¸ģ": 3689,
      "ãĥ«ãģ®": 3690,
      "éĸ¢æĿ±": 3691,
      "500": 3692,
      "æľĹ": 3693,
      "ãĤĴãģĻãĤĭ": 3694,
      "æĻĤä»£ãģ®": 3695,
      "ãĥĹãĥĪ": 3696,
      "åħ¥ãĤĮ": 3697,
      "æĻ´": 3698,
      "1992": 3699,
      "ãĥĬãĤ¤ãĥĪ": 3700,
      "ãģĦãģļãĤĮ": 3701,
      "ãģ«åŁºãģ¥": 3702,
      "åħĥå¹´": 3703,
      "ãģ£ãģ¨": 3704,
      "ãģĹãģ¾ãģ£ãģŁ": 3705,
      "Ġ0": 3706,
      "ãģ®æ³": 3707,
      "ãģ®å¨": 3708,
      "ãĥ¼ãģ¯": 3709,
      "\"|-||": 3710,
      "ue": 3711,
      "åľı": 3712,
      "Ġ2013": 3713,
      "ãĥŃãĤ¹": 3714,
      "åĨħãģ§": 3715,
      "ãģĴãĤĭ": 3716,
      "ãģ®æŃ»": 3717,
      "ãģ®åİ": 3718,
      "ãģ£ãģ": 3719,
      "ãĤĴæĮĩ": 3720,
      "ãĤĴæĶ¯": 3721,
      "æµħ": 3722,
      "ä¿ĿèŃ·": 3723,
      "ãģ«ä½įç½®": 3724,
      "åĲĮæ§ĺ": 3725,
      "ant": 3726,
      "ãģ®åķ": 3727,
      "ãģ®ãģĨãģ¡": 3728,
      "ud": 3729,
      "åĿĩ": 3730,
      "äººãģ§": 3731,
      "IR": 3732,
      "éı": 3733,
      "1980": 3734,
      "ãģ»ãģ¨ãĤĵãģ©": 3735,
      "åĪ°": 3736,
      "ĠæĿ±äº¬": 3737,
      "è§¦": 3738,
      "ãĥĥãĤ·ãĥ§ãĥ³": 3739,
      "ãģ®å¢": 3740,
      "ãĤıãĤĮ": 3741,
      "Ġãĥª": 3742,
      "å¸Ĥæ°ĳ": 3743,
      "1993": 3744,
      "æ¢ħ": 3745,
      "Ġè¥¿": 3746,
      "ft": 3747,
      "çĬ¶æ³ģ": 3748,
      "æīĵãģ¡": 3749,
      "ä½ĵèĤ²": 3750,
      "ãĤ®ãĤ¿ãĥ¼": 3751,
      "ãĤĴãģĹãģŁ": 3752,
      "ãĥ¼ãĥŀãĥ³": 3753,
      "åıįå¯¾": 3754,
      "éģĭè»¢": 3755,
      "ãĤ¢ãĥĬãĤ¦ãĥ³ãĤµãĥ¼": 3756,
      "ãĤ³ãĥ³ãĥĨ": 3757,
      "äººæ°Ĺ": 3758,
      "ist": 3759,
      "åĩºãģķãĤĮãģŁ": 3760,
      "ãĤĴåıĹãģĳãģ¦": 3761,
      "æĬŀ": 3762,
      "æ²¼": 3763,
      "ãĤĴåįĴæ¥Ń": 3764,
      "æĺĮ": 3765,
      "ãĤ°ãĥ©ãĥł": 3766,
      "ep": 3767,
      "æĿ¯": 3768,
      "ãĤ·ãĤ¢ãĤ¿ãĥ¼": 3769,
      "ãģªãģĭ": 3770,
      "èªł": 3771,
      "ãģ®ãĤ«": 3772,
      "ãģĦãģĮ": 3773,
      "çĻºè¡Į": 3774,
      "åĶ¯": 3775,
      "ĠãĥĲ": 3776,
      "ç¿¼": 3777,
      "ãģ®ãĥ¬": 3778,
      "ãĤ¹ãĥĪãĥª": 3779,
      "ãĤĴæīĭ": 3780,
      "°ãĤĬ": 3781,
      "æ²ĸç¸Ħ": 3782,
      "ãĤ¸ãĥ£ãĥ³": 3783,
      "åŃĺåľ¨ãģĻãĤĭ": 3784,
      "ang": 3785,
      "ãĥĳãĥª": 3786,
      "ãĥĿãĤ¸ãĤ·ãĥ§ãĥ³ãģ¯": 3787,
      "ãģĭãĤĭ": 3788,
      "èĤī": 3789,
      "åĽ½å®¶": 3790,
      "ãģªãģĹ": 3791,
      "è¡¨è¨ĺ": 3792,
      "å¯¾è±¡": 3793,
      "ãģ¾ãģ§ãģ¯": 3794,
      "çİĭåº§": 3795,
      "æıĲä¾Ľ": 3796,
      "ãĥĩãĤ¤": 3797,
      "AY": 3798,
      "ãģ§ãģĤãģ£ãģŁãģĮ": 3799,
      "è¾¼ãģ¾": 3800,
      "èĮĤ": 3801,
      "æ½Ł": 3802,
      "æ´»èºį": 3803,
      "1991": 3804,
      "çĪ¶è¦ª": 3805,
      "Ġa": 3806,
      "ä¹ĹãĤĬ": 3807,
      "ãģ®æĭ": 3808,
      "ĠãģĬ": 3809,
      "åĮħ": 3810,
      "52": 3811,
      "ä½ıæ°ĳ": 3812,
      "ãĤ¸ãĥ¥ãĥĭãĤ¢": 3813,
      "æĽ¸åºĹ": 3814,
      "è»Ĭä¸¡": 3815,
      "ãĤīãģĮ": 3816,
      "âĢķ": 3817,
      "æŀĲ": 3818,
      "æĹ¥æĶ¾éĢģ": 3819,
      "ãĤªãĥķ": 3820,
      "ãģ®åĮĹ": 3821,
      "éĽĳèªĮ": 3822,
      "ĠTHE": 3823,
      "ä»£çĽ®": 3824,
      "UM": 3825,
      "text": 3826,
      "ãģ®ãĤĤãģ®": 3827,
      "ãĥĪãĥ©ãĥĥãĤ¯": 3828,
      "å·¥äºĭ": 3829,
      "ãģ«éĢļ": 3830,
      "åĬ¹æŀľ": 3831,
      "ãģĻãĤĭãģŁãĤģãģ«": 3832,
      "ãģ°ãĤĮãģŁ": 3833,
      "åĴ²": 3834,
      "åľ°ä¸ĭ": 3835,
      "ãģ®æĺłçĶ»": 3836,
      "å°ģ": 3837,
      "éį": 3838,
      "ãģıãĤī": 3839,
      "éĿĻå²¡": 3840,
      "ãĥ¼ãĥ¡": 3841,
      "Ńè¼ī": 3842,
      "ãĤ¨ãĥ³ãĤ¿": 3843,
      "ãĤ¸ãĥ§ãĥ¼ãĤ¸": 3844,
      "ç¯ĩ": 3845,
      "ãĤ¸ãĥ£ãĥĳãĥ³": 3846,
      "äººãģ«": 3847,
      "ãĥ³ãĥļ": 3848,
      "åĢį": 3849,
      "IG": 3850,
      "ãģĻãĤĭãģĵãģ¨ãĤĴ": 3851,
      "ä¸Ĭãģ§": 3852,
      "ãĥ¡ãĤ¤ãĥ³": 3853,
      "ãĥ©ãĥ³ãĥĢ": 3854,
      "Ġde": 3855,
      "åħ±èĳĹ": 3856,
      "ãģ§ãģĤãĤĭãģĮ": 3857,
      "UN": 3858,
      "åħ¨æĹ¥æľ¬": 3859,
      "ãĥ³ãĥĩãĤ£ãĥ³ãĤ°": 3860,
      "æĿİ": 3861,
      "æ¼¢": 3862,
      "ãĤ»ãĥĥãĥĪ": 3863,
      "æİ²è¼ī": 3864,
      "å¹´ãģ¯": 3865,
      "ãĤ´ãĥ«": 3866,
      "ãĤĴæĮĻ": 3867,
      "å½°": 3868,
      "ãĥªãĤ¨": 3869,
      "å¼ķéĢĢ": 3870,
      "éģ¿": 3871,
      "ãģ®ç¬¬": 3872,
      "å¾ģ": 3873,
      "å·±": 3874,
      "éĢļä¿¡": 3875,
      "ãĤĴè¨ĺéĮ²ãģĹãģŁ": 3876,
      "å¤§ãģįãģı": 3877,
      "çĶ³": 3878,
      "ãģ®æŃĮ": 3879,
      "ãĤĴè¡ĮãģĦ": 3880,
      "ãĤ¹ãĥĪãĥ¼ãĥªãĥ¼": 3881,
      "ãĤŃãĤ·": 3882,
      "å©¦": 3883,
      "ĠãĤ¤": 3884,
      "åı°æ¹¾": 3885,
      "ãĤĴæŀľãģŁãģĹãģŁ": 3886,
      "æĥĳ": 3887,
      "53": 3888,
      "çĶ¨ãģĦ": 3889,
      "ãĥ¼ãĥĲãĥ¼": 3890,
      "ãģ®ãĥª": 3891,
      "ãģ®æ±": 3892,
      "èĥŀ": 3893,
      "åľ°çĲĥ": 3894,
      "çĶŁãģ¾ãĤĮãģŁ": 3895,
      "ãģ®ãĥ¡ãĥ³ãĥĲãĥ¼": 3896,
      "1970": 3897,
      "ãģĳãĤĮãģ°": 3898,
      "éı¡": 3899,
      "ãģķãĤĮãģŁãģĮ": 3900,
      "åľ°åħĥ": 3901,
      "æĸ°ãģĹãģĦ": 3902,
      "ãģĹãģŁãģŁãĤģ": 3903,
      "ãģ«ãģĹãģ¦": 3904,
      "ãĥ¯ãĥ¼ãĥī": 3905,
      "ãĤĤãģĨ": 3906,
      "å®īåħ¨": 3907,
      "æŃ»äº¡": 3908,
      "ev": 3909,
      "é£Łãģ¹": 3910,
      "ãĤĴæ±Ĥ": 3911,
      "åħį": 3912,
      "ç¦ıå³¶": 3913,
      "ãĤ°ãĥŃ": 3914,
      "éĢ£è¼ī": 3915,
      "ãģ®ãģĬ": 3916,
      "æĬĺ": 3917,
      "ä¼ĬèĹ¤": 3918,
      "æľ¬ç¤¾": 3919,
      "51": 3920,
      "MC": 3921,
      "å¤§ãģª": 3922,
      "èĳĹæĽ¸": 3923,
      "æĹ¥æľ¬ãĥĨãĥ¬ãĥĵ": 3924,
      "ãģĽãģļ": 3925,
      "ãĢįãĢģãĢĮ": 3926,
      "çĻºéĽ»": 3927,
      "å£ģ": 3928,
      "éĳ": 3929,
      "ãĤ°ãĥ©ãĥ³ãĥĹãĥª": 3930,
      "ãĥĹãĥ¬ãĤ¤": 3931,
      "æ¬§": 3932,
      "çŃĭ": 3933,
      "ä»¥åīį": 3934,
      "ç§»åĭķ": 3935,
      "ĠãĥŁ": 3936,
      "åĩºæĿ¥": 3937,
      "ç¨¿": 3938,
      "ãĤ³ãĥ¼ãĤ¹": 3939,
      "èĺ": 3940,
      "è²¢": 3941,
      "ES": 3942,
      "OP": 3943,
      "ãĥ³ãĥı": 3944,
      "Ġ2012": 3945,
      "ãĥķãĥªãĥ¼": 3946,
      "ãĥ³ãĥĪãĥ³": 3947,
      "åĽŀæĪ¦": 3948,
      "æ¼Ķå¥ı": 3949,
      "éĸĵãģ®": 3950,
      "å°İåħ¥": 3951,
      "å½ĵåĪĿãģ¯": 3952,
      "ãģ®å¨ĺ": 3953,
      "åĲīçĶ°": 3954,
      "åŃĲãģĮ": 3955,
      "ãģ®æĥ": 3956,
      "çµĲæĪĲ": 3957,
      "ãĥ¼ãĥĩãĥ³": 3958,
      "ĠæĿ¾": 3959,
      "åĮ»çĻĤ": 3960,
      "ç½²": 3961,
      "ãģ®æŃ´": 3962,
      "ãģ«å±ŀ": 3963,
      "ãĢı(": 3964,
      "ãĥŀãĤ¹": 3965,
      "å¤§æĪ¦": 3966,
      "åį±": 3967,
      "ãĤĴæıı": 3968,
      "OT": 3969,
      "ãģ®çłĶç©¶": 3970,
      "æĻĤæľŁ": 3971,
      "Ġä¸Ĭ": 3972,
      "ãģ®æ²": 3973,
      "ãĥ©ãĤ¤ãĥĢãĥ¼": 3974,
      "çĬ¬": 3975,
      "åł±åĳĬ": 3976,
      "AA": 3977,
      "ãĤĴéĸĭåĤ¬": 3978,
      "ãĤĴéĻ¤": 3979,
      "Ġ17": 3980,
      "åĲ«ãģ¾": 3981,
      "ãģłãģ¨": 3982,
      "ç¨®é¡ŀ": 3983,
      "ãģ«åıİéĮ²": 3984,
      "è³¼": 3985,
      "ack": 3986,
      "ç¹°ãĤĬ": 3987,
      "æĺĩæł¼": 3988,
      "è£ħç½®": 3989,
      "å¯Ľ": 3990,
      "åĪ¶åº¦": 3991,
      "ãĤīãĤĮãģ¦ãģĦãģŁ": 3992,
      "åĲ¸": 3993,
      "çµĦåĲĪ": 3994,
      "ãģ®åĢ": 3995,
      "æĸĩåŃĹ": 3996,
      "éģĶæĪĲ": 3997,
      "ãĥĽãĥĨãĥ«": 3998,
      "æ¬¡éĥİ": 3999,
      "ä¸»åĤ¬": 4000,
      "ç¥Ĳ": 4001,
      "St": 4002,
      "ãĤĴæĦı": 4003,
      "ãģ®æ©Ł": 4004,
      "ãģ¨æĶ¹": 4005,
      "å°ļ": 4006,
      "ä¼ļåł´": 4007,
      "ãĥ¬ãĥĥãĥĪ": 4008,
      "08": 4009,
      "1989": 4010,
      "æįľ": 4011,
      "èªįãĤģ": 4012,
      "æ²Ļ": 4013,
      "up": 4014,
      "å½¢ãģ§": 4015,
      "ĠãĤ¹": 4016,
      "You": 4017,
      "ãģĦãĤĴ": 4018,
      "ãĤ·ãĥ«": 4019,
      "ãģĦãģ£ãģŁ": 4020,
      "ãĤªãĥ¼ãĥ«": 4021,
      "mm": 4022,
      "è¡¨ç¤º": 4023,
      "ãĥĨãĥ¬ãĥĵæĿ±äº¬": 4024,
      "ĠIS": 4025,
      "æĭĵ": 4026,
      "æĹ¥æľ¬ä»£è¡¨": 4027,
      "ast": 4028,
      "ãĥ¡ãĥ©": 4029,
      "å¹Į": 4030,
      "ord": 4031,
      "å¾©å¸°": 4032,
      "ãģ®èĬ": 4033,
      "ãģ¨ãģĹãģ¦ãģ®": 4034,
      "åºĬ": 4035,
      "ãĥĪãĥ³": 4036,
      "ç¢ºèªį": 4037,
      "ãĥĶãĤ¢ãĥİ": 4038,
      "ix": 4039,
      "ãĥĩãĥ³": 4040,
      "ãĤĴçį²å¾ĹãģĹãģŁ": 4041,
      "æĸĻçĲĨ": 4042,
      "ãĥ³ãĥĶãĤªãĥ³": 4043,
      "å°ĭ": 4044,
      "ãģ«ç§»ç±į": 4045,
      "æ¤įçī©": 4046,
      "UE": 4047,
      "ãģ®æ¥½": 4048,
      "ãģ®å¥³æĢ§": 4049,
      "ãĥ¬ãĥĥãĥī": 4050,
      "Ġ.": 4051,
      "ãĥ¦ãĥ¼": 4052,
      "ãĤ¹ãģĮ": 4053,
      "ãĥŀãĥį": 4054,
      "ĠæŃĮ": 4055,
      "ç¾ħ": 4056,
      "çĤŃ": 4057,
      "èĵ®": 4058,
      "éĤĦ": 4059,
      "ãĢľï¼Ī": 4060,
      "ãģıãĤĬ": 4061,
      "ãģ«è»¢": 4062,
      "ãģ®æı": 4063,
      "ãĥĿãĥ¼ãĥ«": 4064,
      "ãĤĴå¼ķãģį": 4065,
      "ãģ§ãģĻ": 4066,
      "è¦³åħī": 4067,
      "ãĥ³ãĥ¡": 4068,
      "çł´å£Ĭ": 4069,
      "ãģĽãģŁ": 4070,
      "å¡©": 4071,
      "ãģķãģĦ": 4072,
      "å½¢æĪĲ": 4073,
      "ãĤ¨ãĥª": 4074,
      "ãĤĴçĻºè¡¨": 4075,
      "é½¢": 4076,
      "Ġãģ¨": 4077,
      "æĶ¾éĢģãģķãĤĮãģŁ": 4078,
      "ãĤĴæĮģãģ¡": 4079,
      "ãĤĵãģ§ãģĦãģŁ": 4080,
      "æľªæĿ¥": 4081,
      "äºĢ": 4082,
      "æīį": 4083,
      "éĩĿ": 4084,
      "az": 4085,
      "åĭŁ": 4086,
      "ãĥįãĤ¤": 4087,
      "ãĤ¿ãĤ¤ãĥĹ": 4088,
      "æľĢåĪĿãģ®": 4089,
      "ä¸»å¼µ": 4090,
      "ãģ®æķ°": 4091,
      "è³Ľ": 4092,
      "ĠãĥŃ": 4093,
      "æŃ£å¼ı": 4094,
      "ãĤ¤ãĥ¤ãĥ¼": 4095,
      "In": 4096,
      "ãģ«å¤īæĽ´": 4097,
      "éİ®": 4098,
      "ãĤıãģļ": 4099,
      "æ¸ĭè°·": 4100,
      "io": 4101,
      "éĿ¢ç©į": 4102,
      "åĬłåħ¥": 4103,
      "ãģ®æģ¯": 4104,
      "ãģ«å¾ĵ": 4105,
      "ç¶ļãģį": 4106,
      "èª²ç¨ĭ": 4107,
      "ãģ®æĦ": 4108,
      "ä¸ĸå¸¯": 4109,
      "æĹĹ": 4110,
      "è¦ĩ": 4111,
      "æļ®": 4112,
      "ãĥ¼ãĥĻãĥ«": 4113,
      "å½¢å¼ı": 4114,
      "ãĥĹãĥ¬ãĥŁãĤ¢": 4115,
      "å¼¥": 4116,
      "ãģ®æŃ´åı²": 4117,
      "ãĤĴç½®": 4118,
      "ĠST": 4119,
      "ãĤĴçĽ®æĮĩ": 4120,
      "å½ĵãģŁ": 4121,
      "ãĤīãģı": 4122,
      "è¨Ģèªŀ": 4123,
      "ãĤªãĥ«": 4124,
      "ãĥ¼ãĥ¢": 4125,
      "ãĥ¬ãĥ³ãĤ¸": 4126,
      "æķ¬": 4127,
      "ä½ľæĪ¦": 4128,
      "ĠãģĮ": 4129,
      "æĮĳ": 4130,
      "åıĹãģĳ": 4131,
      "ãģĻãĤĭãģĵãģ¨ãģ§": 4132,
      "ãģĭãģ«": 4133,
      "ä½ĵéĩį": 4134,
      "eat": 4135,
      "ãĥĢãĥł": 4136,
      "end": 4137,
      "ãĤĮãģªãģĦ": 4138,
      "éķ·å´İ": 4139,
      "ok": 4140,
      "åį´": 4141,
      "ãģłãģĳãģ§": 4142,
      "ç·¨åħ¥": 4143,
      "Ġä½ľæĽ²": 4144,
      "çŀ": 4145,
      "OKYO": 4146,
      "ãĤ«ãĥ³": 4147,
      "ãĥģãĥ£ãĥ³ãĥįãĥ«": 4148,
      "ãĤĴåıĹãģĳãĤĭ": 4149,
      "ian": 4150,
      "è¿½ãģĦ": 4151,
      "ãģ®åįĹ": 4152,
      "è·ĿéĽ¢": 4153,
      "äººæ°ĳ": 4154,
      "ãĥĸãĥ©ãĤ¸": 4155,
      "ãĥķãĤ©ãĥ³": 4156,
      "ãģĦãģĦ": 4157,
      "ãĥ«ãĥł": 4158,
      "æīķ": 4159,
      "çļĦãģ«ãģ¯": 4160,
      "ãĤĴãģĹãģ¦ãģĦãĤĭ": 4161,
      "ä¸Ĭãģ®": 4162,
      "ãĥģãĥ£ãĥ³ãĥĶãĤªãĥ³": 4163,
      "ãĤ½ãĥ¼ãĥī": 4164,
      ")ãĢĤ": 4165,
      "ãĥĲãĥ¬": 4166,
      "å±ķç¤º": 4167,
      "ãĥĲãĥĥ": 4168,
      "èĩªãĤī": 4169,
      "ãĥĨãĤ¤": 4170,
      "ãģ®åĭķ": 4171,
      "RA": 4172,
      "å®ı": 4173,
      "åħĲç«¥": 4174,
      "è¼ĥ": 4175,
      "ãģŁãģ¡ãģ¯": 4176,
      "ãĤ¯ãĥ©ãĤ¤": 4177,
      "ãģĻãģĲ": 4178,
      "ãĤ·ãĥ§ãĥĬãĥ«": 4179,
      "ãģ®åİŁ": 4180,
      "ãģ®èŃ": 4181,
      "ãĥĩãĥ¥": 4182,
      "å¤©çļĩ": 4183,
      "ãģįãģ£": 4184,
      "ãĥĹãĥ©ãĤ¤": 4185,
      "89": 4186,
      "ãĤ¯ãĤ¿": 4187,
      "å¸Ĥåł´": 4188,
      "åĭķçĶ»": 4189,
      "ãĥĿãĤ¤ãĥ³ãĥĪ": 4190,
      "ãĤ¹ãĤ¿ãĥ¼ãĥĪ": 4191,
      "ãģ®å®¶": 4192,
      "ity": 4193,
      "åĲįãĤĴ": 4194,
      "åįļçī©": 4195,
      "ãģ®ãĤµ": 4196,
      "ãģĮéĸĭ": 4197,
      "ä½ĵãģ¯": 4198,
      "æŁĦ": 4199,
      "ry": 4200,
      "åħĦå¼Ł": 4201,
      "ãĤĴè¨Ńç«ĭ": 4202,
      "ãĥ¬ãĥ³ãĥĪ": 4203,
      "å®ļæľŁ": 4204,
      "ãģ®è·": 4205,
      "ãĥ©ãĥ«": 4206,
      "ãģ®æ¯į": 4207,
      "è¡¨çı¾": 4208,
      "ãĥĥãĥĶ": 4209,
      "ãĤĴãĤĤãģ£ãģ¦": 4210,
      "ĠæĹ¥": 4211,
      "è³ŀãĤĴåıĹè³ŀ": 4212,
      "åı·ç·ļ": 4213,
      "åĮĸãģĹãģŁ": 4214,
      "ew": 4215,
      "çĻºçĶŁ": 4216,
      "ç¨ĭåº¦": 4217,
      "ãĤ«ãĤ¤": 4218,
      "æĸ¹æ³ķ": 4219,
      "ãģ®åħĥ": 4220,
      "Ġæľ¬": 4221,
      "ãĤªãĤ¹": 4222,
      "åĩºãģĻ": 4223,
      "çĻºè¦ĭ": 4224,
      "æĬķç¥¨": 4225,
      "ET": 4226,
      "1988": 4227,
      "éĺ²è¡Ľ": 4228,
      "186": 4229,
      "è¼Ķ": 4230,
      "ãģ®èĳ": 4231,
      "é«ª": 4232,
      "èĩªèº«ãģ®": 4233,
      "und": 4234,
      "ãĢĤãĢį": 4235,
      "æ²¹": 4236,
      "ãĤ¢ãĥī": 4237,
      "ãĤ¹ãĥĳ": 4238,
      "éĩĪ": 4239,
      "æľŃå¹Į": 4240,
      "çį£": 4241,
      "é£²": 4242,
      "è³¼åħ¥": 4243,
      "é¡ĮæŃĮ": 4244,
      "éļĽãģ«ãģ¯": 4245,
      "éĳĳ": 4246,
      "çīĽ": 4247,
      "ãĤ®ãĥª": 4248,
      "ãĥįãĥ«ãĤ®ãĥ¼": 4249,
      "ãĤ³ãĥŁãĥ¥": 4250,
      "ãģ¨åĲĮæ§ĺ": 4251,
      "ãģ®å½¢": 4252,
      "ä¸ŃæĿĳ": 4253,
      "usic": 4254,
      "ãĥĲãĥ¼ãĤ¸ãĥ§": 4255,
      "å±±åı£": 4256,
      "ãģ®é«ĺ": 4257,
      "ãģĦãģŁãĤģ": 4258,
      "çŁ¥ãĤīãĤĮãĤĭ": 4259,
      "ãĤıãĤĮãģ¦ãģĦãĤĭ": 4260,
      "ç¿»": 4261,
      "çłĶç©¶ç§ĳ": 4262,
      "çĤİ": 4263,
      "ãĤĴæľī": 4264,
      "çľ¼": 4265,
      "ãĥıãĤ¦ãĤ¹": 4266,
      "ãģ®èģ": 4267,
      "ãĤĴçŁ¥": 4268,
      "å¼±": 4269,
      "è²«": 4270,
      "ãģªãģĳãĤĮãģ°": 4271,
      "ãģ®æ¸": 4272,
      "ãģ®è§": 4273,
      "ãĤ¨ãĤ¢": 4274,
      "ãĤ¤ãĥ©ãĤ¹ãĥĪ": 4275,
      "åĪĳäºĭ": 4276,
      "ãģ«ä»»": 4277,
      "å¥³åĦª": 4278,
      "éĽ»åŃĲ": 4279,
      "å¤§ä½¿": 4280,
      "ãģ¨ãģĹãģ¦ãĤĤ": 4281,
      "Tub": 4282,
      "ãĥĩãĤ¸": 4283,
      "ãģ®æ´»åĭķ": 4284,
      "ãģ«ãģ¨ãģ£ãģ¦": 4285,
      "1987": 4286,
      "è§£èª¬": 4287,
      "ãĥ³ãĤ¿ãĥ«": 4288,
      "ãģĤãĤĭãģĦãģ¯": 4289,
      "è¶£": 4290,
      "éĿŀå¸¸ãģ«": 4291,
      "ãĥĲãĥ¼ãĥĪ": 4292,
      "å¸Ĥãģ®": 4293,
      "æ¡ĥ": 4294,
      "èŃ²": 4295,
      "EL": 4296,
      "ãģ®åŁº": 4297,
      "OC": 4298,
      "ãĤ³ãĥ¬": 4299,
      "BB": 4300,
      "ãĤ¤ãĥ¡ãĥ¼ãĤ¸": 4301,
      "å¥ĩ": 4302,
      "06": 4303,
      "ĠãĢĲ": 4304,
      "ãģĵãģ¨ãģĮãģĤãĤĭ": 4305,
      "è©³ç´°": 4306,
      "åĨĬ": 4307,
      "éģħ": 4308,
      "ãģ®èī": 4309,
      "Ġ2011": 4310,
      "ãĥ¡ãĥ«": 4311,
      "åı²ä¸Ĭ": 4312,
      "ãĥªãĤ¢ãĥł": 4313,
      "ãĥĥãĤŃ": 4314,
      "ç©Ĥ": 4315,
      "ãģ¯å¤§": 4316,
      "ãĤ½ãĥĬ": 4317,
      "ĠAn": 4318,
      "ãĥĨãĥ¬ãĥĵãĥīãĥ©ãĥŀ": 4319,
      "ãģ«ãĤĪãĤĮãģ°": 4320,
      "æ³°": 4321,
      "åİļ": 4322,
      "è¬Ŀ": 4323,
      "Ġn": 4324,
      "æ·±å¤ľ": 4325,
      "ãĥľãĥ¼ãĤ«ãĥ«": 4326,
      "å¤§éĺªåºľ": 4327,
      "æ½ľ": 4328,
      "ãĥķãĤ£ãĥª": 4329,
      "è¨ĵ": 4330,
      "èĦ³": 4331,
      "æĶ¿çŃĸ": 4332,
      "ç³»çµ±": 4333,
      "ä»ĺè¿ĳ": 4334,
      "ãĤ°ãĥ©ãĥķãĤ£": 4335,
      "ide": 4336,
      "ãĥ©ãĥªãĤ¢": 4337,
      "æ®Ĭ": 4338,
      "ãĥ¼ãĥĨãĤ£ãĤ¹ãĥĪ": 4339,
      "ç¸®": 4340,
      "ãĥĨãĤ£ãĥĸ": 4341,
      "æļĹ": 4342,
      "åĺī": 4343,
      "IM": 4344,
      "åĬĩåĽ£": 4345,
      "ï¼Ĩ": 4346,
      "ãģįãģ£ãģĭãģĳ": 4347,
      "æł¸": 4348,
      "ãģ§ãģįãģŁ": 4349,
      "ãĤ³ãĥŁãĥ¥ãĥĭ": 4350,
      "å¹³åĿĩ": 4351,
      "å¡ģæīĵ": 4352,
      "åª": 4353,
      "ĠZ": 4354,
      "ãģ®æĽ²": 4355,
      "ãģ®æĶ¾éĢģ": 4356,
      "èŀį": 4357,
      "ãģĮè¦ĭ": 4358,
      "ãĥĥãĤ±": 4359,
      "æ¸ī": 4360,
      "ãģ«èĩ³": 4361,
      "æĪ¦ãģĹ": 4362,
      "1986": 4363,
      "è²¢çĮ®": 4364,
      "ãĤĨãĤĭ": 4365,
      "ãģĵãĤĮãĤĴ": 4366,
      "ãĤ¨ãĤ¹ãĥĪ": 4367,
      "ãĥĩãĤ£ãĥ¬": 4368,
      "ãĥ©ãĥĸ": 4369,
      "å»ºãģ¦": 4370,
      "EST": 4371,
      "ãĥĸãĥ©ãĥĥãĤ¯": 4372,
      "ãģĵãģ®æĻĤ": 4373,
      "åĲ¾": 4374,
      "ph": 4375,
      "!ï¼Ī": 4376,
      "ãģ¤ãģ¤": 4377,
      "!ãĢı": 4378,
      "one": 4379,
      "æĮĩæı®": 4380,
      "ãĤ·ãĥ§ãĥ¼": 4381,
      "09": 4382,
      "æĺİãĤīãģĭ": 4383,
      "ãģ®èĭ": 4384,
      "æĭĽ": 4385,
      "åĪĢ": 4386,
      "ä»¤åĴĮ": 4387,
      "ãģªãģ©ãģ§": 4388,
      "èĬĿ": 4389,
      "éĻ¸è»į": 4390,
      "ain": 4391,
      "ãĥ¼ãĥĭãĥ³ãĤ°": 4392,
      "ç¥ŀå¥Īå·ĿçľĮ": 4393,
      "»æĴĥ": 4394,
      "å²³": 4395,
      "ç¿Ķ": 4396,
      "è´": 4397,
      "å¤ļæķ°": 4398,
      "ãĥŀãĥª": 4399,
      "ç´ħ": 4400,
      "ç¥Ŀ": 4401,
      "se": 4402,
      "Ch": 4403,
      "ãģ®è¥": 4404,
      "è±ª": 4405,
      "Ġéĩĳ": 4406,
      "ãĤ¯ãĤµ": 4407,
      "ãģ»ãģ¼": 4408,
      "åħµåº«": 4409,
      "ç¶ļãģĳ": 4410,
      "ä½įãģ«": 4411,
      "ãģĮè¡ĮãĤıãĤĮãģŁ": 4412,
      "åĥļ": 4413,
      "éī±": 4414,
      "çĻ»åł´äººçī©": 4415,
      "ãĤ¦ãĤ§ãĤ¢": 4416,
      "å®Łæ¥Ń": 4417,
      "éģ¸æĬŀ": 4418,
      "åĪĿåĩºåł´": 4419,
      "ãĤĴæ®ĭ": 4420,
      "ãĥ¯ãĤ¤": 4421,
      "é¡§": 4422,
      "ãĤªãĥ¼": 4423,
      "æĽ¿ãģĪ": 4424,
      "æĽ¸ãģį": 4425,
      "FF": 4426,
      "èª¬æĺİ": 4427,
      "ï¼īãĥ»": 4428,
      "åĲĮçĽŁ": 4429,
      "åĲįåı¤å±ĭå¸Ĥ": 4430,
      "è²´æĹı": 4431,
      "ãģ¯ãģĺãĤģ": 4432,
      "1985": 4433,
      "ãĥĸãĥ©ãĥ³ãĥī": 4434,
      "åĲįç¾©": 4435,
      "åĲįåīį": 4436,
      "ãģ²ãĤį": 4437,
      "éĢ£çĽŁ": 4438,
      "ç´°èĥŀ": 4439,
      "èŃ°éĻ¢èŃ°åĵ¡": 4440,
      "AI": 4441,
      "å¤ĸåĽ½": 4442,
      "åįĪ": 4443,
      "ãģ§éĸĭåĤ¬ãģķãĤĮãģŁ": 4444,
      "è¡Ŀ": 4445,
      "CL": 4446,
      "ãĤ¹ãĤ³ãĥĥãĥĪ": 4447,
      "ãĤĴç¶Ļ": 4448,
      "æĴ²": 4449,
      "ä¸»è¦ģ": 4450,
      "01": 4451,
      "ãĥªãĥ¥": 4452,
      "è«ĸæĸĩ": 4453,
      "ãĤ¢ãĤ¹": 4454,
      "åĦĢ": 4455,
      "åĪ¤å®ļ": 4456,
      "ãĤ³ãĥ³ãĤµ": 4457,
      "åĲĮç¤¾": 4458,
      "åįļçī©é¤¨": 4459,
      "èª°": 4460,
      "ãģĺãĤĥ": 4461,
      "æķ´åĤĻ": 4462,
      "ãĤ¢ãĥķãĥªãĤ«": 4463,
      "æĹ¥ãĤĪãĤĬ": 4464,
      "æŁĶ": 4465,
      "ãĥīãĥ©ãĤ¤": 4466,
      "ãģĦãģ¦ãģĦãģŁ": 4467,
      "ãĤĴè¨ª": 4468,
      "1960": 4469,
      "IV": 4470,
      "åĲĮæĻĤãģ«": 4471,
      "ãģ®æĶ¿æ²»": 4472,
      "å¯Įå£«": 4473,
      "å½¢æħĭ": 4474,
      "ç²¾ç¥ŀ": 4475,
      "SC": 4476,
      "ãĥĥãĤ¸": 4477,
      "è³¢": 4478,
      "âĹĭ": 4479,
      "ãģ®åĨį": 4480,
      "ãĥŃãĥ³ãĥīãĥ³": 4481,
      "ãĤĪãģĨãģ«ãģªãĤĭ": 4482,
      "ä»¥éĻįãģ¯": 4483,
      "åĪº": 4484,
      "ãĥ³ãĥģãĥ£": 4485,
      "04": 4486,
      "å¹¡": 4487,
      "ge": 4488,
      "åĶ¯ä¸Ģ": 4489,
      "æ¶¯": 4490,
      "Ġto": 4491,
      "åºĹèĪĹ": 4492,
      "å¤±æķĹ": 4493,
      "ãĥŀãĥ¼ãĤ¯": 4494,
      "ä¼ı": 4495,
      "ãģ«è¡Į": 4496,
      "ãĤ¬ãĤ¹": 4497,
      "Ġstyle": 4498,
      "Ġãĥĳ": 4499,
      "ort": 4500,
      "çĻ»æĿ¿": 4501,
      "æĿ¡ç´Ħ": 4502,
      "ãģ®æµ·": 4503,
      "ä¸¹": 4504,
      "1984": 4505,
      "05": 4506,
      "ãģĭãĤĵ": 4507,
      "ãģ§ãģĤãĤĭãģ¨": 4508,
      "åĨ·": 4509,
      "çľĭ": 4510,
      "å¡¾": 4511,
      "Ġw": 4512,
      "ãĢıãĢİ": 4513,
      "åĲĪè¨Ī": 4514,
      "ĠLIVE": 4515,
      "77": 4516,
      "ãģ«è¦ĭ": 4517,
      "ãģĵãĤĮãĤī": 4518,
      "ãģ®é§ħ": 4519,
      "ãĤ¨ãĥ¬": 4520,
      "åİ³": 4521,
      "æĸĩåĮĸè²¡": 4522,
      "è¬Ľå¸«": 4523,
      "è½": 4524,
      "ãĤĨãģĨ": 4525,
      "æīĢåľ¨": 4526,
      "åĪ¸": 4527,
      "çĶ¨ãģ®": 4528,
      "æģĲ": 4529,
      "ãĥªãĤ¦ãĤ¹": 4530,
      "ãģĪãģ¦ãģĦãĤĭ": 4531,
      "åĭ²": 4532,
      "äº¤æµģ": 4533,
      "ãģ®æģ¯åŃĲ": 4534,
      "éĻĲå®ļçĽ¤": 4535,
      "ãĤ³ãĥ©ãĥľ": 4536,
      "åĨł": 4537,
      "ãģ®æ®": 4538,
      "é·": 4539,
      "ãĥĲãĥĥãĤ¯": 4540,
      "åħ±ç·¨": 4541,
      "ãģĦãģł": 4542,
      "çĮ«": 4543,
      "ãĤĴä¸Ńå¿ĥãģ«": 4544,
      "èį·": 4545,
      "åł±éģĵ": 4546,
      "ãĤ¤ãĥ³ãĤ°ãĥ©ãĥ³ãĥī": 4547,
      "æ¬ł": 4548,
      "ãĤĴæĬ±": 4549,
      "ç¬ł": 4550,
      "KO": 4551,
      "ãĢĤï¼Ī": 4552,
      "ãģ®æĹ¥": 4553,
      "ãĥĴãĥŃ": 4554,
      "æ··": 4555,
      "æŀĿ": 4556,
      "BA": 4557,
      "éķ·éĩİ": 4558,
      "ä»£ãĤıãĤĬ": 4559,
      "Ġãĥ¬": 4560,
      "å°Ĭ": 4561,
      "çĶŁæ¶¯": 4562,
      "æĿ±åĮĹ": 4563,
      "æİ¡çĶ¨": 4564,
      "æĳ©": 4565,
      "ãĤ¯ãĥ¼ãĥ«": 4566,
      "ãĥ¼ãĥįãĥĥãĥĪ": 4567,
      "07": 4568,
      "æĿ±æµ·": 4569,
      "ãĥ¼ãĥ³ãĤº": 4570,
      "ãĥªãĥ¼ãĥ³": 4571,
      "ãĤ¸ãĤ§ãĤ¤": 4572,
      "ãģ®å±±": 4573,
      "BO": 4574,
      "ect": 4575,
      "åĬłèĹ¤": 4576,
      "è¨ĺè¼ī": 4577,
      "åĲįèªīæķĻæİĪ": 4578,
      "ãģ®ä¸ĸçķĮ": 4579,
      "çķĳ": 4580,
      "æİĺ": 4581,
      "éĸĭå¹ķ": 4582,
      "86": 4583,
      "èĩ´": 4584,
      "1972": 4585,
      "ĠãĤ·": 4586,
      "å§ĵ": 4587,
      "1983": 4588,
      "ãĤ¨ãĥĨãĤ£": 4589,
      "çī¹å®ļ": 4590,
      "ãĤ¹ãĥĪãĥ³": 4591,
      "ãĥĹãĥŃãĥĩãĥ¥ãĥ¼ãĤ¹": 4592,
      "ãĤ´ãĥ³": 4593,
      "éºĹ": 4594,
      "çĽ¸æĴ²": 4595,
      "å£°åĦª": 4596,
      "å¹´ãĤĪãĤĬ": 4597,
      "ãģŁãģ¡ãģĮ": 4598,
      "YouTub": 4599,
      "ãģĹãģŁãĤĤãģ®": 4600,
      "ãģĻãĤĭãģªãģ©": 4601,
      "ãģ®æŃ£": 4602,
      "çĨĬæľ¬": 4603,
      "åı¤å¢³": 4604,
      "æľ¬å¡ģæīĵ": 4605,
      "300": 4606,
      "ãģ§ãĤĤãģĤãĤĭ": 4607,
      "ç´¢": 4608,
      "å¡Ķ": 4609,
      "CE": 4610,
      "éĽ·": 4611,
      "æĸ°å®¿": 4612,
      "æĳĺ": 4613,
      "FM": 4614,
      "ä¸Ńç¶Ļ": 4615,
      "ãĤīãģĹ": 4616,
      "ãĤªãĥ¼ãĤ¹ãĥĪãĥªãĤ¢": 4617,
      "èĻ«": 4618,
      "ãĤ¢ãĤ·": 4619,
      "ĠAl": 4620,
      "ãĥķãĤ©ãĥ«": 4621,
      "ãĥ©ãĥªãĥ¼": 4622,
      "ãģ®åģ": 4623,
      "ãĥĸãĥ«ãĤ¯": 4624,
      "ert": 4625,
      "äººãģ¨": 4626,
      "UT": 4627,
      "ãĤĭãģĵãģ¨": 4628,
      "ä¸Ģæĸ¹ãģ§": 4629,
      "åħħ": 4630,
      "ich": 4631,
      "åĲįãģĮ": 4632,
      "1982": 4633,
      "99": 4634,
      "ç©ºéĸĵ": 4635,
      "ä»£è¡¨åıĸç·łå½¹": 4636,
      "ãģ®å¯º": 4637,
      "çĩĥ": 4638,
      "å°ī": 4639,
      "è¨ĺäºĭ": 4640,
      "ä¸Ĭãģ«": 4641,
      "ãģĦãģ¤": 4642,
      "å¤§åŃ¦å¤§åŃ¦éĻ¢": 4643,
      "è¨ĺè¿°": 4644,
      "åĽŀçĽ®": 4645,
      "å±±çľĮ": 4646,
      "left": 4647,
      "lu": 4648,
      "ran": 4649,
      "ãģ«æĶ¹ç§°": 4650,
      "è¨Ĺ": 4651,
      "æĸ°æ½Ł": 4652,
      "ãģĹãģŁãĤĬ": 4653,
      "å½¼ãģ®": 4654,
      "å¦Ļ": 4655,
      "ate": 4656,
      "ãĤ³ãĥ³ãĤµãĥ¼ãĥĪ": 4657,
      "iz": 4658,
      "æŃĮæīĭ": 4659,
      "1979": 4660,
      "Ġfor": 4661,
      "ãĥŁãĤ¹": 4662,
      "1981": 4663,
      "åĽ°": 4664,
      "ĠISBN": 4665,
      "åĮĸåŃ¦": 4666,
      "ãģĦãģªãģĭãģ£ãģŁ": 4667,
      "ãģ®æ°´": 4668,
      "çĶ°æĿĳ": 4669,
      "ãĤĴè¿İ": 4670,
      "å´©": 4671,
      "çĽ´æİ¥": 4672,
      "ãģ®åĦ": 4673,
      "çµ¡": 4674,
      "ãĤĴåıĸå¾Ĺ": 4675,
      "Ġg": 4676,
      "çī¹æ®Ĭ": 4677,
      "éĺľ": 4678,
      "ãĤ·ãĥ¼ãĥ³": 4679,
      "ãĥıãĥ³": 4680,
      "çģ¯": 4681,
      "ãģĦãģıãģ¤ãģĭ": 4682,
      "æ¬¡ä¸ĸçķĮ": 4683,
      "ãģ®æĪ¦ãģĦ": 4684,
      "åĪĬè¡Į": 4685,
      "äººãĢħ": 4686,
      "¬ä»»": 4687,
      "åĲįç§°": 4688,
      "ind": 4689,
      "æĻĤä»£ãģ«": 4690,
      "æĲį": 4691,
      "ãģ®èĥ": 4692,
      "ĠPro": 4693,
      "ĠãĤŃ": 4694,
      "ãĤ¹ãĥ¼ãĥĳãĥ¼": 4695,
      "åŀ£": 4696,
      "ãĤ¦ãĤ£ãĥªãĤ¢ãĥł": 4697,
      "ãģ®æīĢ": 4698,
      "è¶£åĳ³": 4699,
      "èĬ³": 4700,
      "å¼·ãģĦ": 4701,
      "ãģ®åĪĨ": 4702,
      "ãĥĵãĤ¸": 4703,
      "éĢ²åĩº": 4704,
      "æľīåĲį": 4705,
      "å¥½ãģįãģª": 4706,
      "çĶŁãģ¾ãĤĮãĤĭ": 4707,
      "ãĤģãĤīãĤĮãģŁ": 4708,
      "ãģķãģ¾": 4709,
      "çĲĨè«ĸ": 4710,
      "ãĤ¹ãĤŃãĥ¼": 4711,
      "è¼©": 4712,
      "æĿ¡ä»¶": 4713,
      "ĠåĮĹ": 4714,
      "ãĤĴæ¸": 4715,
      "ãģ«ä½ı": 4716,
      "ãĤĴåĪ©çĶ¨": 4717,
      "Ġ2010": 4718,
      "ãĥ¦ãĥ¼ãĤ¹": 4719,
      "è¿ĳãģı": 4720,
      "ãģ®æľĢ": 4721,
      "ãĤ·ãĥ¥ãĤ¿": 4722,
      "åı¯èĥ½ãģª": 4723,
      "éĻ¸ä¸Ĭ": 4724,
      "ents": 4725,
      "ãĥĨãĤ£ãĥ³ãĤ°": 4726,
      "ãģ§è¡ĮãĤıãĤĮãģŁ": 4727,
      "è¿«": 4728,
      "å¯¾å¿ľ": 4729,
      "ãĤĴåıĤ": 4730,
      "èıĬ": 4731,
      "è¨º": 4732,
      "ãĤ«ãĥĬãĥĢ": 4733,
      "ĠãĥĪ": 4734,
      "ãģ®æľ¬": 4735,
      "åŁĭ": 4736,
      "ãĤªãĥ¼ãĤ¹ãĥĪãĥ©ãĥªãĤ¢": 4737,
      "çŁ³å·Ŀ": 4738,
      "ãģ«åĬłåħ¥": 4739,
      "åľ°ãģ®": 4740,
      "å¾ĮåįĬ": 4741,
      "åıįå¿ľ": 4742,
      "å¹´ãģ¶ãĤĬ": 4743,
      "ãĤĴæĦıåĳ³": 4744,
      "æ¥ŃåĭĻ": 4745,
      "Ġãģ¿": 4746,
      "Ġ16": 4747,
      "ãĥ¢ãĥ¼ãĥī": 4748,
      "èħķ": 4749,
      "Ġãĥ©": 4750,
      "ãĥĶãĤ½ãĥ¼ãĥī": 4751,
      "ä½ıå®ħ": 4752,
      "è£ħåĤĻ": 4753,
      "åĥķ": 4754,
      "Ġæ°´": 4755,
      "å¿«": 4756,
      "ãģ¾ãģ¤": 4757,
      "æķı": 4758,
      "æł¡èĪİ": 4759,
      "ãĥķãĤ©ãĥ¼ãĥŀ": 4760,
      "éģĭçĶ¨": 4761,
      "ãĥ¼ãĤ¯ãĤ¹": 4762,
      "ãģĳãĤĵ": 4763,
      "æĭ¡å¤§": 4764,
      "æµ·å¤ĸ": 4765,
      "è»Į": 4766,
      "ess": 4767,
      "èĳĹä½ľ": 4768,
      "THE": 4769,
      "å¤ķ": 4770,
      "éĢļç®Ĺ": 4771,
      "çĶºæĿĳ": 4772,
      "ãģ®å§¿": 4773,
      "éĢ±éĸĵ": 4774,
      "03": 4775,
      "ãĥīãĥŃ": 4776,
      "èĢħãģ«": 4777,
      "ãĥĿãĥ³": 4778,
      "IL": 4779,
      "ãĥĨãĥł": 4780,
      "éĬħ": 4781,
      "ãĤĪãģĹ": 4782,
      "ãģĪãĤīãĤĮãģŁ": 4783,
      "æ¸ħæ°´": 4784,
      "ç°¡": 4785,
      "ãģ«å¿ľ": 4786,
      "æłĹ": 4787,
      "æĬ«éľ²": 4788,
      "ç¹ģ": 4789,
      "ãĤ³ãĥ«": 4790,
      "ä¹ħä¿Ŀ": 4791,
      "ãĤĴè§£": 4792,
      "ãĢıãĢģ": 4793,
      "ãģ¯ãģªãģĦ": 4794,
      "éĽĨåĽ£": 4795,
      "éİĸ": 4796,
      "ly": 4797,
      "åĮºéĸĵ": 4798,
      "ãģĿãģ®ãģŁãĤģ": 4799,
      "ãģ«ãģĤãģŁãĤĭ": 4800,
      "éĢ®": 4801,
      "æŀ¶": 4802,
      "ãģ®å¼·": 4803,
      "éĢ®æįķ": 4804,
      "ãĤĴæµ": 4805,
      "ãĥªãĥĥãĤ¯": 4806,
      "ip": 4807,
      "ary": 4808,
      "ä¼ļåĵ¡": 4809,
      "è¼¸éĢģ": 4810,
      "ãĤŃãĥŃ": 4811,
      "ãģ®åĽ½": 4812,
      "ãĥ³ãĥŃ": 4813,
      "å±Ĭ": 4814,
      "ove": 4815,
      "ãģ®å¦»": 4816,
      "ãģķãģª": 4817,
      "enter": 4818,
      "èĲ½ãģ¡": 4819,
      "ãĥĩãĤ¸ãĤ¿ãĥ«": 4820,
      "åħĪçĻº": 4821,
      "ãĤ¢ãĥ¼ãĥĪ": 4822,
      "ee": 4823,
      "ãģ®æ¤": 4824,
      "æ¿ĥ": 4825,
      "NA": 4826,
      "ãģĭãĤĮãģ¦ãģĦãĤĭ": 4827,
      "å¸Ĥãģ«": 4828,
      "ãģ©ãĤĤ": 4829,
      "76": 4830,
      "ãĥĻãĤ¤": 4831,
      "é³´": 4832,
      "æĸİ": 4833,
      "ãĤµãĤ¦": 4834,
      "ãģ®ãĥĳ": 4835,
      "æĬ¼": 4836,
      "åįĴæ¥Ńå¾Į": 4837,
      "ä»²éĸĵ": 4838,
      "ãĥ«ãģ¯": 4839,
      "å¤ªéĻ½": 4840,
      "ç¤İ": 4841,
      "ï¼Ł": 4842,
      "ãģ«å¤ī": 4843,
      "é¨İå£«": 4844,
      "å²Ĳéĺľ": 4845,
      "çļ®": 4846,
      "ãĥ¬ãĤ³ãĥ¼ãĥī": 4847,
      "å«Į": 4848,
      "æ¹¯": 4849,
      "éĢĶä¸Ń": 4850,
      "äº®": 4851,
      "æ¬¡ä¸ĸçķĮå¤§æĪ¦": 4852,
      "ãĤ¢ãĤ«ãĥĩ": 4853,
      "ç¿»è¨³": 4854,
      "åįĵ": 4855,
      "ãĤ¨ãĥįãĥ«ãĤ®ãĥ¼": 4856,
      "ãģ®æĶ¹": 4857,
      "ĠâĨĴ": 4858,
      "les": 4859,
      "å½ĵéģ¸": 4860,
      "éĺ²å¾¡": 4861,
      "ãģĿãĤĮãĤĴ": 4862,
      "æ¯Ķè¼ĥ": 4863,
      "ãĤ¢ãĥŀ": 4864,
      "æ£ĭ": 4865,
      "ä¸Ģäºº": 4866,
      "æĶ¿å®ĺ": 4867,
      "é¼": 4868,
      "EM": 4869,
      "åħ¨åĵ¡": 4870,
      "ãĤ¹ãĤ¿ãĤ¤ãĥ«": 4871,
      "ãģ¾ãģł": 4872,
      "Ġå¤©": 4873,
      "ong": 4874,
      "ff": 4875,
      "ãĥĶãĥ³": 4876,
      "æµ®": 4877,
      "åºķ": 4878,
      "æľĪãģ¾ãģ§": 4879,
      "ãĥķãĤ©ãĥ¼ãĥī": 4880,
      "æŃ¦åĻ¨": 4881,
      "ãģ¾ãģ¨": 4882,
      "ãĤ³ãĥ¼ãĥ«": 4883,
      "ãģ«ãģĬãģĦãģ¦ãģ¯": 4884,
      "æĹ¥ãģ¯": 4885,
      "æĻĤãģ®": 4886,
      "å¥Īèī¯": 4887,
      "ãĤĴåŃ¦": 4888,
      "ãĤ¢ãĥĹãĥª": 4889,
      "ãĢģãĢģ": 4890,
      "ãģĦãĤı": 4891,
      "ãĥģãĥ£ãĥ¼ãĥĪ": 4892,
      "ĠĠĊ": 4893,
      "ãģ®åĲĦ": 4894,
      "400": 4895,
      "ä¸Ģè¦§": 4896,
      "ç¥¥": 4897,
      "éļľå®³": 4898,
      "ãģªãģŁ": 4899,
      "ãĤ·ãĥ£ãĥ³": 4900,
      "ãĤªãĥ¼ãĥĹãĥĭãĥ³ãĤ°": 4901,
      "ãĥĳãĥ¼ãĤ¯": 4902,
      "ãĤ¢ãĥ¼ãĥĨãĤ£ãĤ¹ãĥĪ": 4903,
      "å¿į": 4904,
      "äºĭå®Ł": 4905,
      "æĿ¥ãģŁ": 4906,
      "02": 4907,
      "ond": 4908,
      "ãĤĴãĥªãĥªãĥ¼ãĤ¹": 4909,
      "çĵ": 4910,
      "1975": 4911,
      "ãģĮçĻºçĶŁ": 4912,
      "ãģĻãĤĭãģĵãģ¨ãģĮãģ§ãģįãĤĭ": 4913,
      "ãģ®æ¥½æĽ²": 4914,
      "ç¡": 4915,
      "å®ĹæķĻ": 4916,
      "è¾²æ¥Ń": 4917,
      "é«ĺéĢŁ": 4918,
      "ãĤĴå®Łæĸ½": 4919,
      "æĸ°ãģŁãģª": 4920,
      "ç±³åĽ½": 4921,
      "ä¸ŃåŃ¦": 4922,
      "ä½ľæ¥Ń": 4923,
      "ĠéĿĴ": 4924,
      "ãĤĴè¶ħ": 4925,
      "Ġ2009": 4926,
      "å¹»": 4927,
      "ãĥŃãĥĥ": 4928,
      "æĹ¥ä»ĺ": 4929,
      "å®ļç¾©": 4930,
      "èĳ¬": 4931,
      "å¾ĴæŃ©": 4932,
      "ãģĹãĤĵ": 4933,
      "ãģŁãģĭ": 4934,
      "ure": 4935,
      "ãĤĴéĽĨ": 4936,
      "ãĤĴæĦ": 4937,
      "ç§»è»¢": 4938,
      "SS": 4939,
      "Ġh": 4940,
      "å¸Ĥåĩºèº«": 4941,
      "æĤ£": 4942,
      "å°Ĩè»į": 4943,
      "ãģĹãģŁå¾Į": 4944,
      "ãĥŀãĥ©": 4945,
      "ãĥĭãĥĥ": 4946,
      "è£ģåĪ¤æīĢ": 4947,
      "ãĥĩãĤ£ãĥ¬ãĤ¯ãĤ¿ãĥ¼": 4948,
      "è²ŀ": 4949,
      "ä¸ĸä»£": 4950,
      "1978": 4951,
      "ãģĹãģªãģĮãĤī": 4952,
      "ç§ĭçĶ°": 4953,
      "å±±çĶ°": 4954,
      "Ġ15": 4955,
      "æĦıåĳ³": 4956,
      "ä¼Ŀèª¬": 4957,
      "ãĤ¸ãĥ³": 4958,
      "åģµ": 4959,
      "ãģĦãģļãĤĮãĤĤ": 4960,
      "ãĤĴå¤±": 4961,
      "æĻĤçĤ¹": 4962,
      "ĠSp": 4963,
      "æķ°ãģ¨": 4964,
      "ãĥļãĥ«": 4965,
      "age": 4966,
      "çĲĨåŃ¦": 4967,
      "è£½åĵģ": 4968,
      "ãģ®æ¬": 4969,
      "rom": 4970,
      "ãĥıãĥ³ãĥī": 4971,
      "ãĥłãĤ¹": 4972,
      "å®Łé¨ĵ": 4973,
      "éłĤ": 4974,
      "str": 4975,
      "ãģ®æ§ĭ": 4976,
      "Ġï½ŀ": 4977,
      "åķĨåĵģ": 4978,
      "éĿ©åĳ½": 4979,
      "ãģ®å¸Ĥ": 4980,
      "ãĤĴèµ·ãģĵ": 4981,
      "æľ¬éĥ¨": 4982,
      "ãĥĬãĥł": 4983,
      "ä¸»é¡ĮæŃĮ": 4984,
      "ãĤĴãģ¨": 4985,
      "ãĤĴåĨį": 4986,
      "éĽĩ": 4987,
      "èŃ·å£«": 4988,
      "1973": 4989,
      "ãģ«éĸ¢ãģĹãģ¦": 4990,
      "ãĤĴçĶŁ": 4991,
      "ãĤĴæ¼Ķ": 4992,
      "åĽ½éģĵ": 4993,
      "ãĤĴéĢģ": 4994,
      "èĢħãģ¨ãģĹãģ¦": 4995,
      "ãĤ¸ãĤ¢ãĥł": 4996,
      ")ãĢį": 4997,
      "ãĥ³ãĥĿ": 4998,
      "ãĥ¬ãĥĻãĥ«": 4999,
      "æĸ¹éĿ¢": 5000,
      "ãĥķãĤ¡ãĥ¼": 5001,
      "éĢŁåº¦": 5002,
      "with": 5003,
      "ãĥ´ãĤ¡ãĤ¤": 5004,
      "è¸Ĭ": 5005,
      "eg": 5006,
      "éĩįè¦ģãģª": 5007,
      "å³°": 5008,
      "ãĤĴéĢĢ": 5009,
      "èĽ": 5010,
      "ãģĽãģ¦": 5011,
      "ãĥĪãĥªãĥĥãĤ¯": 5012,
      "æ¯İéĢ±": 5013,
      "ãĥĹãĥŃãĤ°ãĥ©ãĥł": 5014,
      "æ¢°": 5015,
      "ãĤĤãģĹ": 5016,
      "ãĤ·ãĥĥãĥĹ": 5017,
      "æĬķæīĭ": 5018,
      "åµ": 5019,
      "ore": 5020,
      "ãģ®è£½": 5021,
      "æ½®": 5022,
      "ãĤ¹ãĤ¦ãĤ§": 5023,
      "aw": 5024,
      "è¸ı": 5025,
      "å¤§åŃĹ": 5026,
      "1976": 5027,
      "ç¶ļãģı": 5028,
      "qu": 5029,
      "èĩªå·±": 5030,
      "èªįå®ļ": 5031,
      "åı¥": 5032,
      "ãģ®æ£": 5033,
      "èª¤": 5034,
      "ãģ®åĬĽ": 5035,
      "Ġby": 5036,
      "ĊĠĊ": 5037,
      "çı¾å½¹": 5038,
      "ä¸Ģåº¦": 5039,
      "ãģĮãģªãģĦ": 5040,
      "éĽ»è©±": 5041,
      "ç³»åĪĹ": 5042,
      "é«ĺæ©ĭ": 5043,
      "ãĥ¼ãĥģãĥ£": 5044,
      "ãģªãĤīãģªãģĦ": 5045,
      "æķĻå¸«": 5046,
      "èªŃãģ¿": 5047,
      "åŁİçľĮ": 5048,
      "ä¼Ŀçµ±": 5049,
      "ãĤ½ãĥĬãĥªãĥĨãĤ£": 5050,
      "éĽ»åĬĽ": 5051,
      "åŁ¼çİīçľĮ": 5052,
      "ä¸Ģç·Ĵ": 5053,
      "æľĢåĦªç§Ģ": 5054,
      "ãĤ¹ãĤ¿ãĥ³ãĥĪ": 5055,
      "ä¸īéĥİ": 5056,
      "ãĥģãĥ³": 5057,
      "æĴ¤": 5058,
      "ãĥĲãĥ©ãĤ¨ãĥĨãĤ£": 5059,
      "éĻ°": 5060,
      "1974": 5061,
      "å±±æľ¬": 5062,
      "ãĤ¢ãĥ¡ãĥªãĤ«åĲĪè¡ĨåĽ½ãģ®": 5063,
      "ãĤ¼ãĥ«": 5064,
      "ey": 5065,
      "1971": 5066,
      "man": 5067,
      "åħ±ãģ«": 5068,
      "æŃ¯": 5069,
      ";\"|": 5070,
      "æļ¦": 5071,
      "åĳ¨å¹´è¨ĺå¿µ": 5072,
      "ãģ®è§£": 5073,
      "åŃĲãģ¯": 5074,
      "ial": 5075,
      "ãĤ¤ãĥ³ãĤ¿ãĥ¼ãĥįãĥĥãĥĪ": 5076,
      "æįľæŁ»": 5077,
      "ãĥ¼ãĥĮ": 5078,
      "ãģĹãģ¦ãģįãģŁ": 5079,
      "ãĥĩãĤ£ãĥ¼": 5080,
      "ib": 5081,
      "ãĤ¿ãĥ¬ãĥ³ãĥĪ": 5082,
      "åħ¬éĸĭãģķãĤĮãģŁ": 5083,
      "ãĥŁãĥ¥ãĥ¼ãĤ¸ãĤ«ãĥ«": 5084,
      "ãĥĨãĤ¯": 5085,
      "æīĢæľī": 5086,
      "ED": 5087,
      "åīįä½ľ": 5088,
      "åīµè¨Ń": 5089,
      "åįĺçĭ¬": 5090,
      "ç£ģ": 5091,
      "æľ¨æĿĳ": 5092,
      "ãĥ¼ãĥı": 5093,
      "ãĥĲãĥ³": 5094,
      "ãĤ½ãĥ¼": 5095,
      "ãĥĬãĤ¦": 5096,
      "ãģĭãĤĮ": 5097,
      "éĻ¥": 5098,
      "åı¤ä»£": 5099,
      "75": 5100,
      "åıĸå¼ķ": 5101,
      "ãģ®æİ¨": 5102,
      "ãĥŁãĥį": 5103,
      "âĻ": 5104,
      "ãĤ¹ãĥ©": 5105,
      "ãĤ¹ãĤ¿ãĥ³": 5106,
      "å»ºçī©": 5107,
      "1977": 5108,
      "æ¸¡è¾º": 5109,
      "ãĥŃãĥ¼ãĥī": 5110,
      "è¤ĩæķ°": 5111,
      "ãĤ¯ãĤ¤": 5112,
      "è©¦åĲĪãģ«åĩºåł´": 5113,
      "ãĤĴå®Ī": 5114,
      "ãĤ¬ãĤ¤": 5115,
      "ãģ®ãģ«": 5116,
      "1969": 5117,
      "ãĤ·ãĤ«": 5118,
      "ç¬¬ä¸ī": 5119,
      "ãĥľãĥ«": 5120,
      "ãĤ¢ãĤ¯ãĤ»ãĤ¹": 5121,
      "æī¹åĪ¤": 5122,
      "66": 5123,
      "ä¾¯": 5124,
      "è¡ĽéĸĢ": 5125,
      "åºı": 5126,
      "ä¿ĿéĻº": 5127,
      "ç´«": 5128,
      "Ġ2008": 5129,
      "ãĤĴæıĲä¾Ľ": 5130,
      "ãģ«æķĹ": 5131,
      "å¾¹": 5132,
      "ãģ®è¥¿": 5133,
      "ãĤĴè¡Įãģ£ãģ¦ãģĦãĤĭ": 5134,
      "ãĤ·ãĥ³ãĤ¬": 5135,
      "ãĥİãĥ«": 5136,
      "ãģ®è«": 5137,
      "åħ¬ç«ĭ": 5138,
      "ĠSh": 5139,
      "ãĢħæľ¨": 5140,
      "ear": 5141,
      "ãĥıãĥ«": 5142,
      "ãģ®èĦ": 5143,
      "ç¶±": 5144,
      "ãģ®å°ĳ": 5145,
      "ãĤĤãĤī": 5146,
      "æľĢå¾Įãģ®": 5147,
      "color": 5148,
      "ãĥ¡ãĥ³": 5149,
      "ãģ¯ãģĵãģ®": 5150,
      "æ´ŀ": 5151,
      "æķ°ãģĮ": 5152,
      "Ġéķ·": 5153,
      "å¥ī": 5154,
      "å¢ĵ": 5155,
      "oy": 5156,
      "ãĥŃãĥľ": 5157,
      "ãģķãĤĮãģ¦ãģĦãģªãģĦ": 5158,
      "1968": 5159,
      "ãĤĴæĴ": 5160,
      "æ°·": 5161,
      "ãĥ¯ãĥ¼ãĥ«ãĥīãĤ«ãĥĥãĥĹ": 5162,
      "ãģĵãģ¨ãĤĤãģĤãĤĭ": 5163,
      "ãģĹãĤĥ": 5164,
      "ãģ®æĥħ": 5165,
      "YouTube": 5166,
      "ãĥĪãĥ¼ãĤ¯": 5167,
      "ãĤ³ãĥ¼ãĥģ": 5168,
      "è¨Ńãģĳ": 5169,
      "åį³": 5170,
      "æ³ķå¾ĭ": 5171,
      "ãĤ¢ãĤ¦ãĥĪ": 5172,
      "ãģĬãģĬ": 5173,
      "æŃ³ãģ§": 5174,
      "æĸī": 5175,
      "éģ¸æĬľ": 5176,
      "å¯©æŁ»": 5177,
      "æĸ½è¡Į": 5178,
      "èĢħãĤĴ": 5179,
      "ies": 5180,
      "ãģŁãģ¡ãģ®": 5181,
      "ãĥĥãĤ«ãĥ¼": 5182,
      "éĻµ": 5183,
      "ç¾İè¡ĵé¤¨": 5184,
      "ãģĹãģ¦ãģĦãģªãģĦ": 5185,
      "ãĥŃãĥĥãĥĪ": 5186,
      "ãģ¿ãģª": 5187,
      "çİĩãģĦãĤĭ": 5188,
      "ãĤªãĥ¼ãĥĩãĤ£": 5189,
      "ãģĿãģĵãģ§": 5190,
      "uc": 5191,
      "ãģ¹ãģį": 5192,
      "è³ĩéĩĳ": 5193,
      "ĠâĢ»": 5194,
      "è¬Ľè«ĩ": 5195,
      "è´Ī": 5196,
      "è»¸": 5197,
      "ãĤĮãģ¦ãģĬãĤĬ": 5198,
      "æĻĤãģ¯": 5199,
      "OUR": 5200,
      "ãĤ»ãĤ¤": 5201,
      "å±±å¸Ĥ": 5202,
      "åī¤": 5203,
      "ãģĮå§ĭ": 5204,
      "åĲĪãĤıãģĽãģ¦": 5205,
      "ãĥ«ãĥ¼ãĥĪ": 5206,
      "åķĵ": 5207,
      "IP": 5208,
      "è»įäºĭ": 5209,
      "æĭ¬": 5210,
      "Ġ2007": 5211,
      "è²¡åĽ£": 5212,
      "ãģ®åľ°åŁŁ": 5213,
      "ãĤ¦ãĥ³ãĥĪ": 5214,
      "èĬ¸èĥ½": 5215,
      "ãĥĵãĤ¸ãĥįãĤ¹": 5216,
      "å¶ĭ": 5217,
      "æĨ¶": 5218,
      "åĭ¤åĭĻ": 5219,
      "è½Ħ": 5220,
      "ä½ĵåĪ¶": 5221,
      "éģ¸æīĭæ¨©å¤§ä¼ļ": 5222,
      "Ġåħĥ": 5223,
      "ãĥªãĤ¢ãĥ«": 5224,
      "ç¾¤é¦¬": 5225,
      "ãĤĴæİ¢": 5226,
      "ãĥĺãĥ³": 5227,
      "æĸ°äºº": 5228,
      "å½ĵæĻĤãģ®": 5229,
      "ĠãĥĬ": 5230,
      "ãĤ¤ãĥ³ãĤ¿ãĥĵãĥ¥ãĥ¼": 5231,
      "ld": 5232,
      "ï¼ĳ": 5233,
      "ãģ«ãģĭãģĳãģ¦": 5234,
      "è¿ĳãģĦ": 5235,
      "ãĥ«ãĤ¤": 5236,
      "ãĥ³ãĤ¹ãĤ¿ãĥ¼": 5237,
      "ãĥĨãĥ¬ãĥĵãĤ¢ãĥĭãĥ¡": 5238,
      "||.": 5239,
      "æİ¥ãģĻãĤĭ": 5240,
      "ãĤµãĥĿãĥ¼ãĥĪ": 5241,
      "ãĤĴéģĶæĪĲ": 5242,
      "ãģ®åĲįåīį": 5243,
      "ãģ£ãģ¦ãģįãģŁ": 5244,
      "èİ": 5245,
      "ä¸ĩãĥīãĥ«": 5246,
      "è²¸": 5247,
      "ä½įãģ®": 5248,
      "è¦ģç´ł": 5249,
      "éħįç½®": 5250,
      "äºķä¸Ĭ": 5251,
      "ãģ®åĩºæ¼Ķ": 5252,
      "å¾³å³¶": 5253,
      "ãģ®ä¸Ģäºº": 5254,
      "Ġ20": 5255,
      "ãģĹãģ®": 5256,
      "åķĨæ¥Ń": 5257,
      "ãģ®æ±º": 5258,
      "SH": 5259,
      "å¾®": 5260,
      "æĹ¥ãģ«è¡ĮãĤıãĤĮãģŁ": 5261,
      "62": 5262,
      "çĽ®ãģ«": 5263,
      "è¾¼ãĤĢ": 5264,
      "ãģĪãĤīãĤĮãĤĭ": 5265,
      "ä½ĵãģĮ": 5266,
      "ãģĭãĤĮãĤĭ": 5267,
      "ãģ®æĤ": 5268,
      "ãĤµãĤ¤ãĤº": 5269,
      "ãĤĴå¥ª": 5270,
      "è»įãģ®": 5271,
      "åĸ«": 5272,
      "WA": 5273,
      "ãĥĸãĥŃãĥĥãĤ¯": 5274,
      "æĻĤãģ«ãģ¯": 5275,
      "æ°ĳä¸»åħļ": 5276,
      "ç®±": 5277,
      "ãģ¨èªŀ": 5278,
      "ãĥ³ãĥŀãĥ³": 5279,
      "1967": 5280,
      "çįĦ": 5281,
      "é¦ĸçĽ¸": 5282,
      "ãĥ¼ãĥ«ãģ®": 5283,
      "ãĥķãĤ§ãĥ«": 5284,
      "SE": 5285,
      "ãĥĹãĥŃéĩİçĲĥ": 5286,
      "è¡Ģæ¶²": 5287,
      "å°ĤçĶ¨": 5288,
      "ãĥķãĥ©ãĥ³ãĤ¯": 5289,
      "ãģĽãģĦ": 5290,
      "ãģ®æ³ķ": 5291,
      "ãĥĸãĥ³": 5292,
      "ãģ¯çĦ¡": 5293,
      "..": 5294,
      "ãģĭãģĨ": 5295,
      "ãĤ¨ãĥªãĤ¢": 5296,
      "ãģ¨ç§°": 5297,
      "éĮ²éŁ³": 5298,
      "ãĤµãĤ¤ãĥī": 5299,
      "ãĥģãĥ¼ãĥķ": 5300,
      "ãģĵãĤĮãĤīãģ®": 5301,
      "åīĽ": 5302,
      "ãģ¾ãģ§ãģ«": 5303,
      "ãģ®å½¹": 5304,
      "ãģ¨çµĲå©ļ": 5305,
      "æľŁãģ®": 5306,
      "ãģ«éģ¸ãģ°ãĤĮãģŁ": 5307,
      "ä½ĵãģ®": 5308,
      "æľĢå¾Į": 5309,
      "æĸ¹å¼ı": 5310,
      "å¦Ĥ": 5311,
      "ãĤ°ãĥ©ãĥ³ãĥī": 5312,
      "ãĤģãģ¦ãģĦãĤĭ": 5313,
      "çĶŁåĳ½": 5314,
      "ä¸Ĭæĺł": 5315,
      "ãĤ¨ãĥ³ãĤ¸ãĥ³": 5316,
      "å°ĭå¸¸": 5317,
      "ãĥ¯ãĥ³": 5318,
      "è¬Ľè«ĩç¤¾": 5319,
      "ãĤ±ãĥ¼ãĤ·ãĥ§ãĥ³": 5320,
      "ãĤĴåıĤçħ§": 5321,
      "ãĤªãĥ©ãĥ³ãĥĢ": 5322,
      "åıĤæĪ¦": 5323,
      "æĹħå®¢": 5324,
      "LO": 5325,
      "é¦ĸéĥ½": 5326,
      "ãģ®æ¼": 5327,
      "ä¾Ŀéł¼": 5328,
      "æĻ®éĢļ": 5329,
      "ãĥĲãĥ¼ãĤ¸ãĥ§ãĥ³": 5330,
      "au": 5331,
      "å¤ªå¹³": 5332,
      "ãģ®å£°": 5333,
      "ãĥĭãĤ¹": 5334,
      "è©°": 5335,
      "ãĥ³ãĥĮ": 5336,
      "åįĥèĳīçľĮ": 5337,
      "Ġãĥ¢": 5338,
      "äº¡ãģı": 5339,
      "ãĤŃãĥ³": 5340,
      "ãĤ¢ãĥ³ãĥĪ": 5341,
      "åĳĤ": 5342,
      "ãģ®èĤ": 5343,
      "ãĤ«ãĥ«ãĤ¿": 5344,
      "æ¬§å·ŀ": 5345,
      "ãĥ¡ãĥĥãĤ»": 5346,
      "ãģ®èµ": 5347,
      "æ»Ŀ": 5348,
      "æŀļçĽ®ãģ®": 5349,
      "!ãĢį": 5350,
      "æĸĹ": 5351,
      "å¹´éłĥ": 5352,
      "ãģ®æ¼Ķ": 5353,
      "ç¶ŃæĮģ": 5354,
      "JR": 5355,
      "ãģ®åĲĮ": 5356,
      "å¹´éĢ£ç¶ļ": 5357,
      "63": 5358,
      "ä»Ļåı°": 5359,
      "ãģĬãĤīãģļ": 5360,
      "ä½ĵãĤĴ": 5361,
      "å¼·åĮĸ": 5362,
      "ãģ£ãģ¦ãģĦãģŁãģĮ": 5363,
      "æĹ¥åħ¬éĸĭ": 5364,
      "mer": 5365,
      "çİĦ": 5366,
      "æŃ´ä»»": 5367,
      "ĠèĹ¤": 5368,
      "ãģĮçĶŁ": 5369,
      "ä¾ĭãģĪãģ°": 5370,
      "ãģ¤ãģĳ": 5371,
      "Ġ2005": 5372,
      "èıĮ": 5373,
      "ãĤ¢ãĥĭãĥ¡ãĥ¼ãĤ·ãĥ§ãĥ³": 5374,
      "ãĤĴæį": 5375,
      "å¼·ãģı": 5376,
      "éļĶ": 5377,
      "çĶ»å®¶": 5378,
      "ãĥĦãĤ£": 5379,
      "ĠTh": 5380,
      "ãĥŀãĤ¯": 5381,
      "ãģĿãģ®ãģ¾ãģ¾": 5382,
      "ãĤ¯ãĥŃãĤ¹": 5383,
      "å¾©æ´»": 5384,
      "éŃĤ": 5385,
      "ä»®éĿ¢ãĥ©ãĤ¤ãĥĢãĥ¼": 5386,
      "Ġï¼ļ": 5387,
      "ãĤ³ãĤ¹": 5388,
      "ãĥ¼ãĥªãĥ³ãĤ°": 5389,
      "åģ´ãģ«": 5390,
      "åł´åĲĪãģ¯": 5391,
      "ãģ¨ãģªãģ£ãģ¦": 5392,
      "åĪĨæŀĲ": 5393,
      "æĸ°ãģŁãģ«": 5394,
      "åħĲå³¶": 5395,
      "ï¼ħ": 5396,
      "ãĤĴæ®º": 5397,
      "88": 5398,
      "ä¸įè©³": 5399,
      "å°ıæŀĹ": 5400,
      "ãĥ¢ãĥ³ãĥī": 5401,
      "æ£Ħ": 5402,
      "ãģĮå¤§": 5403,
      "æĽ¸ç±į": 5404,
      "åĬī": 5405,
      "æĪĲéķ·": 5406,
      "ãĤµãĥ©": 5407,
      "èµ·çĶ¨": 5408,
      "æ¸©æ³ī": 5409,
      "ãģĭæľĪ": 5410,
      "åĮ»åŃ¦": 5411,
      "ãĥĥãĤ«": 5412,
      "æĪ¦ãģ§ãģ¯": 5413,
      "è£Ĥ": 5414,
      "èĪĪè¡Į": 5415,
      "æľĪãĤĪãĤĬ": 5416,
      "ãģ®åķı": 5417,
      "éĨ": 5418,
      "ãĤĴæİ¡": 5419,
      "ãĥĢãĥĸãĥ«": 5420,
      "ãĥ´ãĤ¡ãĥ³": 5421,
      "å®£è¨Ģ": 5422,
      "ãĤ¢ãĥł": 5423,
      "å¤§è³ŀ": 5424,
      "ãĥķãĤ©ãĥ¼ãĥł": 5425,
      "åĶĲ": 5426,
      "åĳ¼ãģ°": 5427,
      "èıħ": 5428,
      "æ´¾éģ£": 5429,
      "ãģĹãģ¦ãģĦãĤĭãģĮ": 5430,
      "ãĤ¤ãĥ«ãĤ¹": 5431,
      "ãģĮå¿ħè¦ģ": 5432,
      "ä¸ĭãģ®": 5433,
      "ãģ®ãģŁãĤģãģ®": 5434,
      "äº¤æıĽ": 5435,
      "éĿĴå¹´": 5436,
      "ãĥ¶æľĪ": 5437,
      "ãģ¡ãĤĩãģĨ": 5438,
      "ãĤŃãĥ£ãĥªãĤ¢": 5439,
      "è¢«å®³": 5440,
      "Ġãģ¾": 5441,
      "ãĥªãĤ¢ãĥ³": 5442,
      "LIVE": 5443,
      "å®īå®ļ": 5444,
      "ãĥĲãĥĪãĥ«": 5445,
      "ãģ«çĻ»åł´": 5446,
      "ç¯ĦåĽ²": 5447,
      "61": 5448,
      "ãĥĳãĥ¼ãĤ½ãĥĬãĥªãĥĨãĤ£": 5449,
      "65": 5450,
      "ãĥĩãĤ£ãĥ³ãĤ°": 5451,
      "ãĥ«ãĥĪãĥ©": 5452,
      "èĦĪ": 5453,
      "éģķãģĦ": 5454,
      "ä¸ŃæŃ¢": 5455,
      "Ġvol": 5456,
      "ãģ«æĪĲåĬŁ": 5457,
      "åĪ¶éĻĲ": 5458,
      "æ©Łæ§ĭ": 5459,
      "ç¢ĳ": 5460,
      "ãģ«ä½įç½®ãģĻãĤĭ": 5461,
      "ãģ®ç¥ŀ": 5462,
      "APAN": 5463,
      "åĪ°çĿĢ": 5464,
      "ä¾Ľçµ¦": 5465,
      "è¡ĨèŃ°éĻ¢èŃ°åĵ¡": 5466,
      "éĥ¨ãģ¯": 5467,
      "çĭŃ": 5468,
      "ãģ¨æĶ¹ç§°": 5469,
      "åŁ·è¡Į": 5470,
      "ãģ«åıĸãĤĬ": 5471,
      "ç·Ĭ": 5472,
      "æĻĭ": 5473,
      "è©²": 5474,
      "æ¯Ĵ": 5475,
      "ĠAr": 5476,
      "éĢ²è¡Į": 5477,
      "èĦĩ": 5478,
      "åŃĹãģ¯": 5479,
      "å¨ģ": 5480,
      "å¹³åĴĮ": 5481,
      "ãģ«ãģĻãĤĭ": 5482,
      "ãĥ¡ãĥ¼ãĤ«ãĥ¼": 5483,
      "NT": 5484,
      "ãģ«è²¢çĮ®": 5485,
      "çŁ¥äºĭ": 5486,
      "ç§ĳå¤§åŃ¦": 5487,
      "éģ·": 5488,
      "ãĤ³ãĥ³ãĥĶ": 5489,
      "ç¸¦": 5490,
      "ãĥĥãĤµ": 5491,
      "ĠçľŁ": 5492,
      "ont": 5493,
      "ãĤ«ãĥĲãĥ¼": 5494,
      "ãģ®åĦª": 5495,
      "å®Łçı¾": 5496,
      "ç¨²çĶ°": 5497,
      "ãģ²ãģ¨ãģ¤": 5498,
      "æĻĤçĤ¹ãģ§": 5499,
      "é§Ĵ": 5500,
      "Ġä¸Ģ": 5501,
      "æ²Ī": 5502,
      "æŃ´ä»£": 5503,
      "68": 5504,
      "|}": 5505,
      "è§£æķ£": 5506,
      "ãĤĤãģĤãĤĬ": 5507,
      "æĢĴ": 5508,
      "ãģ«å¯¾å¿ľ": 5509,
      "çĥ": 5510,
      "Ġå®®": 5511,
      "åħĪçĶŁ": 5512,
      "å¼ģèŃ·å£«": 5513,
      "æĮĳæĪ¦": 5514,
      "é£¼": 5515,
      "ãģ®è¿ĳ": 5516,
      "1000": 5517,
      "çªĵ": 5518,
      "ãĥ³ãĥĸãĥ«ãĤ¯": 5519,
      "ãģĤãģ¾ãĤĬ": 5520,
      "æĭħ": 5521,
      "åĩºçīĪç¤¾": 5522,
      "SU": 5523,
      "ãĤīãģĻãģĺ": 5524,
      "æĹ¬": 5525,
      "åºĥãģı": 5526,
      "ãĥ¼ãĥĩãĤ£ãĥ³ãĤ°": 5527,
      "èīĩ": 5528,
      "ãĤ³ãĥŁãĥĥãĤ¯": 5529,
      "åĩºä¼ļ": 5530,
      "ãģ¤ãģį": 5531,
      "å¾Ħ": 5532,
      "ä¼ĳæŃ¢": 5533,
      "ãĥĻãĥ³": 5534,
      "ãĤ¤ãĥ³ãĥĩãĤ£": 5535,
      "ãĥĨãĥĥãĥī": 5536,
      "ä»ķæ§ĺ": 5537,
      "åģ¥åº·": 5538,
      "ãĤ¨ãĥķ": 5539,
      "ãĥĢãĤ¦": 5540,
      "ãģĵãģ¨ãģ«ãģªãģ£ãģŁ": 5541,
      "ãĤ¬ãĥ¼ãĥ«": 5542,
      "ãĥĹãĥŃãĥĢ": 5543,
      "è¨ĵç·´": 5544,
      "ver": 5545,
      "ãĤ³ãĥ³ãĥĵ": 5546,
      "ãĥĸãĥ¬ãĤ¤": 5547,
      "è¾¼ãĤĵãģł": 5548,
      "ãģ¨å¯¾æĪ¦ãģĹ": 5549,
      "æĽ´æĸ°": 5550,
      "Ġ13": 5551,
      "è»įãģĮ": 5552,
      "oh": 5553,
      "è¢ĭ": 5554,
      "æĦŁæŁĵ": 5555,
      "Ġ2006": 5556,
      "ãĥķãĤ£ãĥ¼ãĥ«ãĥī": 5557,
      "çĲĥåĽ£": 5558,
      "æĹ¥éĸĵ": 5559,
      "é«ĺãģı": 5560,
      "æĢ§ãĤĴ": 5561,
      "ä¸Ńèı¯": 5562,
      "çĭ¬èĩª": 5563,
      "ãĥ©ãĤ¯": 5564,
      "ç³¸": 5565,
      "é¦Ļæ¸¯": 5566,
      "ãģ®åĳ¨": 5567,
      "çĻºéĽ»æīĢ": 5568,
      "ãĥķãĥ©ãĤ¤": 5569,
      "éłĨä½į": 5570,
      "ãģ®ä¸ī": 5571,
      "å¥¨": 5572,
      "æ£Ł": 5573,
      "ãģ®å¯ºéĻ¢": 5574,
      "ai": 5575,
      "ãĤĢãĤī": 5576,
      "æ¡ĳ": 5577,
      "åĲĮãģĺãģı": 5578,
      "Ġç·¨æĽ²": 5579,
      "ĠCom": 5580,
      "ãģ¨ãģĹãģ¦æ´»åĭķ": 5581,
      "èĢĲ": 5582,
      "âĢĻ": 5583,
      "69": 5584,
      "ä¼ļé¤¨": 5585,
      "ãģĿãĤĮãģ¯": 5586,
      "ãĤ«ãĥ¼ãĥ«": 5587,
      "ãģĤãĤīãģĻãģĺ": 5588,
      "1964": 5589,
      "è¨ĺæĨ¶": 5590,
      "çĶºãģ«": 5591,
      "åĨħéĸ£": 5592,
      "ãĤ¨ãĥĶãĤ½ãĥ¼ãĥī": 5593,
      "ãĥŁãĥ³ãĤ°": 5594,
      "1962": 5595,
      "è³ĩæł¼": 5596,
      "è¡ĮçĤº": 5597,
      "ãģĹãģıãģ¯": 5598,
      "ĠéŁ³æ¥½": 5599,
      "åĲĪãģĦ": 5600,
      "æ©Łæ¢°": 5601,
      "ãĥĴãĥĥãĥĪ": 5602,
      "ä¸ĸå¸¯æķ°ãģ¨": 5603,
      "ä¸ĸå¸¯æķ°ãģ¨äººåı£": 5604,
      "ãģ®ãģĵãģ¨": 5605,
      "ç«ĭãģ¤": 5606,
      "æľ¬ä½ľãģ¯": 5607,
      "åĪĨéĩİ": 5608,
      "ä¸ĭãģ«": 5609,
      "ç¦ģæŃ¢": 5610,
      "åħµåº«çľĮ": 5611,
      "ãĤ«ãĥ©ãĥ¼": 5612,
      "å·¥åŃ¦": 5613,
      "çħĻ": 5614,
      "ãģ®æ§ĺ": 5615,
      "èĢħãģ§ãģĤãĤĭ": 5616,
      "è¡¨å½°": 5617,
      "ãĥİãĥ³": 5618,
      "AB": 5619,
      "å·Ŀå´İ": 5620,
      "Ġãĥ¡": 5621,
      "ah": 5622,
      "ĠçĻ½": 5623,
      "ä¹³": 5624,
      "ãĤ²ãĥ«": 5625,
      "çĽ¸è«ĩ": 5626,
      "79": 5627,
      "å±Ģéķ·": 5628,
      "ãģ«åħ¥ãĤĬ": 5629,
      "ĠãĤ¿": 5630,
      "ãĥĸãĥ©ãĤ¸ãĥ«": 5631,
      "çĻºå±ķ": 5632,
      "åıĸå¾Ĺ": 5633,
      "ĠYou": 5634,
      "ãģĪãģªãģĦ": 5635,
      "ãģĻãģİ": 5636,
      "1966": 5637,
      "ãĥķãĤ£ãĥ³": 5638,
      "ãģ«å¸°": 5639,
      "ä¿®éģĵ": 5640,
      "center": 5641,
      "ãģ®éĸĭçĻº": 5642,
      "1950": 5643,
      "é¹¿åħĲå³¶": 5644,
      "TR": 5645,
      "ãģ®ä¸Ńå¿ĥ": 5646,
      "ç§ĺå¯Ĩ": 5647,
      "çµ±ä¸Ģ": 5648,
      "ç¬ĳãģĦ": 5649,
      "åģľæŃ¢": 5650,
      "ãĥ³ãĥ¡ãĥ³ãĥĪ": 5651,
      "ãģ§ãĥĹãĥ¬ãĥ¼": 5652,
      "è¦ıå®ļ": 5653,
      "DS": 5654,
      "Ġãģ«": 5655,
      "åľ°ãĤĴ": 5656,
      "ãģ®æĻĤãģ«": 5657,
      "åľ°ãģ§": 5658,
      "åĢŁ": 5659,
      "ãĤĨãģį": 5660,
      "è¦ĸèģ´": 5661,
      "èī²ãģ®": 5662,
      "Ġ14": 5663,
      "ãĥĿãĥ¼ãĤ¿ãĥ¼": 5664,
      "ãĤĴä¸Ģ": 5665,
      "ãĤĬãģ§": 5666,
      "æĸ¹åĲĳ": 5667,
      "ãģ«ä¹Ĺ": 5668,
      "ãĤ¢ãģ®": 5669,
      "äº¤æ¸ī": 5670,
      "çľł": 5671,
      "èĥĮæĻ¯": 5672,
      "ãĥļãĥ¼ãĤ¸": 5673,
      "ãĥ´ãĤ§ãĥ«": 5674,
      "ãĤ¸ãĥ£ãĥĥãĤ¯": 5675,
      "åĪ¶å¾¡": 5676,
      "ãĤĴæŀľãģŁãģĻ": 5677,
      "ãĤ·ãĤ¹": 5678,
      "ãģĭãĤīãĤĤ": 5679,
      "å¾ĵæĿ¥": 5680,
      "ãģ®è¾": 5681,
      "ç¶¾": 5682,
      "åŃĲãĤĴ": 5683,
      "è²¬ä»»": 5684,
      "¶Ī": 5685,
      "ãģ®çµĲæŀľ": 5686,
      "ãĤµãĤ¦ãĥ³ãĥī": 5687,
      "ãĤĴæ¨": 5688,
      "åĵī": 5689,
      "åħ¬åħ±": 5690,
      "ãĥĥãĤ¿": 5691,
      "åĩ¦çĲĨ": 5692,
      "ç¶²": 5693,
      "ãĤĴéĢļãģĺãģ¦": 5694,
      "ãĥĿãĥ«ãĥĪ": 5695,
      "ãĤĤãģ®ãģ§": 5696,
      "ark": 5697,
      "å»ºéĢł": 5698,
      "è®": 5699,
      "ç¥ī": 5700,
      "æľŁãģ«": 5701,
      "ens": 5702,
      "ãģ®åľŁ": 5703,
      "åĪ·": 5704,
      "EX": 5705,
      "ãģªãģĦãģŁãĤģ": 5706,
      "ãĤ±ãĤ¤": 5707,
      "æĲŃè¼ī": 5708,
      "73": 5709,
      "ãĥªãĥĴ": 5710,
      "Ġä½Ĳ": 5711,
      "ãĤĬãĤĴ": 5712,
      "å¸Ĥãģ«ãģĤãĤĭ": 5713,
      "ãĥĻãĥ«ãĥĪ": 5714,
      "è¦³æ¸¬": 5715,
      "ãĥ«ãĤ¿ãĥ¼": 5716,
      "çļĩå¸Ŀ": 5717,
      "æĹħè¡Į": 5718,
      "æ¯İå¹´": 5719,
      "åıĪ": 5720,
      "å¹¼å°ĳ": 5721,
      "64": 5722,
      "èįĺ": 5723,
      "åĲĪæł¼": 5724,
      "ãģĺãĤīãĤĮãģŁ": 5725,
      "ç¦ıç¥ī": 5726,
      "åĮ»å¸«": 5727,
      "ĠâĢ": 5728,
      "ä¿®äºĨ": 5729,
      "æĻ¶": 5730,
      "ãģ¨ãģķãĤĮãģ¦ãģĦãĤĭ": 5731,
      "ãĥ³ãĥĭ": 5732,
      "ç«£": 5733,
      "ĠçŁ³": 5734,
      "ãģ®ãģ»ãģĭ": 5735,
      "ãĤ¤ãĤ¯": 5736,
      "åĤĺ": 5737,
      "ãģ¦ãĤĤ": 5738,
      "ãĤ¦ãĥĥãĥī": 5739,
      "åı¸ä»¤": 5740,
      "ãģ®æµģ": 5741,
      "ç·´ç¿Ĵ": 5742,
      "TOKYO": 5743,
      "ãĤ¿ãĤ¦ãĥ³": 5744,
      "åīĬ": 5745,
      "ice": 5746,
      "ãģ®æŃ¦": 5747,
      "åĨĴ": 5748,
      "å¯¾çŃĸ": 5749,
      "ãģĹãģ¦ãģĦãģı": 5750,
      "å¢ĹåĬł": 5751,
      "åĿĬ": 5752,
      "ï¼ģãĢį": 5753,
      "èĻİ": 5754,
      "ãĤĴéĸĭå§ĭãģĹãģŁ": 5755,
      "åŀĭãģ®": 5756,
      "ç¦ıå²¡çľĮ": 5757,
      "æĶ¯éħį": 5758,
      "ãģ®å¼Ł": 5759,
      "ãĤ·ãĥĬ": 5760,
      "Ġ21": 5761,
      "ãĥĿãĥ¼ãĥ©ãĥ³ãĥī": 5762,
      "ãĥ©ãĤ°ãĥĵãĥ¼": 5763,
      "ãĤĴæĦıåĳ³ãģĻãĤĭ": 5764,
      "ãĤĴå¾ĹãģŁ": 5765,
      "ru": 5766,
      "ãĥļãĥ³": 5767,
      "çĽ¸å½ĵ": 5768,
      "ãĤ¢ãĤ«ãĥĩãĥŁãĥ¼": 5769,
      "çŃĳ": 5770,
      "ãĥĮãĤ¹": 5771,
      "ng": 5772,
      "ãĥ³ãĥ¢": 5773,
      "lect": 5774,
      "ãĢħãģ«": 5775,
      "ï¼ĪãĢİ": 5776,
      "ãĤģãģĲ": 5777,
      "çĽ®æ¨Ļ": 5778,
      "æ¬¡åħĥ": 5779,
      "çĹĽ": 5780,
      "è²łãģĳ": 5781,
      "è¡Įãģį": 5782,
      "ãĥĵãĥ³": 5783,
      "å·ŀãģ®": 5784,
      "ãģĹãģ¾ãģĦ": 5785,
      "ç«£å·¥": 5786,
      "SR": 5787,
      "ãģłãģĦ": 5788,
      "ãĤ±ãĥ³": 5789,
      "èĩªåĪĨãģ®": 5790,
      "åŁ·çŃĨ": 5791,
      "ä¸Ģç·Ĵãģ«": 5792,
      "ãģĹãģªãģĭãģ£ãģŁ": 5793,
      "ãģĮåı¯èĥ½": 5794,
      "ãĤµãĥĥãĤ«": 5795,
      "ä»¥ä¸Ĭãģ®": 5796,
      "ãģ¨è¦ĭ": 5797,
      "æĺłçĶ»ç¥Ń": 5798,
      "ãĤ¹ãĥĪãĥªãĥ¼ãĥĪ": 5799,
      "ãĤĬãģ«": 5800,
      "Ġ2004": 5801,
      "ãĥªãĤ³": 5802,
      "æ¼ĶåĬĩ": 5803,
      "åĪĨãģ®": 5804,
      "ãģ®è¬": 5805,
      "ãģĮãģĦãĤĭ": 5806,
      "å¤§åŃ¦æķĻæİĪ": 5807,
      "ãĤ¢ãĥ¡ãĥªãĤ«ãģ®": 5808,
      "ä½ľçĶ¨": 5809,
      "ãĤ¹ãĤ¯ãĥ¼ãĥ«": 5810,
      "å»¶éķ·": 5811,
      "ãģĮè¨Ńç½®": 5812,
      "ä»ĺå±ŀ": 5813,
      "ä¿ĿåŃĺ": 5814,
      "æĤŁ": 5815,
      "ãģĮåħ¥": 5816,
      "åĪĨéĽ¢": 5817,
      "ç¦ıäºķ": 5818,
      "ĠX": 5819,
      "åŁ¹": 5820,
      "72": 5821,
      "åĪ¤æĸŃ": 5822,
      "ãĥ¼ãĥķãĤ§": 5823,
      "ãģ¯ä¸Ģ": 5824,
      "ãĤīãģĦ": 5825,
      "ãĤīãģĹãģĦ": 5826,
      "æµª": 5827,
      "ãĥĹãĥ¬ãĤ¤ãĥ¤ãĥ¼": 5828,
      "ãģ«å°±ä»»ãģĹãģŁ": 5829,
      "åŃ¦ç¿Ĵ": 5830,
      "ãĤ¹ãĥĪãĥŃ": 5831,
      "çİĭåŃĲ": 5832,
      "ãģ®åķıé¡Į": 5833,
      "ãģĹãģ¿": 5834,
      "ãģªãĤĵ": 5835,
      "ãĤ·ãĥĥãĤ¯": 5836,
      "çĲĨè§£": 5837,
      "ãĤĴæ§": 5838,
      "ãĤ·ãĥ£ãĥ¼": 5839,
      "ãĥĢãĤ¤ãĥ¤": 5840,
      "ãģªãģ©ãģ«": 5841,
      "åĽŀè»¢": 5842,
      "ãĥĿãĥª": 5843,
      "ç¥ĸçĪ¶": 5844,
      "ãĥĳãĥ«": 5845,
      "ãĤ¹ãĥļãĥ¼ãĤ¹": 5846,
      "ãģĤãģ£ãģ¦": 5847,
      "çĭĻ": 5848,
      "åīµæ¥Ń": 5849,
      "ãģ«çµĤ": 5850,
      "ãĤ¨ãĥĪ": 5851,
      "ãģ§ãģįãģªãģĭãģ£ãģŁ": 5852,
      "åħĭ": 5853,
      "MV": 5854,
      "è¨ĺèĢħ": 5855,
      "é£Ľãģ³": 5856,
      "ãĥĥãĤŃãĥ¼": 5857,
      "ãģĵãĤĮãģĮ": 5858,
      "ãĥķãĤ©ãĥ«ãĥĭãĤ¢": 5859,
      "ĠçĽ£çĿ£": 5860,
      "ãģ»ãģĨ": 5861,
      "isc": 5862,
      "ãĥŀãĤ¹ãĤ¿ãĥ¼": 5863,
      "æĿ¾æľ¬": 5864,
      "iss": 5865,
      "æ·³": 5866,
      "ãģĿãģ®å¾Įãģ¯": 5867,
      "ãĥŃãĥ¼ãĤº": 5868,
      "ãģ«éĢļãģĨ": 5869,
      "ãĤĴè¨Ńç½®": 5870,
      "ãĤ¢ãĤ¦": 5871,
      "ãĤ¦ãĥ«ãĥĪãĥ©": 5872,
      "ç·łçµĲ": 5873,
      "è±Ĩ": 5874,
      "åĳ¼ãģ³": 5875,
      "ä¸ĬãģĴãģŁ": 5876,
      "ĠåįĹ": 5877,
      "ãĥ©ãĥ³ãĤ¯": 5878,
      "ãģĹãģŁãģĵãģ¨": 5879,
      "thãĤ·ãĥ³ãĤ°ãĥ«": 5880,
      "æĹ©ç¨²çĶ°": 5881,
      "è¦ģæ±Ĥ": 5882,
      "ãĥ¢ãĥİ": 5883,
      "å°ĳãģªãģı": 5884,
      "1961": 5885,
      "ãĤ·ãĥ¼ãĤºãĥ³çµĤäºĨ": 5886,
      "ãĤĴæĶ¾": 5887,
      "ãĤĴåįł": 5888,
      "ä¸¡è¦ª": 5889,
      "æ¨Ļæºĸ": 5890,
      "ãĥ¯ãĤ¤ãĥĪ": 5891,
      "éĢ£çµ¡": 5892,
      "ãĥ¼ãĥĬãĥ¡ãĥ³ãĥĪ": 5893,
      "å¹´é½¢": 5894,
      "ãģĮä¸Ģ": 5895,
      "ãĤ¨ãĥī": 5896,
      "å½ĵãģ¦": 5897,
      "ç¹ĭ": 5898,
      "æİ¨å®ļ": 5899,
      "ãĥ¤ãĥŀ": 5900,
      "åıĭäºº": 5901,
      "ç©´": 5902,
      "æ¢ģ": 5903,
      "ãģ®åł±": 5904,
      "çĽ£ä¿®": 5905,
      "åł´ãģ§": 5906,
      "çī©ãģ¯": 5907,
      "çĶŁæĶ¾éĢģ": 5908,
      "éļ»": 5909,
      "çŁ¥ãĤĬ": 5910,
      "ãģ®èĳĹ": 5911,
      "1965": 5912,
      "ãĤĴæĲ": 5913,
      "ãĥļãĥ©": 5914,
      "é¨Ĵ": 5915,
      "ãĤĦãĤĬ": 5916,
      "ãĥĴãĥ«": 5917,
      "åĪ¤æĺİ": 5918,
      "ãģ®ãĤĤãģ¨": 5919,
      "ãĤ¬ãĥ¼ãĥ«ãĤº": 5920,
      "ãĥĽãĥ«": 5921,
      "ãĥ¬ãĤ¹ãĥĪ": 5922,
      "ãĥıãĥł": 5923,
      "ãĥ¼ãĥĸãĥ«": 5924,
      "ãģ®æĶ¿æ²»å®¶": 5925,
      "åīµç«ĭ": 5926,
      "æķĻå®¤": 5927,
      "åħ«å¹¡": 5928,
      "æĹŃ": 5929,
      "ãģĨãģŁ": 5930,
      "ä¸Ģä¸ģçĽ®": 5931,
      "æĿ±æ´ĭ": 5932,
      "CT": 5933,
      "äºĭãĤĴ": 5934,
      "éĻĦ": 5935,
      "uk": 5936,
      "ãģĭãģ£ãģ¦": 5937,
      "ãģĻãĤĭãĤĤ": 5938,
      "å°ĤæĶ»": 5939,
      "ãĥ¼ãĥĴ": 5940,
      "å¤§åŃ¦åĲįèªīæķĻæİĪ": 5941,
      "ãĥķãĤ©ãĥ¼ãĥŀãĥ³ãĤ¹": 5942,
      "1945": 5943,
      "No": 5944,
      "ãģĤãģĦ": 5945,
      "ç¨¼": 5946,
      "Al": 5947,
      "ãĥĸãĥĥãĤ¯": 5948,
      "çĭ©": 5949,
      "æľ¬ä½ľãģ®": 5950,
      "Ġæľ¨": 5951,
      "åľŁæĽľ": 5952,
      "ock": 5953,
      "Ġ=": 5954,
      "ãĥ¼ãĥĵãĥ¼": 5955,
      "éĸĭé¤¨": 5956,
      "ãĤ³ãĥŁãĥĥãĤ¯ãĤ¹": 5957,
      "è©ķè«ĸ": 5958,
      "OD": 5959,
      "æµĦ": 5960,
      "ä»¥å¾Į": 5961,
      "ãģ·": 5962,
      "ory": 5963,
      "ãģ®åºĥ": 5964,
      "ãģ®æ·": 5965,
      "ãĢıãĢģãĢİ": 5966,
      "ãĥİãĥ¼": 5967,
      "è¡ĮãĤıãĤĮãĤĭ": 5968,
      "ãģķãģ¨": 5969,
      "éģºè·¡": 5970,
      "ãģ®æĬĢ": 5971,
      "å¡ŀ": 5972,
      "ãģ®åľ°åĲį": 5973,
      "ãģ«æĮĩå®ļ": 5974,
      "èĮ¨": 5975,
      "å¾Ģ": 5976,
      "ä½ľæĪĲ": 5977,
      "å¹´ãģ«ãģĭãģĳãģ¦": 5978,
      "ãĤıãģ£ãģ¦": 5979,
      "èı±": 5980,
      "ãĤ¼ãĥ³": 5981,
      "ãĤ¼ãĥŃ": 5982,
      "ãģ«åħ¥ãĤĭ": 5983,
      "ivers": 5984,
      "ND": 5985,
      "çĤ¹ãĤĴ": 5986,
      "éĥµä¾¿å±Ģ": 5987,
      "Ġon": 5988,
      "åĲ¹æĽ¿": 5989,
      "ï½¥": 5990,
      "ãĤµãĥł": 5991,
      "é¡ķ": 5992,
      "ace": 5993,
      "rd": 5994,
      "èĩªèº«ãģĮ": 5995,
      "CH": 5996,
      "æĸĩæĽ¸": 5997,
      "ãģĬãģĨ": 5998,
      "ç·¯": 5999,
      "ãģ«ãģĭ": 6000,
      "ãĤĴæ§ĭ": 6001,
      "ãģ®ä½ľåĵģ": 6002,
      "ãĥĦãĤ§": 6003,
      "æĤł": 6004,
      "ãģ®åĭĿ": 6005,
      "ãĥ«ãĥ¼ãĥ«": 6006,
      "ãģ®æĥħåł±": 6007,
      "ãĤ«ãĥ«ãĤ¿ãĤ´": 6008,
      "ãĤ«ãĤ¿": 6009,
      "ä¸ĸçķĮéģ¸æīĭæ¨©": 6010,
      "åľ°ãģ¯": 6011,
      "ãĤĪãģĨãģ«ãģªãĤĬ": 6012,
      "ãģ®åĳ½": 6013,
      "MA": 6014,
      "ãģ§æĶ¾éĢģ": 6015,
      "ãģ®èĬ±": 6016,
      "ãĤĴè¿½": 6017,
      "ãĤĴãģ¯ãģĺãĤģ": 6018,
      "ãĥĹãĥ«": 6019,
      "âĺħ": 6020,
      "ãģ®æº": 6021,
      "ä¸ĸãģ¯": 6022,
      "åĭ§": 6023,
      "ãģ®åīµ": 6024,
      "ä¿Ĺ": 6025,
      "åĤ¾": 6026,
      "å®ŁéļĽ": 6027,
      "æħİ": 6028,
      "éģºçĶ£": 6029,
      "Ġç¥ŀ": 6030,
      "äºŃ": 6031,
      "çµĮæ¸ĪåŃ¦": 6032,
      "å¤ªå¹³æ´ĭ": 6033,
      "Ġe": 6034,
      "å¹²": 6035,
      "ãĥĲãĥ³ãĤ¯": 6036,
      "ãĤŃãĥªãĤ¹ãĥĪ": 6037,
      "æī¹è©ķ": 6038,
      "å°ıåŃ¦": 6039,
      "ĠVol": 6040,
      "çľĮéģĵ": 6041,
      "ãģ®æıĲ": 6042,
      "ĠåĦªåĭĿ": 6043,
      "ãĥľãĤ¯": 6044,
      "éĢı": 6045,
      "çŁ¥ãĤīãĤĮãģ¦ãģĦãĤĭ": 6046,
      "ray": 6047,
      "ãģıãĤĵ": 6048,
      "æľĪåł´æīĢ": 6049,
      "ãĥŀãĥªãĤ¢": 6050,
      "ä½ĵé¨ĵ": 6051,
      "resents": 6052,
      "ãģķãĤĮãģ¦ãģĦãģŁãģĮ": 6053,
      "æĶ¹éĿ©": 6054,
      "è¨Ńç«ĭãģķãĤĮãģŁ": 6055,
      "ãģĬãģĭ": 6056,
      "æľŁéĻĲ": 6057,
      "1963": 6058,
      "ãĤ¹ãĤ¦ãĤ§ãĥ¼ãĥĩãĥ³": 6059,
      "ãĥ¬ãĤ³": 6060,
      "çĳŀ": 6061,
      "ãģ®ãģªãģĦ": 6062,
      "ãģ¡ãģª": 6063,
      "çĶºãģ®": 6064,
      "å®Łæ¥Ńå®¶": 6065,
      "ãĥĥãĤº": 6066,
      "ãĤ¨ãĥ³ãĥĩãĤ£ãĥ³ãĤ°": 6067,
      "ãĤ¦ãĤ§ãĥĸ": 6068,
      "ç®¡è½Ħ": 6069,
      "ãģ®æĦĽ": 6070,
      "åĬ±": 6071,
      "æ¯įè¦ª": 6072,
      "åĭĻçľģ": 6073,
      "ãĥĹãĥŃãĥ¬ãĤ¹": 6074,
      "ãĥŁãĥ©": 6075,
      "ãĤ¸ãĥ£ãĥ³ãĥĹ": 6076,
      "ãģ®æ£®": 6077,
      "ãģ¾ãģļ": 6078,
      "PR": 6079,
      "ãĥıãĥ³ãĤ¬": 6080,
      "ãĥ³ãĥĻãĥ«ãĤ¯": 6081,
      "ï¼İ": 6082,
      "å£²ãĤĬ": 6083,
      "ãģ®ãĤ¹": 6084,
      "ãĥĵãĥ¥": 6085,
      "ãģ®ä»ĸ": 6086,
      "ä¼ļè¨Ī": 6087,
      "éģİãģĶ": 6088,
      "ook": 6089,
      "åľŃ": 6090,
      "æ¬²": 6091,
      "çĦ¡æĸĻ": 6092,
      "ãĥ¬ãĥ¼ãĤ¿ãĥ¼": 6093,
      "ãĥ¬ãĥĥãĤ¸": 6094,
      "åįĹéĥ¨": 6095,
      "Ġãĥī": 6096,
      "ï¼Ĵ": 6097,
      "ãĥªãĤºãĥł": 6098,
      "å¤§éĻ¸": 6099,
      "ãĤıãģĳ": 6100,
      "è¥¿éĥ¨": 6101,
      "ãģ«ãĤıãģŁ": 6102,
      "ãĤ¢ãĤ¤ãĥ«": 6103,
      "ãģ«æ¸¡": 6104,
      "æ±łçĶ°": 6105,
      "æİ¢åģµ": 6106,
      "ãĥīãĥ©ãĤ¤ãĥĲãĥ¼": 6107,
      "ãĤ¨ãĥ¼ãĥ«": 6108,
      "æ£Ĵ": 6109,
      "nt": 6110,
      "ber": 6111,
      "äººçĶŁ": 6112,
      "åľ¨ç±į": 6113,
      "åĬĽãģĮ": 6114,
      "æĭĿ": 6115,
      "ä¾µæĶ»": 6116,
      "apan": 6117,
      "éķ·ãģĦ": 6118,
      "ãĤĤãģ®ãģĮ": 6119,
      "æ¬¡ãģ®": 6120,
      "åºĦ": 6121,
      "ãĥ©ãĤ¤ãĤ¿ãĥ¼": 6122,
      "ãĤĴæĬķ": 6123,
      "æ¶Īæ»ħ": 6124,
      "Ġvs": 6125,
      "ãĤĭãģĮ": 6126,
      "ãģ§åĪĿ": 6127,
      "æİĴ": 6128,
      "ALL": 6129,
      "com": 6130,
      "å®¶ãģ¯": 6131,
      "ãĤĬãģ¤": 6132,
      "ãģ£ãģŁãģĮ": 6133,
      "ãĤ·ãĥ§ãĥĥãĥĹ": 6134,
      "åĴĮçĶ°": 6135,
      "èĩªæ²»ä½ĵ": 6136,
      "ãĤ³ãĥ³ãĥĪ": 6137,
      "Ġåīį": 6138,
      "ãģ®åĤ": 6139,
      "ãĤĴåĬł": 6140,
      "ĠãĤ¶": 6141,
      "æģĴ": 6142,
      "è«¸å³¶": 6143,
      "ãĤ»ãĥ³ãĤ¹": 6144,
      "ãģĦãģ¨": 6145,
      "è³ĩæľ¬": 6146,
      "ä¹Ļ": 6147,
      "Ġ2003": 6148,
      "éĩĳæĽľ": 6149,
      "éĢ±åĪĬ": 6150,
      "æľĢçµĤçļĦãģ«": 6151,
      "ç´Ĺ": 6152,
      "åĲĮæĹ¥": 6153,
      "åħµè¡Ľ": 6154,
      "æĸ°èģŀç¤¾": 6155,
      "éĥĬ": 6156,
      "è¨Īç®Ĺ": 6157,
      "æĥĳæĺŁ": 6158,
      "ãģ®äºĮ": 6159,
      "ãģ«ãģĹ": 6160,
      "è¿ĳä»£": 6161,
      "åĳ¨åĽ²": 6162,
      "ãĤ¸ãĥĥãĥĪ": 6163,
      "æ±ºåĭĿãģ§": 6164,
      "ãĥįãĥĥãĥĪãĥ¯ãĥ¼ãĤ¯": 6165,
      "ãģ½": 6166,
      "ãģįãĤĩãģĨ": 6167,
      "æĸ°è¨Ń": 6168,
      "ĠCl": 6169,
      "çµ±è¨Ī": 6170,
      "ãģĶãģ¨ãģ«": 6171,
      "ãĤ¤ãĤ¢": 6172,
      "æŃ¦èĶµ": 6173,
      "ãĤ«ãĥªãĥķãĤ©ãĥ«ãĥĭãĤ¢": 6174,
      "èľ": 6175,
      "åıĻ": 6176,
      "å°½": 6177,
      "æ¼ģ": 6178,
      "ãĤ«ãĥ¡ãĥ©": 6179,
      "ãĥįãĥ¼ãĥł": 6180,
      "ãĥ¥ãĥ¼ãĤ¿": 6181,
      "éĿ¢ãģ«": 6182,
      "ãĤĤãĤĬ": 6183,
      "äºĭãģĮ": 6184,
      "çĶºç«ĭ": 6185,
      "ãģķãģĽãģ¦": 6186,
      "è¬Ģ": 6187,
      "ish": 6188,
      "èħ¹": 6189,
      "ãĤīãĤĮãģ¦ãģĬãĤĬ": 6190,
      "IFA": 6191,
      "éĮ¦": 6192,
      "IO": 6193,
      "ãģĮè¡ĮãĤıãĤĮ": 6194,
      "),": 6195,
      "å·»ãģį": 6196,
      "ãĥŁãĥ«": 6197,
      "æĬķè³ĩ": 6198,
      "ãģ¨è©ķ": 6199,
      "ãĥĩãĤ¹": 6200,
      "æ³³": 6201,
      "ãĥĴãĥĪ": 6202,
      "çŃĴ": 6203,
      "ood": 6204,
      "ãģ®æģĭ": 6205,
      "å®¶åºŃ": 6206,
      "ãĤ«ãĤ¹": 6207,
      "ãģ®æĻĤä»£": 6208,
      "©ļ": 6209,
      "ãģ®åħĪ": 6210,
      "èŃľ": 6211,
      "åĳī": 6212,
      "ss": 6213,
      "ãĥĨãĤ¹ãĥĪ": 6214,
      "æīĢãģ«": 6215,
      "éĩİæĿĳ": 6216,
      "ire": 6217,
      "å®Ŀå¡ļ": 6218,
      "GP": 6219,
      "ãģĵãģĿ": 6220,
      "è¨±åı¯": 6221,
      "è¡£è£ħ": 6222,
      "éĸĭè¨Ń": 6223,
      "Ġ2000": 6224,
      "ãģĺãĤĩãģĨ": 6225,
      "ãĤ¹ãĤ¿ãĤ¸ãĤ¢ãĥł": 6226,
      "ä»£ãĤıãĤĬãģ«": 6227,
      "FL": 6228,
      "ãĥ¡ãĥĩãĤ£": 6229,
      "æľ«ãģ«": 6230,
      "åĲĳä¸Ĭ": 6231,
      "NS": 6232,
      "èĩªå®ħ": 6233,
      "ç£¨": 6234,
      "éĲ": 6235,
      "æĻĤä»£ãģ¯": 6236,
      "æīĵçİĩ": 6237,
      "ãĤŃãĥ£ãĤ¹ãĤ¿ãĥ¼": 6238,
      "éłĺåŁŁ": 6239,
      "ç«¶é¦¬": 6240,
      "Ġy": 6241,
      "ãĤĴãģĭ": 6242,
      "éĢļç§°": 6243,
      "ãĥģãĥ¼ãĥłãģ¯": 6244,
      "ãĥĲãĤ¹ãĤ±ãĥĥãĥĪ": 6245,
      "ä½ľãĤĬ": 6246,
      "åĽŀå¾©": 6247,
      "ãĤĴæĢ": 6248,
      "ãĤ¤ãĤ¹ãĥ©": 6249,
      "ãĥ³ãĥĪãĥªãĥ¼": 6250,
      "çī¹åħ¸": 6251,
      "ãĤĴåıİéĮ²": 6252,
      "ãĥ¯ãĥ³ãĥŀãĥ³": 6253,
      "ãĥķãĤ£ãĥ¼ãĥ«": 6254,
      "åı¸ä¼ļ": 6255,
      "æĮĩåĲį": 6256,
      "pp": 6257,
      "ä»°": 6258,
      "ãĤ¨ãĤ¹": 6259,
      "irl": 6260,
      "ãģ®ä¸į": 6261,
      "ãĥĴãĥ¼ãĥŃ": 6262,
      "ãĥĽãĥ¯ãĤ¤ãĥĪ": 6263,
      "ãģĻãĤĭãģ¨ãģĦãģĨ": 6264,
      "ãĥŁãĥ³": 6265,
      "ãģ¾ãģ¡": 6266,
      "åįĬå³¶": 6267,
      "å¥ĳç´ĦãĤĴçµĲ": 6268,
      "ãģ®åĮº": 6269,
      "çľĭèŃ·": 6270,
      "æİĽãģĳ": 6271,
      "ãģ®å¿ĥ": 6272,
      "ãĥĹãĥŃãĥĢãĤ¯ãĤ·ãĥ§ãĥ³": 6273,
      "ãģ®çĪ¶": 6274,
      "ãĥ¼ãĥªãĥ¼ãĤ°": 6275,
      "ãĤĴçĶ¨ãģĦãģ¦": 6276,
      "æĢ§ãģĮ": 6277,
      "è²·åıİ": 6278,
      "ãĥ¼ãĥłãĤº": 6279,
      "æ°ĳæĹı": 6280,
      "ãģ¯ä»¥ä¸ĭãģ®éĢļãĤĬãģ§ãģĤãĤĭ": 6281,
      "æĶ¿æ¨©": 6282,
      "éģĤ": 6283,
      "å¾ĮæľŁ": 6284,
      "ãģĤãģªãģŁ": 6285,
      "ust": 6286,
      "éĸĵãģ§": 6287,
      "ãĤĴéĢ²": 6288,
      "ãĥĨãĤŃ": 6289,
      "è³ŀåıĹè³ŀ": 6290,
      "INE": 6291,
      "æ®ºäºº": 6292,
      "åħ¨ç±³": 6293,
      "å®Łè¡Į": 6294,
      "æłĥ": 6295,
      "lay": 6296,
      "æĢĿãģĦ": 6297,
      "ãĤĴçĿĢ": 6298,
      "çŃīãģ®": 6299,
      "ç¹°ãĤĬè¿Ķ": 6300,
      "ãģ¾ãģĹãģŁ": 6301,
      "ãĤ¬ãĥ³ãĥĢ": 6302,
      "åĪĨãģ«": 6303,
      "ãģ®è¶": 6304,
      "çĭĤ": 6305,
      "æ³Ĭ": 6306,
      "ãĤĴå§ĭãĤģ": 6307,
      "IA": 6308,
      "ãĤĤãģĹãģıãģ¯": 6309,
      "ä¼Ĭåĭ¢": 6310,
      "å¸ĤåİŁ": 6311,
      "ãģ®éłĥ": 6312,
      "ãĥĹãĤ¹": 6313,
      "åħ±éĢļ": 6314,
      "ãģ®ãĥ¡": 6315,
      "åĲĪæµģ": 6316,
      "æ²»çĻĤ": 6317,
      "åħµå£«": 6318,
      "æŁĶéģĵ": 6319,
      "ãģĮåŃĺåľ¨": 6320,
      "ãĥŃãĥ¼ãĥ«": 6321,
      "æĻĥ": 6322,
      "æ´²": 6323,
      "éĽ»è»Ĭ": 6324,
      "ãģ§æ§ĭæĪĲ": 6325,
      "ime": 6326,
      "ãĤŃãĤ·ãĤ³": 6327,
      "ãģ®å¤ī": 6328,
      "ä¿ĥ": 6329,
      "ãģļãģ«": 6330,
      "é¡§åķı": 6331,
      "ãģĭãĤīãģªãĤĭ": 6332,
      "ãĥŃãĤ¦": 6333,
      "ãģĵãĤĮãģ«ãĤĪãĤĬ": 6334,
      "ãĤ¼ãĥ«ãĤ¹": 6335,
      "åŁºæºĸ": 6336,
      "ãĤªãĥķãĤ£": 6337,
      "éļİç´ļ": 6338,
      "ãĥįãĥŀ": 6339,
      "éŁ³å£°": 6340,
      "éİĮ": 6341,
      "ãĤĴè²ł": 6342,
      "ãĥıãĥª": 6343,
      "ãĥľãĥ³": 6344,
      "èī¦éļĬ": 6345,
      "ãĤĴå§ĭãĤģãģŁ": 6346,
      "HT": 6347,
      "PC": 6348,
      "Ġwith": 6349,
      "ç´ĭ": 6350,
      "ãĥ´ãĤ£ãĥ«": 6351,
      "1959": 6352,
      "ãĥģãĥ£ãĥ¼": 6353,
      "Ġ2002": 6354,
      "ç¶Ļæī¿": 6355,
      "åİŁåĽł": 6356,
      "ãĤĴæº": 6357,
      "éĭ¼": 6358,
      "ãĤ¢ãĤ¤ãĥ«ãĥ©ãĥ³ãĥī": 6359,
      "ug": 6360,
      "âĪ": 6361,
      "ãģ§åĦªåĭĿ": 6362,
      "å¾Ĳ": 6363,
      "åľ°ä¸Ĭ": 6364,
      "æĪ¦çķ¥": 6365,
      "è¨ŃåĤĻ": 6366,
      "æıļ": 6367,
      "ãĥģãĥ£ãĥ³": 6368,
      "ç¢ºä¿Ŀ": 6369,
      "éĺ²å¾¡çİĩ": 6370,
      "ãģłãģĳãģ§ãģªãģı": 6371,
      "85": 6372,
      "éģ¸åĩº": 6373,
      "å¸ĮæľĽ": 6374,
      "ãĤ½ãĥķãĥĪãĤ¦ãĤ§ãĤ¢": 6375,
      "æľĪæĽľ": 6376,
      "éģŃ": 6377,
      "å»·": 6378,
      "åįĺä½į": 6379,
      "ãĥ¼ãĥģãĤ§": 6380,
      "ãģ®æĽ¸": 6381,
      "ãģĭãģĹ": 6382,
      "ãĥ¬ãĤª": 6383,
      "èķ": 6384,
      "Ġãģķ": 6385,
      "ãĥ¼ãĥĿ": 6386,
      "1956": 6387,
      "ãĤĴæĶ¹": 6388,
      "è¡Ģæ¶²åŀĭ": 6389,
      "éĽĨåĲĪ": 6390,
      "ãģĮãĤĭ": 6391,
      "æĮĩæĳĺ": 6392,
      "èģ·åĵ¡": 6393,
      "ick": 6394,
      "ãģ«ãģªãĤĭãģ¨": 6395,
      "ãģªãģ£ãģ¦ãģĦãĤĭ": 6396,
      "å½¼å¥³ãģ¯": 6397,
      "æŁı": 6398,
      "ĠMusic": 6399,
      "1958": 6400,
      "åįģåŃĹ": 6401,
      "ãĤ¨ãĤ¯": 6402,
      "éĢ²åŃ¦": 6403,
      "ãĥĹãĥ¼ãĥ«": 6404,
      "éķ·å®ĺ": 6405,
      "æ¯Ķãģ¹": 6406,
      "æ±ŁæĪ¸æĻĤä»£": 6407,
      "ãģĹãģŁãģ¨": 6408,
      "æİ¥ç¶ļ": 6409,
      "æĿ±éĥ¨": 6410,
      "nivers": 6411,
      "ãĥ«ãĥķ": 6412,
      "AND": 6413,
      "éĢĲ": 6414,
      "ä¹ĭåĬ©": 6415,
      "ãĤªãĥ³ãĥ©ãĤ¤ãĥ³": 6416,
      "ãĥ¨ãĤ¿": 6417,
      "USIC": 6418,
      "Ã¼": 6419,
      "ãģ«ç§»è»¢": 6420,
      "1930": 6421,
      "æĮ¯ãĤĬ": 6422,
      "EP": 6423,
      "åħ¬å¼ıæĪ¦": 6424,
      "å®ĪåĤĻ": 6425,
      "è¦Ĩ": 6426,
      "æĹ¥æľ¬ãģ§ãģ¯": 6427,
      "æĮ¿": 6428,
      "åıįä¹±": 6429,
      "74": 6430,
      "ãĥįãĤ¿": 6431,
      "ä¸Ĭè¨ĺ": 6432,
      "ach": 6433,
      "æ±ºå®ļæĪ¦": 6434,
      "ãĥĨãĤ£ãĥĥãĤ¯": 6435,
      "ä½¿ãģĦ": 6436,
      "ãģ¨åĲĮæĻĤãģ«": 6437,
      "æ»ĳ": 6438,
      "æĿ±æĺł": 6439,
      "KE": 6440,
      "æ«": 6441,
      "ãĤĴä¸ĭ": 6442,
      "ĠãĤ»": 6443,
      "çŁ¥èŃĺ": 6444,
      "ç«¶èµ°": 6445,
      "ãĥªãĥ³ãĤ¯": 6446,
      "ãĤ¹ãĥŀãĥ¼ãĥĪ": 6447,
      "æŁ±": 6448,
      "ãĤĴçł´": 6449,
      "å¤§åŃ¦ãģ®": 6450,
      "éĺ»": 6451,
      "éĺªç¥ŀ": 6452,
      "ãģ®æĪĲç¸¾": 6453,
      "æħ®": 6454,
      "ART": 6455,
      "ãĥ¢ãĤ¹ãĤ¯": 6456,
      "ãģ®æĶ»æĴĥ": 6457,
      "ãĤĴç¤ºãģĻ": 6458,
      "ãĥĬãĥ³": 6459,
      "ite": 6460,
      "å¹¾": 6461,
      "ãģĮæĭħå½ĵ": 6462,
      "æĹ¥æĽľ": 6463,
      "æ¶¼": 6464,
      "ĠåĪĿ": 6465,
      "ç«ĭåĢĻè£ľ": 6466,
      "å¤ĸäº¤": 6467,
      "åºĥåĳĬ": 6468,
      "71": 6469,
      "èĢĥãģĪãĤĭ": 6470,
      "æĹ¢ãģ«": 6471,
      "æľīéĻĲ": 6472,
      "ç¯ł": 6473,
      "è°·å·Ŀ": 6474,
      "åĲ¹ãģį": 6475,
      "ĠãĤĴ": 6476,
      "æĶ¯åºĹ": 6477,
      "ãĥªãĥ¼ãģ¯": 6478,
      "ãĥ¼ãĥĭãĥ£": 6479,
      "çı¾å®Ł": 6480,
      "ç¬¬äºĮæ¬¡ä¸ĸçķĮå¤§æĪ¦": 6481,
      "å§īå¦¹": 6482,
      "åĪ¶å®ļ": 6483,
      "1940": 6484,
      "ãĤ¹ãĥĨãĤ£ãĥĲãĥ«": 6485,
      "ãģ®åŁ·": 6486,
      "èĺŃ": 6487,
      "èĤ²æĪĲ": 6488,
      "åģľè»Ĭ": 6489,
      "ĠæŃ£": 6490,
      "Ġå²©": 6491,
      "èĢ³": 6492,
      "ãĤ·ãĥ¼ãĤºãĥ³ãģ¯": 6493,
      "ãĥ¼ãĥķãĤ¡": 6494,
      "äº¬éĥ½åºľ": 6495,
      "ä¸īéĩį": 6496,
      "ç·ıéģ¸æĮĻ": 6497,
      "çĭ¼": 6498,
      "ãĥŀãĤ¤ãĤ±ãĥ«": 6499,
      "ram": 6500,
      "ãģĵãģ¨ãģ«ãģªãĤĭ": 6501,
      "ãĥ¢ãĥª": 6502,
      "orld": 6503,
      "å§Ķåĵ¡éķ·": 6504,
      "ï¼īâĢ»": 6505,
      "96": 6506,
      "ãĥīãĥ¼ãĥł": 6507,
      "å§ĭãĤģãģŁ": 6508,
      "ãĥ¼ãĥ©ãĥ¼": 6509,
      "ãģ®ãĥŃ": 6510,
      "ãĥ¤ãĥ³": 6511,
      "åµĲ": 6512,
      "éĤ¸": 6513,
      "1957": 6514,
      "åĪĨé¡ŀ": 6515,
      "ãģ®éĥ¨": 6516,
      "è¿·": 6517,
      "ãĤĴæĦŁ": 6518,
      "äº«": 6519,
      "ãĥªãĥ¼ãĤ¬": 6520,
      "äºĶéĥİ": 6521,
      "éĹĩ": 6522,
      "ãĤĴæĶ¾éĢģ": 6523,
      "ãĥ¼ãĥĨãĤ¤": 6524,
      "è©¦ãģ¿": 6525,
      "ãģ®æĸ½": 6526,
      "é£Łåĵģ": 6527,
      "éģłå¾ģ": 6528,
      "å¤§åĪĨ": 6529,
      "å¯Ŀ": 6530,
      "çĻºè¶³": 6531,
      "æŁ´": 6532,
      "ãģĮéĢ²": 6533,
      "ãģĤãĤī": 6534,
      "int": 6535,
      "ãģ¨è¿°ãģ¹ãģ¦ãģĦãĤĭ": 6536,
      "åĭĻãĤģãģŁ": 6537,
      "ãĥ¼ãĤ¸ãĤ§": 6538,
      "éģºä¼Ŀ": 6539,
      "ãĤĴèģŀ": 6540,
      "ãģĨãģĪ": 6541,
      "1947": 6542,
      "åģ½": 6543,
      "ç¶ļãģĦãģ¦": 6544,
      "ãĢľãĢı": 6545,
      "ç¶Ļç¶ļ": 6546,
      "æĶ¿æ²»å®¶": 6547,
      "ãĤªãĥ¼ãĥĩãĤ£ãĤ·ãĥ§ãĥ³": 6548,
      "æĹ¥æľ¬äºº": 6549,
      "çī©ãĤĴ": 6550,
      "ãĤ³ãĥ³ãĤ»": 6551,
      "ãĤ³ãĥ¬ãĤ¯ãĤ·ãĥ§ãĥ³": 6552,
      "Ġæ£®": 6553,
      "éĬĺ": 6554,
      "èĥĮçķªåı·": 6555,
      "åĪ¥ãģ®": 6556,
      "ä½ĵèĤ²é¤¨": 6557,
      "ãĥĪãĥ©ãĤ¤": 6558,
      "ç¶ļãģĳãĤĭ": 6559,
      "ãģ¨åĲĮæ§ĺãģ«": 6560,
      "ãĥ³ãĥĸãĥ«": 6561,
      "æİ¨éĢ²": 6562,
      "çĬ¯ç½ª": 6563,
      "ãģ¨ãģįãģ«": 6564,
      "ãĤĦãģĮ": 6565,
      "ãģ®æĮģ": 6566,
      "ãģĮãĤĬ": 6567,
      "ãģ®æĬķ": 6568,
      "ãĤĴæĮĻãģĴ": 6569,
      "è¿°ãģ®": 6570,
      "ãĤĴæĵ": 6571,
      "å¤ªçĶ°": 6572,
      "ãĥīãĥ©ãĤ´": 6573,
      "åĬ©æķĻæİĪ": 6574,
      "éĢĥãģĴ": 6575,
      "ãĥĸãĥ©ãĤ¤": 6576,
      "ãĥĪãĥ¼ãĥĬãĥ¡ãĥ³ãĥĪ": 6577,
      "ãĥ¤ãĥ³ãĤ°": 6578,
      "ãĥ³ãĥģãĤ§": 6579,
      "ãĤŃãĥ¥ãĤ¢": 6580,
      "ãĥ¼ãĥ¬ãĥ³": 6581,
      "Ġ23": 6582,
      "ãģĮæ®ĭ": 6583,
      "Ġ2001": 6584,
      "bo": 6585,
      "Ġå®ī": 6586,
      "æľŁå¾ħ": 6587,
      "æĸ°åŀĭ": 6588,
      "ãĤ³ãĥŁãĥ¥ãĥĭãĥĨãĤ£": 6589,
      "ãĤ¸ãĥ£ãĥ¼ãĥĬ": 6590,
      "GO": 6591,
      "ãģ®æ°ĳ": 6592,
      "Ġ22": 6593,
      "ãģĦãĤį": 6594,
      "95": 6595,
      "ãĤ«ãĥĥãĥĪ": 6596,
      "é§ħãģĭãĤī": 6597,
      "ãĤ¤ãĥ³ãĥķ": 6598,
      "éģĩ": 6599,
      "çĲĨäºĭéķ·": 6600,
      "ãģĦãģį": 6601,
      "ãģ³ãģ«": 6602,
      "ãģ«éģ¸åĩº": 6603,
      "ãģłãĤįãģĨ": 6604,
      "ãĤ¢ãĤ¤ãĥĨãĥł": 6605,
      "ãģ®ãģ§ãģĤãĤĭ": 6606,
      "ãĥ¬ãĥ³ãĤ¿ãĥ«": 6607,
      "ãģ¾ãĤĮãģŁ": 6608,
      "äº¤å·®": 6609,
      "ĠQ": 6610,
      "ãĥªãĥ¥ãĥ¼": 6611,
      "åŃĲãģ«": 6612,
      "è¬İ": 6613,
      "åľĭ": 6614,
      "çľĮãģ®": 6615,
      "ãģªãģıãģªãģ£ãģŁ": 6616,
      "ãĤĴæİ¡çĶ¨": 6617,
      "ç·ļãģ®": 6618,
      "èĸ¦": 6619,
      "æ³¨çĽ®": 6620,
      "Am": 6621,
      "ãĤµãĤ¹": 6622,
      "æĪĴ": 6623,
      "ãĥĭãĥĥãĥĿãĥ³": 6624,
      "ãĤ¹ãĥ«": 6625,
      "å¯§": 6626,
      "åĬĽãģ¯": 6627,
      "1955": 6628,
      "Ġå¹³": 6629,
      "å°ĳãģĹ": 6630,
      "ãģĮçĻºè¶³": 6631,
      "éĩĳèŀį": 6632,
      "æ¡Ĳ": 6633,
      "ream": 6634,
      "Ġãĥ«": 6635,
      "ç´Ľ": 6636,
      "ä¹¾": 6637,
      "çī©çĲĨ": 6638,
      "æĿĳãģĮ": 6639,
      "ical": 6640,
      "ãĤ¢ãĤ¤ãĤ¹": 6641,
      "èĪĪåĳ³": 6642,
      "æĹĭ": 6643,
      "ãĤŃãĥ©": 6644,
      "çıŃ": 6645,
      "ãĤĴç½®ãģı": 6646,
      "ĠãĥĢ": 6647,
      "å´ĩ": 6648,
      "ãĤ¦ãĤ§ãĥ«": 6649,
      "98": 6650,
      "æĽ½": 6651,
      "ãģ®å¥ĳç´Ħ": 6652,
      "ãģ®çĶŁ": 6653,
      "ĠRe": 6654,
      "ãģĹãģ°ãģĹãģ°": 6655,
      "Ġãģ§": 6656,
      "ãģ«çĻ»åł´ãģĻãĤĭ": 6657,
      "ãĥĥãĤ¿ãĥ¼": 6658,
      "è¡ĮãģĨ": 6659,
      "ãĤ¤ãĥ¬": 6660,
      "æ®µéļİ": 6661,
      "ãĤµãĥĸ": 6662,
      "ãĤĴå¾ĹãĤĭ": 6663,
      "çļĨ": 6664,
      "ãģĻãģ¹ãģį": 6665,
      "è¬¡": 6666,
      "ãĥ¯ãĥ«": 6667,
      "ãĥĨãĥŃ": 6668,
      "æĪ¦å¾Į": 6669,
      "ä¸īæĮ¯": 6670,
      "æ®ºå®³": 6671,
      "åľ°ä¸ĭéīĦ": 6672,
      "ãģ¨åĲį": 6673,
      "ãĥķãĥĥãĥĪ": 6674,
      "ãĥģãĥ£ãĥ¬ãĥ³ãĤ¸": 6675,
      "Ġå²¡": 6676,
      "ãĤĦãģ£ãģ¦": 6677,
      "ĠåĪ¶ä½ľ": 6678,
      "Ġãģĭ": 6679,
      "ãģŁãģı": 6680,
      "ãģ¯ç´Ħ": 6681,
      "ãģ®æļ": 6682,
      "åĲĪãģĨ": 6683,
      "å®¶ãģ«": 6684,
      "ment": 6685,
      "ãĥīãĥ³": 6686,
      "å¯ºéĻ¢": 6687,
      "ä¾¡æł¼": 6688,
      "çĶ¨ãģĦãĤīãĤĮãĤĭ": 6689,
      "ãĤĴéĩį": 6690,
      "ãģ§æ´»åĭķ": 6691,
      "åŃ¦è¡ĵ": 6692,
      "ä»£çĲĨ": 6693,
      "èŃ°éķ·": 6694,
      "Ġå·Ŀ": 6695,
      "ãģªãĤı": 6696,
      "çĶ·çĪµ": 6697,
      "èªįèŃĺ": 6698,
      "çķ°ãģªãĤĬ": 6699,
      "ãģĿãģ®ä»ĸãģ®": 6700,
      "ãģĮéĸĭå§ĭ": 6701,
      "ãģĪãĤīãĤĮ": 6702,
      "å¿ľæı´": 6703,
      "éĽĨèĲ½": 6704,
      "çµ±æ²»": 6705,
      "ãģ¤ãģı": 6706,
      "ãĤĴä¿Ŀ": 6707,
      "å°ıãģķãģª": 6708,
      "å®Łãģ¯": 6709,
      "ãģ«çĶ±æĿ¥": 6710,
      "çĶĺ": 6711,
      "ork": 6712,
      "è»Įéģĵ": 6713,
      "Ġãĥĩ": 6714,
      "Ġä»Ĭ": 6715,
      "ãĥ¬ãĥ¼ãĥĪ": 6716,
      "æĢ§ãģ®": 6717,
      "ition": 6718,
      "ãģĮãģ£": 6719,
      "ãĤ¨ãĥł": 6720,
      "æĩī": 6721,
      "ĠĠĠĠĠĠĠĠ": 6722,
      "Sh": 6723,
      "åģ´ãģ®": 6724,
      "æĽ´ãģ«": 6725,
      "92": 6726,
      "ãĤĤãģ®ãģ¯": 6727,
      "åĳ½åĲį": 6728,
      "ĠåŃĹ": 6729,
      "Ġãģ²": 6730,
      "åĲĪåĲĮ": 6731,
      "ãģ«åħ¥åŃ¦": 6732,
      "ãģķãĤĮãĤĭãģ¨": 6733,
      "AGE": 6734,
      "åĦŁ": 6735,
      "åĮĹéĥ¨": 6736,
      "èĤ²ãģ¦": 6737,
      "ãĤ¹ãĤ±ãĥ¼ãĥĪ": 6738,
      "ãĤ·ãĤª": 6739,
      "ãģ®ãĤĴ": 6740,
      "ãĥĲãĤ¹ãĤ±ãĥĥãĥĪãĥľãĥ¼ãĥ«": 6741,
      "çº": 6742,
      "ãĥ³ãĥĽ": 6743,
      "ãĥ¼ãĤ¸ãĥ¥": 6744,
      "ãģ¨ãģĹãģ¦ãģĦãģŁ": 6745,
      "ãĥıãĥ³ãĤ¬ãĥªãĥ¼": 6746,
      "OV": 6747,
      "pe": 6748,
      "å¬": 6749,
      "ãģ«çĿĢ": 6750,
      "ãģĹãģŁãģĵãģ¨ãģ§": 6751,
      "å¤§åŃ¦ãģ§": 6752,
      "ãĥŀãĤ¸": 6753,
      "ãĥīãĥ«ãĥķ": 6754,
      "WE": 6755,
      "ãĥ©ãĤ¤ãĥķ": 6756,
      "æķĹéĢĢ": 6757,
      "éĻ³": 6758,
      "ãĥĳãĥķãĤ©ãĥ¼ãĥŀãĥ³ãĤ¹": 6759,
      "å½¼ãĤī": 6760,
      "åĲĪä½µãģĹ": 6761,
      "åĩ½": 6762,
      "RI": 6763,
      "ãģ®ãĥı": 6764,
      "ern": 6765,
      "ãģ«éģ¸åĩºãģķãĤĮãģŁ": 6766,
      "ĠTOUR": 6767,
      "ĠBl": 6768,
      "ãģ¡ãĤī": 6769,
      "ãĥĳãĥ¼ãĥĨãĤ£": 6770,
      "ç¶ļãģĳãģŁ": 6771,
      "ãĥĪãĥł": 6772,
      "æĿ±æĹ¥æľ¬": 6773,
      "åĮĸãģķãĤĮãģŁ": 6774,
      "ãĥ¼ãĥĨãĤ£ãĥ³ãĤ°": 6775,
      "çŀ¬": 6776,
      "ç¦Ħ": 6777,
      "ãĥīãĥ©ãĥķãĥĪ": 6778,
      "Ġãĥĵ": 6779,
      "ãģ¯ãģĿãģ®": 6780,
      "å¤īèº«": 6781,
      "ãĥĴãĥ¥": 6782,
      "1920": 6783,
      "ãģļãģ¤": 6784,
      "ãĥķãĤ¡ãĥŁ": 6785,
      "ãģ«èĩ³ãĤĭ": 6786,
      "ãĥĻãĥ«ãĤ¯": 6787,
      "ãģ®å»ºè¨Ń": 6788,
      "ãģĦãģĭ": 6789,
      "åıĤçħ§": 6790,
      "åĪ¤æ±º": 6791,
      "ãģĵãģ¨ãģ¨ãģªãģ£ãģŁ": 6792,
      "ãĤĴãģĹãģ¦ãģĦãģŁ": 6793,
      "ãģĮçĦ¡": 6794,
      "æĦıèŃĺ": 6795,
      "ä¾¡åĢ¤": 6796,
      "åĲĪæĪĲ": 6797,
      "ĠãĤ¬": 6798,
      "ãģ«ç½®": 6799,
      "ä½ıå±ħ": 6800,
      "BE": 6801,
      "è¡Įãģ£ãģŁ": 6802,
      "çĶ»åĥı": 6803,
      "ãģŃãĤĵ": 6804,
      "åŃ¤": 6805,
      "èĩĵ": 6806,
      "æĸĩåŃ¦éĥ¨": 6807,
      "åŁ·æĶ¿å®ĺ": 6808,
      "èªķçĶŁæĹ¥": 6809,
      "ĠĊĠĊ": 6810,
      "ãĥ³ãĤ¹ãĤ¿": 6811,
      "æīĵçĤ¹": 6812,
      "çĲ´": 6813,
      "æħķ": 6814,
      "ãĥ³ãĥŀãĥ¼ãĤ¯": 6815,
      "ãĥĹãĥªãĥ³": 6816,
      "åĨįçĶŁ": 6817,
      "åĮħåĽ²": 6818,
      "åĽ°éĽ£": 6819,
      "Ġç¾İ": 6820,
      "ãĤĴçµĤ": 6821,
      "æŃĮè©ŀ": 6822,
      "ERS": 6823,
      "67": 6824,
      "èĺĩ": 6825,
      "kgç´ļ": 6826,
      "ãģ¿ãģ®": 6827,
      "ãĥĩãĤ£ãĤª": 6828,
      "ãģ«åŁºãģ¥ãģı": 6829,
      "ãĥ¡ãĥ³ãĤ¿": 6830,
      "ãĤ´ãĥ¼": 6831,
      "è¦³å®¢": 6832,
      "Ġ1999": 6833,
      "ãģ®ä¸¡": 6834,
      "åĮł": 6835,
      "åĭĿãģ¡ãĤĴåıİ": 6836,
      "èİī": 6837,
      "åħ±çĶ£": 6838,
      "ãĥ¼ãĥ«ãģ¯": 6839,
      "éģİãģİ": 6840,
      "ãģ¯ãĤĭ": 6841,
      "ãģŁãģ¡ãģ«": 6842,
      "åĬ©ãģĳ": 6843,
      "æĭłçĤ¹": 6844,
      "ãģªæĢ§æł¼": 6845,
      "ç¤¾åĵ¡": 6846,
      "éŃħ": 6847,
      "1941": 6848,
      "witter": 6849,
      "PS": 6850,
      "ãĤµãĥ³ãĤ¼ãĥ«ãĤ¹": 6851,
      "ç·ĬæĢ¥": 6852,
      "Ġre": 6853,
      "ann": 6854,
      "ãĥ¼ãĥŀãĥ¼": 6855,
      "åįĥä»£": 6856,
      "ãĥ¢ãĥ¼ãĤ·ãĥ§ãĥ³": 6857,
      "ç¾©å¡¾": 6858,
      "ä¸Ī": 6859,
      "ãģĦãģĨ": 6860,
      "ãĢįï¼ī": 6861,
      "èĭ±åĽ½": 6862,
      "åĲĪæĦı": 6863,
      "çī©è³ª": 6864,
      "å¾ĹæĦı": 6865,
      "ãģ®åĩºåł´": 6866,
      "ãģĮå¤ļãģĦ": 6867,
      "ãĤ¯ãĥªãĤ¢": 6868,
      "ãģ§ãģ«": 6869,
      "åľ°å¸¯": 6870,
      "åħ¥åŃ¦": 6871,
      "ãĤ¤ãĤ®ãĥªãĤ¹ãģ®": 6872,
      "ãģ®æ¬¡": 6873,
      "ãĥĳãĤ¹": 6874,
      "ãģªãģĭãģ£ãģŁãģĮ": 6875,
      "äºĶä½į": 6876,
      "å¹´ä»¥éĻį": 6877,
      "æ´Ĺ": 6878,
      "æ»ŀ": 6879,
      "èª¿æķ´": 6880,
      "æľĢåĪĿãģ«": 6881,
      "che": 6882,
      "¨ãģ¦": 6883,
      "æĢĸ": 6884,
      "ãĥ¯ãĤ·": 6885,
      "ãģ«åħ¥ãģ£ãģŁ": 6886,
      "ãĥŁãĥ¥ãĥ¼ãĤ¸ãĤ·ãĥ£ãĥ³": 6887,
      "ä»¥å¤ĸãģ®": 6888,
      "ãĤ³ãĥ³ãĤ»ãĥĹãĥĪ": 6889,
      "æĽ¹": 6890,
      "ä½ľçĶ»": 6891,
      "å¦ĸ": 6892,
      "çĶ°å¸Ĥ": 6893,
      "ãĤĴéĻ¤ãģı": 6894,
      "ãģ®ä¸Ńãģ«": 6895,
      "97": 6896,
      "ãģ®æ´": 6897,
      "å®®å´İ": 6898,
      "ãĤ¿ãĤ¯": 6899,
      "éĢ£éļĬ": 6900,
      "ãĤ¦ãĤ£ãĥ³": 6901,
      "éħįçµ¦": 6902,
      "æĴ¤éĢĢ": 6903,
      "gcolor": 6904,
      "ãģ®åįĶ": 6905,
      "åħĥãĢħ": 6906,
      "å¼¦": 6907,
      "ä¸įåĭķ": 6908,
      "ï½¢": 6909,
      "TA": 6910,
      "ãĤ¹ãĤ¤ãĤ¹": 6911,
      "éĸĭæł¡": 6912,
      "å¤§åŀĭ": 6913,
      "åı·ãģ¯": 6914,
      "ãĥ¦ãĥĢ": 6915,
      "ãģ¸åĲĳ": 6916,
      "ãĤĴæ±ºå®ļ": 6917,
      "ãĥ¡ãĤ¸ãĥ£ãĥ¼": 6918,
      "èªŀãģ§": 6919,
      "ç·ļãģĮ": 6920,
      "å½¼ãĤīãģ¯": 6921,
      "ãĤ¨ãĥ©": 6922,
      "è¨¼åĪ¸": 6923,
      "ä¼¯çĪµ": 6924,
      "Ġãĥľ": 6925,
      "æĹ¥æ·±å¤ľ": 6926,
      "èĤ¥": 6927,
      "æĤ©": 6928,
      "èª²éķ·": 6929,
      "è¹": 6930,
      "æĮĻãģĴ": 6931,
      "ãģ«å½ĵãģŁ": 6932,
      "ãģ§ãģĤãĤĭãģĵãģ¨ãĤĴ": 6933,
      "ward": 6934,
      "ãģĮçĻºè¡¨ãģķãĤĮãģŁ": 6935,
      "ãĤĴå§ĭãĤģãĤĭ": 6936,
      "æ»ĭ": 6937,
      "ãĥªãĥªãĥ¼ãĤ¹ãģķãĤĮãģŁ": 6938,
      "ãģ¯ä¸įæĺİ": 6939,
      "ãģĻãĤĭãģĵãģ¨ãģ¯": 6940,
      "æ¯İæĹ¥": 6941,
      "ãĤģãģ¦ãģĦãģŁ": 6942,
      "ãĤĴãģĹãģ¦": 6943,
      "ãģ®å¾©": 6944,
      "ãģĭãģªãĤĬ": 6945,
      "äººé¡ŀ": 6946,
      "ä¸Ńéĩİ": 6947,
      "ãģ§éĸĭåĤ¬": 6948,
      "åĮĹäº¬": 6949,
      "å¼ĵ": 6950,
      "çī©ãģ®": 6951,
      "ãĥĶãĥ¥": 6952,
      "ãģĻãģĲãģ«": 6953,
      "è©±ãģ§": 6954,
      "åı¤ãģĦ": 6955,
      "éĻ¸ä¸Ĭç«¶æĬĢ": 6956,
      "ãĥ¡ãĤ¤ãĥĪ": 6957,
      "åĴĮæŃĮ": 6958,
      "ãģ¨ãģªãģ£ãģ¦ãģĬãĤĬ": 6959,
      "ãĥ¡ãĥĥãĤ»ãĥ¼ãĤ¸": 6960,
      "ç¿Įå¹´": 6961,
      "æĸ¹ãģ®": 6962,
      "æ®ĸ": 6963,
      "ãģ®æĮĩå°İ": 6964,
      "ç¥ŀçµĮ": 6965,
      "è»įãĤĴ": 6966,
      "è§£æĶ¾": 6967,
      "èĩªè»¢": 6968,
      "ä¾į": 6969,
      "ĠSH": 6970,
      "ĠæĦĽ": 6971,
      "łçĤ¹": 6972,
      "æľŁçĶŁ": 6973,
      "ãĤ¹ãĤŃãĥ«": 6974,
      "ä¸ĬãģĴãĤĭ": 6975,
      "ãģ®æ°Ĺ": 6976,
      "éģ©çĶ¨": 6977,
      "ãĥ¢ãĥ³ãĤ¹ãĤ¿ãĥ¼": 6978,
      "ãĥĶãĥ¼": 6979,
      "LA": 6980,
      "ãĤ³ãĥķ": 6981,
      "éļı": 6982,
      "èªŃå£²": 6983,
      "ĠÃĹ": 6984,
      "éķ·ãģķ": 6985,
      "å»ºè¨ŃãģķãĤĮãģŁ": 6986,
      "ãģĭãĤıãĤīãģļ": 6987,
      "æłĥæľ¨": 6988,
      "Ġé»Ĵ": 6989,
      "ĴåĲ¦": 6990,
      "æī¿èªį": 6991,
      "ãĥĥãĤ»ãĥ«": 6992,
      "Web": 6993,
      "åŁºåľ°": 6994,
      "ãģĿãĤĮãģĮ": 6995,
      "ãģ®è·¯": 6996,
      "ĠãĥĽ": 6997,
      "ãģĮä½¿çĶ¨": 6998,
      "ãĤ¢ãĤ¯ãĤ·ãĥ§ãĥ³": 6999
    },
    "merges": [
      [
        "ã",
        "ģ"
      ],
      [
        "ã",
        "ĥ"
      ],
      [
        "ã",
        "Ĥ"
      ],
      [
        "ã",
        "Ģ"
      ],
      [
        "ãģ",
        "®"
      ],
      [
        "ãĢ",
        "ģ"
      ],
      [
        "ãĥ",
        "¼"
      ],
      [
        "ï",
        "¼"
      ],
      [
        "ãģ",
        "«"
      ],
      [
        "ãĢ",
        "Ĥ"
      ],
      [
        "ãģ",
        "Ł"
      ],
      [
        "ãĥ",
        "³"
      ],
      [
        "ãĤ",
        "ĭ"
      ],
      [
        "ãģ",
        "¯"
      ],
      [
        "ãĤ",
        "Ĵ"
      ],
      [
        "ãģ",
        "¨"
      ],
      [
        "å",
        "¹"
      ],
      [
        "ãģ",
        "Ĺ"
      ],
      [
        "æ",
        "ľ"
      ],
      [
        "å¹",
        "´"
      ],
      [
        "ãģ",
        "§"
      ],
      [
        "ãģ",
        "¦"
      ],
      [
        "ä",
        "¸"
      ],
      [
        "ãģ",
        "Ħ"
      ],
      [
        "ãģ",
        "Į"
      ],
      [
        "ãĤ",
        "¹"
      ],
      [
        "ãĥ",
        "«"
      ],
      [
        "ï¼",
        "Ī"
      ],
      [
        "ï¼",
        "ī"
      ],
      [
        "ãĤ",
        "Į"
      ],
      [
        "ãĥ",
        "»"
      ],
      [
        "æ",
        "Ĺ"
      ],
      [
        "ãģ",
        "ª"
      ],
      [
        "ä",
        "º"
      ],
      [
        "ãĥ¼",
        "ãĥ"
      ],
      [
        "ç",
        "Ķ"
      ],
      [
        "ãĤ",
        "¤"
      ],
      [
        "å",
        "¤"
      ],
      [
        "æĹ",
        "¥"
      ],
      [
        "2",
        "0"
      ],
      [
        "å",
        "ħ"
      ],
      [
        "ãĥ",
        "ª"
      ],
      [
        "ãĤ",
        "¢"
      ],
      [
        "ãĥ",
        "Ī"
      ],
      [
        "ãĥ",
        "©"
      ],
      [
        "æľ",
        "Ī"
      ],
      [
        "å",
        "®"
      ],
      [
        "å",
        "ı"
      ],
      [
        "å",
        "Ĳ"
      ],
      [
        "ãģ",
        "ĭ"
      ],
      [
        "å",
        "Ń"
      ],
      [
        "ä",
        "½"
      ],
      [
        "ãĤ",
        "ī"
      ],
      [
        "ãģ",
        "£"
      ],
      [
        "ãĤ",
        "¯"
      ],
      [
        "ãĥ",
        "ĥ"
      ],
      [
        "ãģ",
        "ķ"
      ],
      [
        "ãĤ",
        "Ĭ"
      ],
      [
        "ä",
        "»"
      ],
      [
        "å",
        "Ī"
      ],
      [
        "ãģ",
        "Ĥ"
      ],
      [
        "ãģ",
        "Ļ"
      ],
      [
        "ãģĹ",
        "ãģ¦"
      ],
      [
        "å",
        "Ľ"
      ],
      [
        "ãĤ",
        "·"
      ],
      [
        "1",
        "9"
      ],
      [
        "Ġ",
        "-"
      ],
      [
        "ãģ",
        "ĵ"
      ],
      [
        "é",
        "Ģ"
      ],
      [
        "ãĥ³",
        "ãĥ"
      ],
      [
        "ãĢ",
        "Į"
      ],
      [
        "ãĢ",
        "į"
      ],
      [
        "ãĤ",
        "Ĥ"
      ],
      [
        "è",
        "¡"
      ],
      [
        "é",
        "ĸ"
      ],
      [
        "ãģ®",
        "å"
      ],
      [
        "ãģĹ",
        "ãģŁ"
      ],
      [
        "ãĤ",
        "¿"
      ],
      [
        "ãģķ",
        "ãĤĮ"
      ],
      [
        "é",
        "ģ"
      ],
      [
        "ãģ®",
        "æ"
      ],
      [
        "ãĥ",
        "¬"
      ],
      [
        "ãĤ",
        "¸"
      ],
      [
        "æ",
        "Ŀ"
      ],
      [
        "å¤",
        "§"
      ],
      [
        "ä",
        "¼"
      ],
      [
        "20",
        "1"
      ],
      [
        "æ",
        "ĸ"
      ],
      [
        "ãĥ",
        "ķ"
      ],
      [
        "ãģĻ",
        "ãĤĭ"
      ],
      [
        "è",
        "¨"
      ],
      [
        "åŃ",
        "¦"
      ],
      [
        "æ",
        "Ī"
      ],
      [
        "ãģ",
        "Ĩ"
      ],
      [
        "ãĥ",
        "Ń"
      ],
      [
        "é",
        "ĥ"
      ],
      [
        "ãģ",
        "¾"
      ],
      [
        "ãģ£",
        "ãģŁ"
      ],
      [
        "ç",
        "µ"
      ],
      [
        "ãĤ",
        "«"
      ],
      [
        "ãĤ",
        "Ī"
      ],
      [
        "å",
        "ľ"
      ],
      [
        "ãĤ",
        "£"
      ],
      [
        "äº",
        "º"
      ],
      [
        "å",
        "¸"
      ],
      [
        "ãģĦ",
        "ãĤĭ"
      ],
      [
        "å",
        "¾"
      ],
      [
        "å",
        "±"
      ],
      [
        "æ",
        "ī"
      ],
      [
        "å",
        "ĭ"
      ],
      [
        "æľ",
        "¬"
      ],
      [
        "ãĤ",
        "°"
      ],
      [
        "æ",
        "Ń"
      ],
      [
        "å",
        "½"
      ],
      [
        "ãģĤ",
        "ãĤĭ"
      ],
      [
        "ãĥ",
        "Ĩ"
      ],
      [
        "å",
        "°"
      ],
      [
        "ãģĭ",
        "ãĤī"
      ],
      [
        "ç",
        "Ľ"
      ],
      [
        "æ",
        "ĺ"
      ],
      [
        "ç",
        "Ļ"
      ],
      [
        "ãĤ",
        "ģ"
      ],
      [
        "ãģ",
        "į"
      ],
      [
        "ãģ",
        "ı"
      ],
      [
        "å",
        "ĩ"
      ],
      [
        "å",
        "į"
      ],
      [
        "å",
        "·"
      ],
      [
        "è",
        "¦"
      ],
      [
        "ãĤ",
        "ª"
      ],
      [
        "æ",
        "Ľ"
      ],
      [
        "å",
        "Į"
      ],
      [
        "å",
        "º"
      ],
      [
        "ãĢ",
        "İ"
      ],
      [
        "ãĢ",
        "ı"
      ],
      [
        "ãĥ",
        "ŀ"
      ],
      [
        "ãĤ",
        "³"
      ],
      [
        "ãĥ",
        "ī"
      ],
      [
        "è",
        "ª"
      ],
      [
        "ç",
        "ī"
      ],
      [
        "é",
        "ĩ"
      ],
      [
        "æ",
        "ķ"
      ],
      [
        "å",
        "Ĭ"
      ],
      [
        "ãĥ",
        "Ĺ"
      ],
      [
        "ãĤ",
        "¦"
      ],
      [
        "åĩ",
        "º"
      ],
      [
        "ä¼",
        "ļ"
      ],
      [
        "ä¸",
        "Ń"
      ],
      [
        "ãĥ",
        "¥"
      ],
      [
        "ä½",
        "ľ"
      ],
      [
        "å",
        "ł"
      ],
      [
        "ãĥ",
        "£"
      ],
      [
        "ãģ",
        "ĳ"
      ],
      [
        "ãĥ",
        "¡"
      ],
      [
        "ãĤ",
        "µ"
      ],
      [
        "ãĤĴ",
        "æ"
      ],
      [
        "ãĥ",
        "Ĳ"
      ],
      [
        "åĽ",
        "½"
      ],
      [
        "ãģ£",
        "ãģ¦"
      ],
      [
        "ãĥ",
        "ĩ"
      ],
      [
        "ç",
        "·"
      ],
      [
        "ãģ",
        "Ŀ"
      ],
      [
        "ãģ",
        "Ĭ"
      ],
      [
        "æ",
        "ł"
      ],
      [
        "ï¼",
        "ļ"
      ],
      [
        "ä¸",
        "Ģ"
      ],
      [
        "ãĥ",
        "ĭ"
      ],
      [
        "å",
        "¼"
      ],
      [
        "ãģĵ",
        "ãģ¨"
      ],
      [
        "é",
        "Ľ"
      ],
      [
        "ãĥ",
        "ĸ"
      ],
      [
        "ç",
        "«"
      ],
      [
        "ãĤ",
        "¨"
      ],
      [
        "ç",
        "´"
      ],
      [
        "ãĤ",
        "Ń"
      ],
      [
        "æ",
        "¥"
      ],
      [
        "é",
        "Ļ"
      ],
      [
        "æ",
        "Ļ"
      ],
      [
        "æ",
        "°"
      ],
      [
        "ç",
        "§"
      ],
      [
        "è¡",
        "Į"
      ],
      [
        "ãģ",
        "¤"
      ],
      [
        "å",
        "¯"
      ],
      [
        "æ",
        "Ķ"
      ],
      [
        "ç",
        "ķ"
      ],
      [
        "è",
        "Ģ"
      ],
      [
        "ç",
        "¤"
      ],
      [
        "éĥ",
        "¨"
      ],
      [
        "å",
        "Ĩ"
      ],
      [
        "ãĥ",
        "ł"
      ],
      [
        "ãĤ",
        "º"
      ],
      [
        "å",
        "¥"
      ],
      [
        "ç",
        "¬"
      ],
      [
        "è",
        "»"
      ],
      [
        "ãĥ",
        "ĵ"
      ],
      [
        "çĶ",
        "Ł"
      ],
      [
        "ãĥ",
        "Ĭ"
      ],
      [
        "ãģķãĤĮ",
        "ãģŁ"
      ],
      [
        "ãĤ",
        "Ħ"
      ],
      [
        "è",
        "©"
      ],
      [
        "åŃ",
        "Ĳ"
      ],
      [
        "ãĥ",
        "ģ"
      ],
      [
        "å",
        "ī"
      ],
      [
        "ãĤ",
        "ĵ"
      ],
      [
        "ãģ§",
        "ãģĤãĤĭ"
      ],
      [
        "çĻ",
        "º"
      ],
      [
        "ãģ¨",
        "ãģĹãģ¦"
      ],
      [
        "ä",
        "¿"
      ],
      [
        "ç",
        "ľ"
      ],
      [
        "ãģĦ",
        "ãģŁ"
      ],
      [
        "ç¬",
        "¬"
      ],
      [
        "å",
        "£"
      ],
      [
        "ä»",
        "£"
      ],
      [
        "ãĤ",
        "§"
      ],
      [
        "åĲ",
        "Ī"
      ],
      [
        "|",
        "|"
      ],
      [
        "ãĥ¼",
        "ãĥ«"
      ],
      [
        "ãģ",
        "Ī"
      ],
      [
        "ãĤ",
        "ı"
      ],
      [
        "Ġ",
        "Ċ"
      ],
      [
        "å¸",
        "Ĥ"
      ],
      [
        "åł",
        "´"
      ],
      [
        "ä¸",
        "Ĭ"
      ],
      [
        "ãĥ",
        "Ł"
      ],
      [
        "å",
        "ĵ"
      ],
      [
        "æĻ",
        "Ĥ"
      ],
      [
        "åľ",
        "°"
      ],
      [
        "ķ",
        "·"
      ],
      [
        "ãģ",
        "¡"
      ],
      [
        "åĲ",
        "Į"
      ],
      [
        "æ",
        "µ"
      ],
      [
        "é",
        "ķ·"
      ],
      [
        "æ",
        "²"
      ],
      [
        "éĸ",
        "ĭ"
      ],
      [
        "ãģ§",
        "ãģ¯"
      ],
      [
        "1",
        "0"
      ],
      [
        "çĶ",
        "°"
      ],
      [
        "ç¤",
        "¾"
      ],
      [
        "é",
        "ļ"
      ],
      [
        "åĲ",
        "į"
      ],
      [
        "ãĤ¹",
        "ãĥĪ"
      ],
      [
        "ãģ",
        "ł"
      ],
      [
        "ãģ",
        "©"
      ],
      [
        "ãĥĥ",
        "ãĤ¯"
      ],
      [
        "ãĥ",
        "§"
      ],
      [
        "èĢ",
        "ħ"
      ],
      [
        "æĪ",
        "¦"
      ],
      [
        "è",
        "ĩ"
      ],
      [
        "è",
        "³"
      ],
      [
        "ãģ«",
        "ãģ¯"
      ],
      [
        "ãĥª",
        "ãĥ¼"
      ],
      [
        "æĪ",
        "Ĳ"
      ],
      [
        "å",
        "¿"
      ],
      [
        "ãģ«",
        "ãĤĪ"
      ],
      [
        "äº",
        "ĭ"
      ],
      [
        "é",
        "«"
      ],
      [
        "æĿ",
        "±"
      ],
      [
        "ãĥ",
        "ĳ"
      ],
      [
        "æ",
        "¼"
      ],
      [
        "ãģ¦",
        "ãģĦãĤĭ"
      ],
      [
        "éĸ",
        "ĵ"
      ],
      [
        "å",
        "ĳ"
      ],
      [
        "ãģ¨",
        "ãģª"
      ],
      [
        "æĹ¥",
        "æľ¬"
      ],
      [
        "æ",
        "³"
      ],
      [
        "ç",
        "ļ"
      ],
      [
        "å¾",
        "Į"
      ],
      [
        "ãĥ³",
        "ãĤ°"
      ],
      [
        "ç",
        "¥"
      ],
      [
        "å±",
        "±"
      ],
      [
        "é«",
        "ĺ"
      ],
      [
        "æ¥",
        "Ń"
      ],
      [
        "ç«",
        "ĭ"
      ],
      [
        "æī",
        "ĭ"
      ],
      [
        "åĪ",
        "Ĩ"
      ],
      [
        "å",
        "Ł"
      ],
      [
        "20",
        "0"
      ],
      [
        "ãģ",
        "¿"
      ],
      [
        "çĶ",
        "¨"
      ],
      [
        "æ",
        "Ģ"
      ],
      [
        "ç",
        "¾"
      ],
      [
        "Ġ",
        "("
      ],
      [
        "æ",
        "´"
      ],
      [
        "å®",
        "ļ"
      ],
      [
        "ãģ®",
        "è"
      ],
      [
        "æ",
        "¸"
      ],
      [
        "ãĤ",
        "»"
      ],
      [
        "ãĤ¿",
        "ãĥ¼"
      ],
      [
        "ç",
        "Ł"
      ],
      [
        "ãĤī",
        "ãĤĮ"
      ],
      [
        "é",
        "Ŀ"
      ],
      [
        "ç",
        "Ĳ"
      ],
      [
        "ãĥ¼ãĥ",
        "Ī"
      ],
      [
        "æī",
        "Ģ"
      ],
      [
        "æł",
        "¡"
      ],
      [
        "éģ",
        "¸"
      ],
      [
        "åħ",
        "¥"
      ],
      [
        "ãĥĥ",
        "ãĥĪ"
      ],
      [
        "è",
        "Ī"
      ],
      [
        "ç",
        "©"
      ],
      [
        "ä",
        "¹"
      ],
      [
        "ãĥ",
        "Ģ"
      ],
      [
        "é",
        "ł"
      ],
      [
        "æ¼",
        "Ķ"
      ],
      [
        "è",
        "Ń"
      ],
      [
        "ãĥ",
        "Ļ"
      ],
      [
        "è¡",
        "¨"
      ],
      [
        "ãĥ",
        "ı"
      ],
      [
        "çļ",
        "Ħ"
      ],
      [
        "è",
        "£"
      ],
      [
        "åĽ",
        "ŀ"
      ],
      [
        "e",
        "r"
      ],
      [
        "ãĤ",
        "¬"
      ],
      [
        "èĩ",
        "ª"
      ],
      [
        "å®",
        "¶"
      ],
      [
        "ãģª",
        "ãģĦ"
      ],
      [
        "åħ",
        "¬"
      ],
      [
        "åĭ",
        "ķ"
      ],
      [
        "æĸ",
        "°"
      ],
      [
        "ãĥ³ãĥ",
        "ī"
      ],
      [
        "è",
        "²"
      ],
      [
        "å",
        "Ĵ"
      ],
      [
        "1",
        "2"
      ],
      [
        "çĽ",
        "®"
      ],
      [
        "çī",
        "©"
      ],
      [
        "åī",
        "į"
      ],
      [
        "æĽ",
        "²"
      ],
      [
        "ç",
        "İ"
      ],
      [
        "åĪ",
        "Ŀ"
      ],
      [
        "ä¸",
        "»"
      ],
      [
        "å°",
        "ı"
      ],
      [
        "a",
        "n"
      ],
      [
        "æ",
        "Į"
      ],
      [
        "ç",
        "ı"
      ],
      [
        "è",
        "¿"
      ],
      [
        "å",
        "İ"
      ],
      [
        "ãĥ©",
        "ãĤ¤"
      ],
      [
        "éģ",
        "ĵ"
      ],
      [
        "çĶ",
        "»"
      ],
      [
        "ãĥ",
        "¢"
      ],
      [
        "å·",
        "Ŀ"
      ],
      [
        "æ",
        "Ĭ"
      ],
      [
        "æ",
        "¨"
      ],
      [
        "ãĤ",
        "½"
      ],
      [
        "ãĥ³",
        "ãĥĪ"
      ],
      [
        "å",
        "§"
      ],
      [
        "1",
        "8"
      ],
      [
        "åĴ",
        "Į"
      ],
      [
        "ä¸",
        "ĸ"
      ],
      [
        "ãģ",
        "Ľ"
      ],
      [
        "éĢ",
        "ļ"
      ],
      [
        "ä¸",
        "ĭ"
      ],
      [
        "è¨",
        "Ń"
      ],
      [
        "çľ",
        "Į"
      ],
      [
        "ãĤ",
        "¡"
      ],
      [
        "Ġ",
        "19"
      ],
      [
        "æ",
        "İ"
      ],
      [
        "ãģ",
        "ĺ"
      ],
      [
        "æ",
        "©"
      ],
      [
        "æ",
        "±"
      ],
      [
        "ãģŁ",
        "ãĤģ"
      ],
      [
        "1",
        "1"
      ],
      [
        "çı",
        "¾"
      ],
      [
        "åħ",
        "¨"
      ],
      [
        "ãģĹãģ¦",
        "ãģĦãĤĭ"
      ],
      [
        "åĨ",
        "ħ"
      ],
      [
        "ä½",
        "į"
      ],
      [
        "ãĥ",
        "´"
      ],
      [
        "ãĥ",
        "Ŀ"
      ],
      [
        "ãĥ",
        "į"
      ],
      [
        "ä½",
        "ĵ"
      ],
      [
        "ä",
        "¾"
      ],
      [
        "ãĥ¼ãĥ",
        "ł"
      ],
      [
        "ãĢ",
        "Ģ"
      ],
      [
        "ãģª",
        "ãģ©"
      ],
      [
        "æľ",
        "Ģ"
      ],
      [
        "ç",
        "¶"
      ],
      [
        "æĺ",
        "İ"
      ],
      [
        "ãĥ",
        "¯"
      ],
      [
        "éĩ",
        "İ"
      ],
      [
        "ãĤ·",
        "ãĥ§"
      ],
      [
        "i",
        "n"
      ],
      [
        "å¤§",
        "åŃ¦"
      ],
      [
        "ãĥ¼ãĥ",
        "ī"
      ],
      [
        "ãĤ",
        "±"
      ],
      [
        "ãģ",
        "¸"
      ],
      [
        "é",
        "¡"
      ],
      [
        "ãĥ",
        "İ"
      ],
      [
        "é",
        "Ł"
      ],
      [
        "æĸ",
        "ĩ"
      ],
      [
        "è¨",
        "ĺ"
      ],
      [
        "æ",
        "Ħ"
      ],
      [
        "å",
        "³"
      ],
      [
        "ãĥ¥",
        "ãĥ¼"
      ],
      [
        "å¹",
        "³"
      ],
      [
        "çĶ",
        "º"
      ],
      [
        "å½",
        "ĵ"
      ],
      [
        "å",
        "Ĥ"
      ],
      [
        "ãĥ",
        "ľ"
      ],
      [
        "åĮ",
        "ĸ"
      ],
      [
        "è",
        "º"
      ],
      [
        "éĸ",
        "¢"
      ],
      [
        "ãģĦ",
        "ãģ¦"
      ],
      [
        "äº",
        "¬"
      ],
      [
        "o",
        "n"
      ],
      [
        "ãĥĨ",
        "ãĤ£"
      ],
      [
        "ãģ",
        "°"
      ],
      [
        "çĲ",
        "Ĩ"
      ],
      [
        "ç",
        "Ń"
      ],
      [
        "ç",
        "ł"
      ],
      [
        "æ",
        "ŀ"
      ],
      [
        "ãģ«",
        "ãģª"
      ],
      [
        "å¥",
        "³"
      ],
      [
        "ãģ¨",
        "ãģĦ"
      ],
      [
        "åħ",
        "ĥ"
      ],
      [
        "æķ",
        "Ļ"
      ],
      [
        "ãĤĪ",
        "ãģĨ"
      ],
      [
        "å",
        "²"
      ],
      [
        "åĭ",
        "Ŀ"
      ],
      [
        "ä»",
        "¥"
      ],
      [
        "æĽ",
        "¸"
      ],
      [
        "æĿ",
        "ĳ"
      ],
      [
        "ãģ§",
        "ãģĤ"
      ],
      [
        "ç",
        "¨"
      ],
      [
        "è¦",
        "ĭ"
      ],
      [
        "å¯",
        "¾"
      ],
      [
        "Ġ",
        "S"
      ],
      [
        "åĵ",
        "¡"
      ],
      [
        "0",
        "0"
      ],
      [
        "åľ",
        "¨"
      ],
      [
        "ãģ",
        "³"
      ],
      [
        "ç",
        "Ĥ"
      ],
      [
        "å¹´",
        "ãģ«"
      ],
      [
        "ãĥ",
        "Ħ"
      ],
      [
        "çµ",
        "Į"
      ],
      [
        "éĢ",
        "ģ"
      ],
      [
        "æĸ",
        "¹"
      ],
      [
        "å",
        "Ħ"
      ],
      [
        "æĢ",
        "§"
      ],
      [
        "å³",
        "¶"
      ],
      [
        "çµ",
        "Ħ"
      ],
      [
        "å®",
        "Ł"
      ],
      [
        "ãĤ",
        "®"
      ],
      [
        "æľ",
        "Ł"
      ],
      [
        "201",
        "7"
      ],
      [
        "è",
        "ĥ"
      ],
      [
        "å",
        "Ģ"
      ],
      [
        "â",
        "Ģ"
      ],
      [
        "èº",
        "«"
      ],
      [
        "åĬ",
        "ł"
      ],
      [
        "20",
        "2"
      ],
      [
        "ç·",
        "¨"
      ],
      [
        "å",
        "»"
      ],
      [
        "è",
        "¥"
      ],
      [
        "ä¸",
        "ī"
      ],
      [
        "éĢ",
        "£"
      ],
      [
        "åĬ",
        "Ľ"
      ],
      [
        "é",
        "¤"
      ],
      [
        "å¼",
        "ı"
      ],
      [
        "ãĤĴ",
        "åı"
      ],
      [
        "ãģķãĤĮ",
        "ãĤĭ"
      ],
      [
        "ãĤ¤",
        "ãĥ³"
      ],
      [
        "é",
        "§"
      ],
      [
        "ç¥",
        "ŀ"
      ],
      [
        "æ³",
        "ķ"
      ],
      [
        "åŃ¦",
        "æł¡"
      ],
      [
        "ãĤ",
        "¶"
      ],
      [
        "åĮ",
        "Ĺ"
      ],
      [
        "åİ",
        "Ł"
      ],
      [
        "é",
        "Į"
      ],
      [
        "çķ",
        "ª"
      ],
      [
        "æķ",
        "°"
      ],
      [
        "åĭ",
        "Ļ"
      ],
      [
        "ãģ¨ãģĦ",
        "ãģĨ"
      ],
      [
        "ãģĿ",
        "ãģ®"
      ],
      [
        "èª",
        "ŀ"
      ],
      [
        "ãĥĩ",
        "ãĤ£"
      ],
      [
        "ç",
        "½"
      ],
      [
        "è",
        "¾"
      ],
      [
        "åĮ",
        "º"
      ],
      [
        "ãĤ",
        "²"
      ],
      [
        "ãģ¾",
        "ãģ§"
      ],
      [
        "è»",
        "į"
      ],
      [
        "åħ",
        "±"
      ],
      [
        "ãĥ",
        "Ķ"
      ],
      [
        "e",
        "n"
      ],
      [
        "æĶ",
        "¾"
      ],
      [
        "è¦",
        "ģ"
      ],
      [
        "ãĥ³",
        "ãĤ¹"
      ],
      [
        "ãĤĮ",
        "ãģŁ"
      ],
      [
        "é",
        "¦"
      ],
      [
        "é",
        "ħ"
      ],
      [
        "ãĥ¼",
        "ãĤ¹"
      ],
      [
        "ãĤ¢",
        "ãĥ«"
      ],
      [
        "åº",
        "¦"
      ],
      [
        "ãģ¾",
        "ãģŁ"
      ],
      [
        "201",
        "6"
      ],
      [
        "æ",
        "®"
      ],
      [
        "è",
        "ī"
      ],
      [
        "æ",
        "ı"
      ],
      [
        "ãĥĹ",
        "ãĥŃ"
      ],
      [
        "å½",
        "¹"
      ],
      [
        "ãĤĤ",
        "ãģ®"
      ],
      [
        "ãģĵ",
        "ãģ®"
      ],
      [
        "ãĤ",
        "´"
      ],
      [
        "ãĤ",
        "©"
      ],
      [
        "ç",
        "Ŀ"
      ],
      [
        "éĮ",
        "²"
      ],
      [
        "ãĥ",
        "Ľ"
      ],
      [
        "ãĥ",
        "ļ"
      ],
      [
        "åĵ",
        "ģ"
      ],
      [
        "ãģ",
        "ļ"
      ],
      [
        "è",
        "ĳ"
      ],
      [
        "æµ",
        "·"
      ],
      [
        "ãĤ¸",
        "ãĥ£"
      ],
      [
        "æ²",
        "»"
      ],
      [
        "ç·",
        "ļ"
      ],
      [
        "ãĥĨ",
        "ãĥ¬"
      ],
      [
        "æĹ¥",
        "ãģ«"
      ],
      [
        "a",
        "r"
      ],
      [
        "é",
        "£"
      ],
      [
        "çī",
        "¹"
      ],
      [
        "æ©",
        "Ł"
      ],
      [
        "è¥",
        "¿"
      ],
      [
        "201",
        "8"
      ],
      [
        "é",
        "ĺ"
      ],
      [
        "æ",
        "Ł"
      ],
      [
        "å",
        "ĸ"
      ],
      [
        "æľ",
        "¨"
      ],
      [
        "è",
        "ģ"
      ],
      [
        "è»",
        "Ĭ"
      ],
      [
        "è",
        "µ"
      ],
      [
        "åĦ",
        "ª"
      ],
      [
        "å¤",
        "ļ"
      ],
      [
        "è",
        "«"
      ],
      [
        "éĩ",
        "ĳ"
      ],
      [
        "å£",
        "²"
      ],
      [
        "çİ",
        "ĭ"
      ],
      [
        "ãĤ·ãĥ§",
        "ãĥ³"
      ],
      [
        "ãĥª",
        "ãĤ¢"
      ],
      [
        "æ",
        "§"
      ],
      [
        "ãĥĥ",
        "ãĥĹ"
      ],
      [
        "1",
        "5"
      ],
      [
        "æĿ",
        "¥"
      ],
      [
        "åĪ",
        "¶"
      ],
      [
        "è",
        "¼"
      ],
      [
        "è³",
        "ŀ"
      ],
      [
        "åı",
        "·"
      ],
      [
        "å",
        "ģ"
      ],
      [
        "o",
        "r"
      ],
      [
        "Ġ",
        "T"
      ],
      [
        "æŃ",
        "´"
      ],
      [
        "ãĤ¹",
        "ãĤ¿"
      ],
      [
        "æ",
        "¬"
      ],
      [
        "è",
        "Ĭ"
      ],
      [
        "ç",
        "Ħ"
      ],
      [
        "ãĥ¼",
        "ãĤº"
      ],
      [
        "çµ",
        "Ĳ"
      ],
      [
        "19",
        "9"
      ],
      [
        "ä½",
        "¿"
      ],
      [
        "è",
        "Ĺ"
      ],
      [
        "é¤",
        "¨"
      ],
      [
        "çĤ",
        "¹"
      ],
      [
        "ãĥĨãĥ¬",
        "ãĥĵ"
      ],
      [
        "çŁ",
        "¥"
      ],
      [
        "a",
        "l"
      ],
      [
        "è©",
        "±"
      ],
      [
        "æ",
        "ĭ"
      ],
      [
        "æ",
        "¯"
      ],
      [
        "1",
        "7"
      ],
      [
        "ãģķãĤĮ",
        "ãģ¦ãģĦãĤĭ"
      ],
      [
        "éĻ",
        "¢"
      ],
      [
        "Ġ",
        "M"
      ],
      [
        "æ°",
        "ĳ"
      ],
      [
        "ãĥ¼",
        "ãĤ¯"
      ],
      [
        "ãģ£ãģ¦",
        "ãģĦãĤĭ"
      ],
      [
        "çķ",
        "Į"
      ],
      [
        "æŃ",
        "£"
      ],
      [
        "éŁ",
        "³"
      ],
      [
        "éĽ",
        "Ĩ"
      ],
      [
        "å¤",
        "ĸ"
      ],
      [
        "éĥ",
        "½"
      ],
      [
        "åĽ",
        "£"
      ],
      [
        "ãĥķ",
        "ãĤ¡"
      ],
      [
        "ç¾",
        "İ"
      ],
      [
        "äº",
        "Į"
      ],
      [
        "æ°",
        "´"
      ],
      [
        "æĿ±",
        "äº¬"
      ],
      [
        "èŃ",
        "°"
      ],
      [
        "è",
        "Ĥ"
      ],
      [
        "è",
        "·"
      ],
      [
        "æ¥",
        "½"
      ],
      [
        "èĥ",
        "½"
      ],
      [
        "Ġ",
        "C"
      ],
      [
        "s",
        "t"
      ],
      [
        "æĶ",
        "¿"
      ],
      [
        "æ",
        "Ĵ"
      ],
      [
        "è",
        "§"
      ],
      [
        "1",
        "6"
      ],
      [
        "ãģĬ",
        "ãĤĬ"
      ],
      [
        "ï¼ī",
        "ãĢģ"
      ],
      [
        "ãĤĮ",
        "ãĤĭ"
      ],
      [
        "ä¿",
        "¡"
      ],
      [
        "å¾",
        "Ĺ"
      ],
      [
        "æĺ",
        "ł"
      ],
      [
        "ãĤĪ",
        "ãĤĬ"
      ],
      [
        "ãģ§",
        "ãģį"
      ],
      [
        "æ´",
        "»"
      ],
      [
        "è",
        "¶"
      ],
      [
        "ãĤŃ",
        "ãĥ£"
      ],
      [
        "æ",
        "ĥ"
      ],
      [
        "ç½",
        "®"
      ],
      [
        "æĶ¾",
        "éĢģ"
      ],
      [
        "3",
        "0"
      ],
      [
        "ç´",
        "Ħ"
      ],
      [
        "éĿ",
        "¢"
      ],
      [
        "å§",
        "ĭ"
      ],
      [
        "é§",
        "ħ"
      ],
      [
        "å·",
        "ŀ"
      ],
      [
        "æ°",
        "Ĺ"
      ],
      [
        "åį",
        "Ĺ"
      ],
      [
        "ãĥ",
        "¤"
      ],
      [
        "ä»",
        "»"
      ],
      [
        "éģ¸",
        "æīĭ"
      ],
      [
        "æĺ",
        "Ń"
      ],
      [
        "æ",
        "º"
      ],
      [
        "è",
        "ĭ"
      ],
      [
        "å±",
        "ŀ"
      ],
      [
        "çī",
        "Ī"
      ],
      [
        "ãģ«ãĤĪ",
        "ãĤĭ"
      ],
      [
        "ãģĵãģ¨",
        "ãģĮ"
      ],
      [
        "éļ",
        "Ľ"
      ],
      [
        "ãģ",
        "Ĵ"
      ],
      [
        "a",
        "t"
      ],
      [
        "Ġ",
        "A"
      ],
      [
        "ãĤ",
        "į"
      ],
      [
        "ç",
        "±"
      ],
      [
        "ç¶",
        "ļ"
      ],
      [
        "çł",
        "Ķ"
      ],
      [
        "åı",
        "²"
      ],
      [
        "å",
        "ķ"
      ],
      [
        "ãģ",
        "»"
      ],
      [
        "ä»",
        "ĺ"
      ],
      [
        "ãĥ¼",
        "ãĤ¸"
      ],
      [
        "ç",
        "Ī"
      ],
      [
        "ç§",
        "ĳ"
      ],
      [
        "ä¸",
        "į"
      ],
      [
        "å¤",
        "ī"
      ],
      [
        "l",
        "e"
      ],
      [
        "æľ",
        "ī"
      ],
      [
        "ãģĹãģ¦",
        "ãģĦãģŁ"
      ],
      [
        "èĹ",
        "¤"
      ],
      [
        "åı",
        "ĸ"
      ],
      [
        "å",
        "ĥ"
      ],
      [
        "åı",
        "°"
      ],
      [
        "ãģ®å",
        "¾"
      ],
      [
        "éĽ",
        "»"
      ],
      [
        "ãĢģ",
        "ãĢĮ"
      ],
      [
        "å½",
        "¢"
      ],
      [
        "ãĥ",
        "Ĵ"
      ],
      [
        "å£",
        "«"
      ],
      [
        "éĢ",
        "²"
      ],
      [
        "ãģ¨ãģª",
        "ãģ£ãģŁ"
      ],
      [
        "å¤",
        "©"
      ],
      [
        "ç",
        "¦"
      ],
      [
        "Ġ",
        "B"
      ],
      [
        "20",
        "19"
      ],
      [
        "è¨",
        "Ģ"
      ],
      [
        "æĺŃ",
        "åĴĮ"
      ],
      [
        "ç§",
        "»"
      ],
      [
        "éģ",
        "ĭ"
      ],
      [
        "åı",
        "£"
      ],
      [
        "äº",
        "ķ"
      ],
      [
        "ãģ«ãĤĪ",
        "ãĤĬ"
      ],
      [
        "ãĥķ",
        "ãĤ£"
      ],
      [
        "å±",
        "ĭ"
      ],
      [
        "ç",
        "¯"
      ],
      [
        "ï",
        "½"
      ],
      [
        "ãģ«",
        "ãģĬ"
      ],
      [
        "çĻ",
        "»"
      ],
      [
        "å·",
        "¥"
      ],
      [
        "1",
        "4"
      ],
      [
        "ãģ¦",
        "ãģĦãģŁ"
      ],
      [
        "çĶ",
        "·"
      ],
      [
        "h",
        "e"
      ],
      [
        "çµ",
        "Ĥ"
      ],
      [
        "å¤",
        "ª"
      ],
      [
        "åĪ",
        "©"
      ],
      [
        "çŃ",
        "ī"
      ],
      [
        "o",
        "l"
      ],
      [
        "ãģĵ",
        "ãĤĮ"
      ],
      [
        "æ",
        "ħ"
      ],
      [
        "å½",
        "¼"
      ],
      [
        "1",
        "3"
      ],
      [
        "ãĢ",
        "ľ"
      ],
      [
        "ç©",
        "¶"
      ],
      [
        "ç",
        "®"
      ],
      [
        "å",
        "¢"
      ],
      [
        "19",
        "8"
      ],
      [
        "201",
        "5"
      ],
      [
        "åı",
        "¤"
      ],
      [
        "ç©",
        "º"
      ],
      [
        "æŃ",
        "Į"
      ],
      [
        "ãĢı",
        "ï¼Ī"
      ],
      [
        "ãĢ",
        "ħ"
      ],
      [
        "ãĤ·",
        "ãĥ£"
      ],
      [
        "å",
        "ŀ"
      ],
      [
        "æ¬",
        "¡"
      ],
      [
        "é",
        "ī"
      ],
      [
        "éĩ",
        "į"
      ],
      [
        "è¡",
        "ĵ"
      ],
      [
        "ãĤ¯",
        "ãĥ©"
      ],
      [
        "ãĤ¤",
        "ãĥĪ"
      ],
      [
        "åı",
        "İ"
      ],
      [
        "ç",
        "¿"
      ],
      [
        "è¨",
        "Ī"
      ],
      [
        "ãĥģ",
        "ãĥ£"
      ],
      [
        "ãĥª",
        "ãĤ«"
      ],
      [
        "ãĥ¼",
        "ãĥ³"
      ],
      [
        "çłĶ",
        "ç©¶"
      ],
      [
        "ä¿",
        "Ŀ"
      ],
      [
        "ãĥ¼ãĥ",
        "Ĺ"
      ],
      [
        "ä¸ĸ",
        "çķĮ"
      ],
      [
        "ãĤ·",
        "ãĥ¥"
      ],
      [
        "ãģ¨ãģª",
        "ãĤĭ"
      ],
      [
        "æ±",
        "º"
      ],
      [
        "éħ",
        "į"
      ],
      [
        "ãĥ¼ãĥ",
        "ŀ"
      ],
      [
        "ãĢį",
        "ï¼Ī"
      ],
      [
        "ãģĳ",
        "ãĤĭ"
      ],
      [
        "ç",
        "Ĭ"
      ],
      [
        "ãģĭ",
        "ãģ£ãģŁ"
      ],
      [
        "åĲ",
        "ĳ"
      ],
      [
        "ãĥ",
        "¦"
      ],
      [
        "ãģ",
        "¹"
      ],
      [
        "éĥ",
        "İ"
      ],
      [
        "çĽ",
        "¸"
      ],
      [
        "i",
        "t"
      ],
      [
        "åĪ",
        "¥"
      ],
      [
        "çŁ",
        "³"
      ],
      [
        "å",
        "¡"
      ],
      [
        "ãģĿ",
        "ãĤĮ"
      ],
      [
        "ç",
        "¸"
      ],
      [
        "çĽ",
        "£"
      ],
      [
        "ä»",
        "ĸ"
      ],
      [
        "ãĤĴæ",
        "Į"
      ],
      [
        "åł",
        "±"
      ],
      [
        "i",
        "c"
      ],
      [
        "Ġ",
        "P"
      ],
      [
        "ãĤ",
        "Ģ"
      ],
      [
        "2",
        "5"
      ],
      [
        "æ",
        "ģ"
      ],
      [
        "Ġ",
        "L"
      ],
      [
        "éĢ",
        "ł"
      ],
      [
        "ãĤĴåı",
        "Ĺ"
      ],
      [
        "çĶ",
        "£"
      ],
      [
        "å²",
        "¡"
      ],
      [
        "åı",
        "Ĥ"
      ],
      [
        "çľ",
        "Ł"
      ],
      [
        "ãĥ©",
        "ãĥ³"
      ],
      [
        "æ¨",
        "©"
      ],
      [
        "e",
        "s"
      ],
      [
        "å»",
        "º"
      ],
      [
        "ãģ®å¾",
        "Į"
      ],
      [
        "ãģ§ãģĤ",
        "ãģ£ãģŁ"
      ],
      [
        "å",
        "´"
      ],
      [
        "äº",
        "¤"
      ],
      [
        "ç",
        "³"
      ],
      [
        "ãĤ¹",
        "ãĥĨ"
      ],
      [
        "éĸ",
        "Ģ"
      ],
      [
        "ãĥķ",
        "ãĤ©"
      ],
      [
        "å¿",
        "ĥ"
      ],
      [
        "åº",
        "Ĺ"
      ],
      [
        "ä»£",
        "è¡¨"
      ],
      [
        "19",
        "7"
      ],
      [
        "ç§",
        "°"
      ],
      [
        "å®",
        "ī"
      ],
      [
        "ç¾",
        "©"
      ],
      [
        "ç·",
        "ı"
      ],
      [
        "r",
        "o"
      ],
      [
        "ãģ«ãĤĪ",
        "ãģ£ãģ¦"
      ],
      [
        "åŀ",
        "ĭ"
      ],
      [
        "å®",
        "ĺ"
      ],
      [
        "åº",
        "ĥ"
      ],
      [
        "åĩº",
        "æ¼Ķ"
      ],
      [
        "éī",
        "Ħ"
      ],
      [
        "è",
        "±"
      ],
      [
        "åľ",
        "Ĵ"
      ],
      [
        "ç",
        "ĭ"
      ],
      [
        "Ġ",
        "F"
      ],
      [
        "ä¼ļ",
        "ç¤¾"
      ],
      [
        "èĤ",
        "²"
      ],
      [
        "ä½ľ",
        "åĵģ"
      ],
      [
        "æľ",
        "Ŀ"
      ],
      [
        "ãģĮ",
        "ãģĤãĤĭ"
      ],
      [
        "è©",
        "¦"
      ],
      [
        "è§",
        "£"
      ],
      [
        "åŁ",
        "Ł"
      ],
      [
        "ãģ¨",
        "ãĤĤ"
      ],
      [
        "ãģ§",
        "ãĤĤ"
      ],
      [
        "åĤ",
        "¬"
      ],
      [
        "ãĤ¢",
        "ãĥ¡"
      ],
      [
        "Ġ",
        "D"
      ],
      [
        "æĮ",
        "ĩ"
      ],
      [
        "è¿",
        "ĳ"
      ],
      [
        "çĦ",
        "¡"
      ],
      [
        "éļ",
        "Ĭ"
      ],
      [
        "20",
        "20"
      ],
      [
        "°",
        "·"
      ],
      [
        "ãĤīãĤĮ",
        "ãģŁ"
      ],
      [
        "è",
        "Ħ"
      ],
      [
        "åĸ",
        "¶"
      ],
      [
        "ãģ®",
        "ä¸Ģ"
      ],
      [
        "2",
        "2"
      ],
      [
        "ãģ§ãģĤ",
        "ãĤĬ"
      ],
      [
        "æ",
        "¡"
      ],
      [
        "ãĤ¸",
        "ãĤ§"
      ],
      [
        "ãģł",
        "ãģ£ãģŁ"
      ],
      [
        "å°",
        "ĳ"
      ],
      [
        "ãģ«",
        "ãģ¤"
      ],
      [
        "æĿ",
        "¾"
      ],
      [
        "ãĤģ",
        "ãģŁ"
      ],
      [
        "å®",
        "®"
      ],
      [
        "æ",
        "£"
      ],
      [
        "çı¾",
        "åľ¨"
      ],
      [
        "ï¼ī",
        "ãĢĤ"
      ],
      [
        "å¹´",
        "ãģ®"
      ],
      [
        "ãĥ³ãĥ",
        "Ĳ"
      ],
      [
        "å£",
        "°"
      ],
      [
        "é",
        "¨"
      ],
      [
        "Ġ",
        "R"
      ],
      [
        "è",
        "°·"
      ],
      [
        "ãĥª",
        "ãĤ¹"
      ],
      [
        "çĻº",
        "å£²"
      ],
      [
        "ç",
        "ģ"
      ],
      [
        "ï½",
        "ŀ"
      ],
      [
        "Ġ",
        "ãĢĮ"
      ],
      [
        "ãĥĥ",
        "ãĥī"
      ],
      [
        "è",
        "ı"
      ],
      [
        "çĿ",
        "£"
      ],
      [
        "ãĤ¸",
        "ãĥ§"
      ],
      [
        "ãģª",
        "ãģı"
      ],
      [
        "æł",
        "¼"
      ],
      [
        "åĨ",
        "į"
      ],
      [
        "ãĤ¢ãĥ¡",
        "ãĥªãĤ«"
      ],
      [
        "é¡",
        "Į"
      ],
      [
        "ç¦",
        "ı"
      ],
      [
        "æĬ",
        "Ģ"
      ],
      [
        "çĽ",
        "´"
      ],
      [
        "ä¸",
        "ĩ"
      ],
      [
        "ç´",
        "Ģ"
      ],
      [
        "åŁ",
        "İ"
      ],
      [
        "ãĤ",
        "¼"
      ],
      [
        "å¹³",
        "æĪĲ"
      ],
      [
        "Ġ",
        "ç¬¬"
      ],
      [
        "é",
        "Ń"
      ],
      [
        "ä¼",
        "Ŀ"
      ],
      [
        "è£",
        "½"
      ],
      [
        "åħ",
        "ī"
      ],
      [
        "æĻĤ",
        "ä»£"
      ],
      [
        "ãĤīãĤĮ",
        "ãĤĭ"
      ],
      [
        "2",
        "4"
      ],
      [
        "åı",
        "¯"
      ],
      [
        "2",
        "3"
      ],
      [
        "çļĦ",
        "ãģª"
      ],
      [
        "2",
        "1"
      ],
      [
        "ãĥ¼ãĥ",
        "Ĭ"
      ],
      [
        "æĦ",
        "Ľ"
      ],
      [
        "çĶ",
        "±"
      ],
      [
        "éĥ",
        "¡"
      ],
      [
        "è·",
        "¯"
      ],
      [
        "ãĤ¢",
        "ãĤ¤"
      ],
      [
        "åħ",
        "Ī"
      ],
      [
        "ãĥ«",
        "ãĥĪ"
      ],
      [
        "èª",
        "¿"
      ],
      [
        "201",
        "4"
      ],
      [
        "æµ",
        "ģ"
      ],
      [
        "è»",
        "¢"
      ],
      [
        "Ċ",
        "Ċ"
      ],
      [
        "æĹ",
        "ı"
      ],
      [
        "ãģ",
        "¶"
      ],
      [
        "å¸",
        "¸"
      ],
      [
        "èª",
        "¬"
      ],
      [
        "æĺł",
        "çĶ»"
      ],
      [
        "æ§",
        "ĺ"
      ],
      [
        "æĸ",
        "½"
      ],
      [
        "o",
        "u"
      ],
      [
        "ãĤ°",
        "ãĥ©"
      ],
      [
        "2",
        "8"
      ],
      [
        "ãģ«",
        "ãĤĤ"
      ],
      [
        "ãĥĹ",
        "ãĥ¬"
      ],
      [
        "æĴ",
        "ĥ"
      ],
      [
        "ãģ«",
        "å¯¾"
      ],
      [
        "ãĥ",
        "ĺ"
      ],
      [
        "çµ",
        "±"
      ],
      [
        "ç¨",
        "®"
      ],
      [
        "å±",
        "Ģ"
      ],
      [
        "åŃ",
        "ĺ"
      ],
      [
        "çķª",
        "çµĦ"
      ],
      [
        "|",
        "-"
      ],
      [
        "ãģŁ",
        "ãģ¡"
      ],
      [
        "19",
        "6"
      ],
      [
        "éĢ",
        "Ģ"
      ],
      [
        "å¯",
        "º"
      ],
      [
        "ç",
        "Ĺ"
      ],
      [
        "ç³",
        "»"
      ],
      [
        "ãģĪ",
        "ãĤĭ"
      ],
      [
        "202",
        "1"
      ],
      [
        "ãĤĴ",
        "è¡Į"
      ],
      [
        "å¸",
        "«"
      ],
      [
        "ä½",
        "ı"
      ],
      [
        "Ġ",
        "ãĢİ"
      ],
      [
        "ä½",
        "Ĳ"
      ],
      [
        "å¼",
        "ķ"
      ],
      [
        "ãĥī",
        "ãĥ©"
      ],
      [
        "ãĤ¦",
        "ãĤ§"
      ],
      [
        "æĶ",
        "¹"
      ],
      [
        "Ġ",
        "/"
      ],
      [
        "æĦ",
        "ı"
      ],
      [
        "ãĤ«",
        "ãĥ¼"
      ],
      [
        "2",
        "7"
      ],
      [
        "ãģ¨",
        "ãģ®"
      ],
      [
        "æ©",
        "ĭ"
      ],
      [
        "å",
        "¦"
      ],
      [
        "ãĥķ",
        "ãĤ§"
      ],
      [
        "åŁ",
        "º"
      ],
      [
        "2",
        "6"
      ],
      [
        "ãģķ",
        "ãģĽ"
      ],
      [
        "ãģ«",
        "ãģ¦"
      ],
      [
        "åŃ",
        "Ĺ"
      ],
      [
        "ç",
        "¹"
      ],
      [
        "é",
        "Ĭ"
      ],
      [
        "Ġ",
        "G"
      ],
      [
        "çĽ£",
        "çĿ£"
      ],
      [
        "é¦",
        "¬"
      ],
      [
        "ãĥ´",
        "ãĤ¡"
      ],
      [
        "ãģ§ãģį",
        "ãĤĭ"
      ],
      [
        "ãģĹ",
        "ãģĭ"
      ],
      [
        "ãģª",
        "ãģĭãģ£ãģŁ"
      ],
      [
        "å´",
        "İ"
      ],
      [
        "çĲ",
        "ĥ"
      ],
      [
        "å",
        "Ŀ"
      ],
      [
        "åľ",
        "Ł"
      ],
      [
        "ä½ľ",
        "æĽ²"
      ],
      [
        "ãĤ·",
        "ãĤ¢"
      ],
      [
        "è©",
        "ŀ"
      ],
      [
        "è",
        "¬"
      ],
      [
        "2",
        "9"
      ],
      [
        "ãĥ¼ãĥ",
        "ª"
      ],
      [
        "Ġ",
        "200"
      ],
      [
        "ç´",
        "ļ"
      ],
      [
        "ãģ",
        "²"
      ],
      [
        "ãģĵãģ¨",
        "ãĤĴ"
      ],
      [
        "¢",
        "¨"
      ],
      [
        "éĻ",
        "Ĳ"
      ],
      [
        "ãĥ³ãĥ",
        "Ģ"
      ],
      [
        "ãĥ¼ãĥ",
        "©"
      ],
      [
        "è¡Į",
        "ãĤı"
      ],
      [
        "ãĤ¿",
        "ãĤ¤"
      ],
      [
        "çĻº",
        "è¡¨"
      ],
      [
        "åħ",
        "µ"
      ],
      [
        "ãĤģ",
        "ãĤĭ"
      ],
      [
        "éĸĭ",
        "åĤ¬"
      ],
      [
        "ãģĿ",
        "ãģ®å¾Į"
      ],
      [
        "r",
        "e"
      ],
      [
        "i",
        "s"
      ],
      [
        "åį",
        "Ķ"
      ],
      [
        "åĬ",
        "ĩ"
      ],
      [
        "ãģ«ãģ¤",
        "ãģĦãģ¦"
      ],
      [
        "æľĪ",
        "ãģ«"
      ],
      [
        "é",
        "Ĥ"
      ],
      [
        "æŃ",
        "»"
      ],
      [
        "ãģ®",
        "ä¸Ń"
      ],
      [
        "æĪ",
        "¸"
      ],
      [
        "ãĤ¢ãĥ«",
        "ãĥĲ"
      ],
      [
        "æ",
        "¤"
      ],
      [
        "ãĤ«",
        "ãĥ«"
      ],
      [
        "ãĥ´",
        "ãĤ£"
      ],
      [
        "æ",
        "·"
      ],
      [
        "åĪ",
        "¤"
      ],
      [
        "åĤ",
        "Ļ"
      ],
      [
        "åĩº",
        "èº«"
      ],
      [
        "æ",
        "¶"
      ],
      [
        "ãĥĥãĤ¯",
        "ãĤ¹"
      ],
      [
        "ãĥģ",
        "ãĥ¼ãĥł"
      ],
      [
        "äº",
        "Ī"
      ],
      [
        "Ġ",
        "I"
      ],
      [
        "åĳ",
        "½"
      ],
      [
        "ãĤµ",
        "ãĥ¼"
      ],
      [
        "ãģĤ",
        "ãĤĬ"
      ],
      [
        "æŃ",
        "¢"
      ],
      [
        "Ġ",
        "H"
      ],
      [
        "æŃ",
        "¦"
      ],
      [
        "ãģ«",
        "ãģĤãĤĭ"
      ],
      [
        "æŁ",
        "»"
      ],
      [
        "è¦",
        "ª"
      ],
      [
        "çĬ",
        "¶"
      ],
      [
        "æ",
        "Ĥ"
      ],
      [
        "çĻ",
        "½"
      ],
      [
        "çĿ",
        "Ģ"
      ],
      [
        "ãĥ³ãĥ",
        "ĩ"
      ],
      [
        "é",
        "»"
      ],
      [
        "ãĥĸ",
        "ãĥ©"
      ],
      [
        "ãĥ³ãĥ",
        "Ĩ"
      ],
      [
        "è«",
        "ĸ"
      ],
      [
        "202",
        "2"
      ],
      [
        "ä¸",
        "¡"
      ],
      [
        "ç¤",
        "º"
      ],
      [
        "èĭ",
        "±"
      ],
      [
        "ä¿",
        "®"
      ],
      [
        "éģ",
        "Ķ"
      ],
      [
        "æĽ",
        "ľ"
      ],
      [
        "èĳ",
        "Ĺ"
      ],
      [
        "è£",
        "ħ"
      ],
      [
        "ãĥ©",
        "ãĥ¼"
      ],
      [
        "ãĤ·",
        "ãĥ³ãĤ°"
      ],
      [
        "æ",
        "¦"
      ],
      [
        "ãģĳ",
        "ãģ¦"
      ],
      [
        "åº",
        "ľ"
      ],
      [
        "é",
        "ľ"
      ],
      [
        "èª",
        "į"
      ],
      [
        "èĳ",
        "ī"
      ],
      [
        "201",
        "3"
      ],
      [
        "å¤§",
        "ä¼ļ"
      ],
      [
        "Ġ",
        "N"
      ],
      [
        "åĳ",
        "¼"
      ],
      [
        "ãĤª",
        "ãĥ³"
      ],
      [
        "ãģĹ",
        "ãģĦ"
      ],
      [
        "èĢ",
        "ĥ"
      ],
      [
        "ãĤª",
        "ãĥª"
      ],
      [
        "ãĥªãĥ¼",
        "ãĤ°"
      ],
      [
        "æĸ",
        "Ļ"
      ],
      [
        "ãĤĴæĮ",
        "ģ"
      ],
      [
        "ç",
        "į"
      ],
      [
        "çļĦ",
        "ãģ«"
      ],
      [
        "çĻ»",
        "åł´"
      ],
      [
        "æī",
        "ĵ"
      ],
      [
        "Ġ",
        "Ġ"
      ],
      [
        "æīĢ",
        "å±ŀ"
      ],
      [
        "ãĥ¼ãĥ",
        "ĩ"
      ],
      [
        "åį",
        "ĥ"
      ],
      [
        "éĻ",
        "į"
      ],
      [
        "æ´»",
        "åĭķ"
      ],
      [
        "å¼",
        "·"
      ],
      [
        "æĺ",
        "Ł"
      ],
      [
        "ä½¿",
        "çĶ¨"
      ],
      [
        "å®",
        "¤"
      ],
      [
        "æŀ",
        "ľ"
      ],
      [
        "i",
        "on"
      ],
      [
        "æĥ",
        "ħ"
      ],
      [
        "ãģĳ",
        "ãģŁ"
      ],
      [
        "a",
        "m"
      ],
      [
        "åĲ",
        "Ħ"
      ],
      [
        "Ġ",
        "t"
      ],
      [
        "éł",
        "ĺ"
      ],
      [
        "ãĥĸ",
        "ãĥ«"
      ],
      [
        "å¿",
        "ľ"
      ],
      [
        "è³",
        "ĩ"
      ],
      [
        "çĪ",
        "¶"
      ],
      [
        "ãģ«ãģª",
        "ãģ£ãģŁ"
      ],
      [
        "è",
        "Ĳ"
      ],
      [
        "ãĥĭ",
        "ãĤ¢"
      ],
      [
        "e",
        "l"
      ],
      [
        "ãĤ¢ãĥ«ãĥĲ",
        "ãĥł"
      ],
      [
        "ãĥ",
        "¨"
      ],
      [
        "ãĥķ",
        "ãĥ©"
      ],
      [
        "ãĥ¬",
        "ãĥ¼"
      ],
      [
        "ãģĬ",
        "ãĤĪ"
      ],
      [
        "èµ",
        "·"
      ],
      [
        "ãĤ¦",
        "ãĤ¹"
      ],
      [
        "åĲ",
        "ī"
      ],
      [
        "åı",
        "į"
      ],
      [
        "ãĥ³",
        "ãĤ¿"
      ],
      [
        "åĳ",
        "¨"
      ],
      [
        "æĺİ",
        "æ²»"
      ],
      [
        "ãĥ³ãĥĲ",
        "ãĥ¼"
      ],
      [
        "ãģ«ãģª",
        "ãĤĭ"
      ],
      [
        "åĽ",
        "³"
      ],
      [
        "åĩº",
        "åł´"
      ],
      [
        "éĺ",
        "ª"
      ],
      [
        "æŃ",
        "³"
      ],
      [
        "ãĤ·",
        "ãĥ¼ãĤº"
      ],
      [
        "Ġ",
        "W"
      ],
      [
        "ãģ«ãģĬ",
        "ãģĦãģ¦"
      ],
      [
        "åį",
        "Ĵ"
      ],
      [
        "åı",
        "¸"
      ],
      [
        "ãĥ³",
        "ãģ®"
      ],
      [
        "ãģ¨",
        "ãģ¯"
      ],
      [
        "Ġ",
        "E"
      ],
      [
        "i",
        "g"
      ],
      [
        "æ¸",
        "Ī"
      ],
      [
        "ãĤ¤",
        "ãĥ«"
      ],
      [
        "éĸĭ",
        "å§ĭ"
      ],
      [
        "ãĤ",
        "Ĩ"
      ],
      [
        "ãģ®æ",
        "ĸ"
      ],
      [
        "ç®",
        "¡"
      ],
      [
        "éģ",
        "İ"
      ],
      [
        "ãĤ",
        "ĩ"
      ],
      [
        "ç±",
        "į"
      ],
      [
        "æ±",
        "Ł"
      ],
      [
        "ãĤ¦",
        "ãĤ£"
      ],
      [
        "æ",
        "¹"
      ],
      [
        "å",
        "Ļ"
      ],
      [
        "ä¼",
        "ģ"
      ],
      [
        "ãĤ°",
        "ãĥ«"
      ],
      [
        "éĿ",
        "Ĵ"
      ],
      [
        "ãĤ¸",
        "ãĤª"
      ],
      [
        "ãģ®",
        "ãģŁãĤģ"
      ],
      [
        "åĦª",
        "åĭĿ"
      ],
      [
        "in",
        "g"
      ],
      [
        "éŁ³",
        "æ¥½"
      ],
      [
        "a",
        "s"
      ],
      [
        "Ġ-",
        "ï¼ī"
      ],
      [
        "åħ",
        "ļ"
      ],
      [
        "ãĤĵ",
        "ãģł"
      ],
      [
        "ãĥªãĥ¼",
        "ãĤº"
      ],
      [
        "æ¦",
        "Ĥ"
      ],
      [
        "æķ",
        "Ĺ"
      ],
      [
        "ãĤĵ",
        "ãģ§"
      ],
      [
        "ãģ",
        "Ķ"
      ],
      [
        "ãģķãĤĮ",
        "ãģ¦"
      ],
      [
        "p",
        "an"
      ],
      [
        "ãģĻãĤĭ",
        "ãģĵãģ¨"
      ],
      [
        "ä»",
        "¶"
      ],
      [
        "èĬ",
        "±"
      ],
      [
        "é£",
        "Ł"
      ],
      [
        "è¾",
        "¼"
      ],
      [
        "19",
        "5"
      ],
      [
        "ãĤ²",
        "ãĥ¼ãĥł"
      ],
      [
        "æ",
        "ļ"
      ],
      [
        "æĮ",
        "ģ"
      ],
      [
        "ãģ®æ",
        "Ń"
      ],
      [
        "è©¦",
        "åĲĪ"
      ],
      [
        "3",
        "1"
      ],
      [
        "ãģ®æ",
        "Ķ"
      ],
      [
        "é",
        "¢¨"
      ],
      [
        "ãĥ³ãĥ",
        "Ĺ"
      ],
      [
        "åį",
        "Ĭ"
      ],
      [
        "æİ",
        "Ī"
      ],
      [
        "ãĥī",
        "ãĥ«"
      ],
      [
        "ãģ",
        "Ń"
      ],
      [
        "ãģĬãĤĪ",
        "ãģ³"
      ],
      [
        "ç",
        "¢"
      ],
      [
        "åķ",
        "ı"
      ],
      [
        "åį",
        "ģ"
      ],
      [
        "å¾Į",
        "ãģ«"
      ],
      [
        "e",
        "t"
      ],
      [
        "201",
        "2"
      ],
      [
        "è",
        "į"
      ],
      [
        "éł",
        "Ń"
      ],
      [
        "èĪ",
        "¹"
      ],
      [
        "ä»",
        "Ĭ"
      ],
      [
        "è©",
        "ķ"
      ],
      [
[...]
