{"<unk>":0,"<s>":1,"</s>":2,"!":3,"\"":4,"#":5,"$":6,"%":7,"&":8,"'":9,"(":10,")":11,"*":12,"+":13,",":14,"-":15,".":16,"/":17,"0":18,"1":19,"2":20,"3":21,"4":22,"5":23,"6":24,"7":25,"8":26,"9":27,":":28,";":29,"<":30,"=":31,">":32,"?":33,"@":34,"A":35,"B":36,"C":37,"D":38,"E":39,"F":40,"G":41,"H":42,"I":43,"J":44,"K":45,"L":46,"M":47,"N":48,"O":49,"P":50,"Q":51,"R":52,"S":53,"T":54,"U":55,"V":56,"W":57,"X":58,"Y":59,"Z":60,"[":61,"\\":62,"]":63,"^":64,"_":65,"`":66,"a":67,"b":68,"c":69,"d":70,"e":71,"f":72,"g":73,"h":74,"i":75,"j":76,"k":77,"l":78,"m":79,"n":80,"o":81,"p":82,"q":83,"r":84,"s":85,"t":86,"u":87,"v":88,"w":89,"x":90,"y":91,"z":92,"{":93,"|":94,"}":95,"~":96,"¡":97,"¢":98,"£":99,"¤":100,"¥":101,"¦":102,"§":103,"¨":104,"©":105,"ª":106,"«":107,"¬":108,"®":109,"¯":110,"°":111,"±":112,"²":113,"³":114,"´":115,"µ":116,"¶":117,"·":118,"¸":119,"¹":120,"º":121,"»":122,"¼":123,"½":124,"¾":125,"¿":126,"À":127,"Á":128,"Â":129,"Ã":130,"Ä":131,"Å":132,"Æ":133,"Ç":134,"È":135,"É":136,"Ê":137,"Ë":138,"Ì":139,"Í":140,"Î":141,"Ï":142,"Ð":143,"Ñ":144,"Ò":145,"Ó":146,"Ô":147,"Õ":148,"Ö":149,"×":150,"Ø":151,"Ù":152,"Ú":153,"Û":154,"Ü":155,"Ý":156,"Þ":157,"ß":158,"à":159,"á":160,"â":161,"ã":162,"ä":163,"å":164,"æ":165,"ç":166,"è":167,"é":168,"ê":169,"ë":170,"ì":171,"í":172,"î":173,"ï":174,"ð":175,"ñ":176,"ò":177,"ó":178,"ô":179,"õ":180,"ö":181,"÷":182,"ø":183,"ù":184,"ú":185,"û":186,"ü":187,"ý":188,"þ":189,"ÿ":190,"Ā":191,"ā":192,"Ă":193,"ă":194,"Ą":195,"ą":196,"Ć":197,"ć":198,"Ĉ":199,"ĉ":200,"Ċ":201,"ċ":202,"Č":203,"č":204,"Ď":205,"ď":206,"Đ":207,"đ":208,"Ē":209,"ē":210,"Ĕ":211,"ĕ":212,"Ė":213,"ė":214,"Ę":215,"ę":216,"Ě":217,"ě":218,"Ĝ":219,"ĝ":220,"Ğ":221,"ğ":222,"Ġ":223,"ġ":224,"Ģ":225,"ģ":226,"Ĥ":227,"ĥ":228,"Ħ":229,"ħ":230,"Ĩ":231,"ĩ":232,"Ī":233,"ī":234,"Ĭ":235,"ĭ":236,"Į":237,"į":238,"İ":239,"ı":240,"Ĳ":241,"ĳ":242,"Ĵ":243,"ĵ":244,"Ķ":245,"ķ":246,"ĸ":247,"Ĺ":248,"ĺ":249,"Ļ":250,"ļ":251,"Ľ":252,"ľ":253,"Ŀ":254,"ŀ":255,"Ł":256,"ł":257,"Ń":258,"ãģ":259,"ãĤ":260,"ãĥ":261,"ãĢ":262,"ãģ®":263,"ãĢģ":264,"ï¼":265,"ãģ«":266,"ãĥ¼":267,"ãĢĤ":268,"ãĤĭ":269,"ãģŁ":270,"ãģ¨":271,"ãģ¯":272,"ãĤĴ":273,"ãĥ³":274,"ãģĹ":275,"å¹":276,"ä¸":277,"ãģ¦":278,"ãģ§":279,"ãģĮ":280,"ãģĦ":281,"æľ":282,"å¹´":283,"ï¼Ī":284,"ï¼ī":285,"ãģª":286,"ãĤĮ":287,"ãĤ¹":288,"ãĥ¼ãĥ":289,"çĶ":290,"äº":291,"ãĥ»":292,"å¤":293,"æĹ":294,"åħ":295,"å®":296,"ãĥ«":297,"ãģ£":298,"åı":299,"åĲ":300,"ãģĭ":301,"ãĤī":302,"ãĤ¤":303,"æĹ¥":304,"ãĤĬ":305,"ä»":306,"åŃ":307,"ãĤ¢":308,"ãĥª":309,"ãģĤ":310,"ãĥ©":311,"åĪ":312,"ãģķ":313,"ãĥĪ":314,"ãĤĤ":315,"ä½":316,"20":317,"æľĪ":318,"ãģĻ":319,"ãģĹãģ¦":320,"éĢ":321,"ãĥĥ":322,"ãģĵ":323,"åĽ":324,"19":325,"ãĤ¯":326,"éģ":327,"Ġ-":328,"ãģ®å":329,"è¡":330,"ãĢĮ":331,"ãĢį":332,"æĸ":333,"éĸ":334,"æĿ":335,"ãģķãĤĮ":336,"ãĤ·":337,"æĪ":338,"ãģĹãģŁ":339,"å¤§":340,"ãģĻãĤĭ":341,"ãĤ¿":342,"è¨":343,"ãģ£ãģŁ":344,"ãģĨ":345,"åľ":346,"éĥ":347,"ãĥ³ãĥ":348,"ãģ®æ":349,"ãĥ¬":350,"ãģ¾":351,"ãĤĪ":352,"å¾":353,"ãģĤãĤĭ":354,"ãģĦãĤĭ":355,"å¸":356,"ä¼":357,"å·":358,"çµ":359,"åŃ¦":360,"ãĥŃ":361,"æī":362,"å±":363,"ãĥķ":364,"äºº":365,"æľ¬":366,"åº":367,"ãĤ«":368,"ãĤ¸":369,"åĭ":370,"ãģı":371,"å½":372,"åĮ":373,"ãģĭãĤī":374,"æŃ":375,"å°":376,"çĻ":377,"è¦":378,"ãĤģ":379,"éĩ":380,"ç·":381,"ãģį":382,"è»":383,"çī":384,"ä¸Ń":385,"åį":386,"èª":387,"ãĥĨ":388,"çĽ":389,"æĺ":390,"åĽ½":391,"ãĤ°":392,"ä¸Ģ":393,"ãģ£ãģ¦":394,"åł":395,"ãĤ£":396,"ãĤ³":397,"æĶ":398,"æķ":399,"ãģĳ":400,"æł":401,"ãĥŀ":402,"200":403,"æĻ":404,"è¡Į":405,"ãģĬ":406,"ç«":407,"å¼":408,"ãĤª":409,"ãĥĲ":410,"åĩ":411,"ãģĿ":412,"æ°":413,"éĽ":414,"åĬ":415,"ãģĵãģ¨":416,"ãĢİ":417,"ãĢı":418,"éĻ":419,"ãĥī":420,"æ¥":421,"åĨ":422,"ãĤĦ":423,"ç§":424,"å¯":425,"æĽ":426,"ç´":427,"èĢ":428,"åī":429,"ãĥĹ":430,"åĩº":431,"çķ":432,"ãģ©":433,"ãĤ¦":434,"ãĤĴæ":435,"çľ":436,"ãģ¤":437,"ä¸Ĭ":438,"éĥ¨":439,"ãĤµ":440,"åĲĪ":441,"ãģ§ãģ¯":442,"æµ":443,"ä¼ļ":444,"ãģ§ãģĤãĤĭ":445,"ãĥĵ":446,"æĻĤ":447,"ç¬":448,"ãģĦãģŁ":449,"ãģ¨ãģĹãģ¦":450,"åł´":451,"ãĥ¡":452,"é«":453,"ãĥ£":454,"ãĥĭ":455,"åľ°":456,"çĶ¨":457,"ãĤı":458,"ãĥ¥":459,"ãģĪ":460,"å¸Ĥ":461,"çĻº":462,"é«ĺ":463,"çĶŁ":464,"ï¼ļ":465,"ç¤":466,"ãĥĩ":467,"ä»£":468,"ãĤĵ":469,"ãĤ¨":470,"é§":471,"ä½ľ":472,"201":473,"ä¿":474,"ãĥĬ":475,"çļ":476,"æ²":477,"ç¬¬":478,"ãĤŃ":479,"æĪ¦":480,"éļ":481,"æ³":482,"èĩ":483,"ãĥł":484,"ãĤº":485,"åŃĲ":486,"ãģ«ãģ¯":487,"è©":488,"éģĵ":489,"ãĥģ":490,"ãĥĸ":491,"æĿ±":492,"ãģ«ãĤĪ":493,"å¿":494,"èĢħ":495,"å£":496,"æĪĲ":497,"åĳ":498,"çĶ°":499,"ãģł":500,"ĠĊ":501,"å¾Į":502,"ãģķãĤĮãģŁ":503,"å¥":504,"åĲį":505,"é§ħ":506,"åĲĮ":507,"ãĥ¼ãĥ«":508,"ãģ¡":509,"ãģ¨ãģª":510,"ãģ¦ãģĦãĤĭ":511,"éĸĵ":512,"å®ļ":513,"åĵ":514,"å±±":515,"æ¥Ń":516,"åŁ":517,"ãģªãģ©":518,"ç·ļ":519,"æĹ¥æľ¬":520,"äºĭ":521,"æł¡":522,"çĲ":523,"ãĤīãĤĮ":524,"åĪĨ":525,"ç«ĭ":526,"ķ·":527,"éĿ":528,"éķ·":529,"10":530,"æ¸":531,"ãģªãģĦ":532,"ç¤¾":533,"éĸĭ":534,"ä¹":535,"çŃ":536,"ãģ®è":537,"çľĮ":538,"çļĦ":539,"æĢ":540,"æ´":541,"ãĥŁ":542,"éł":543,"ãĥĳ":544,"æ©":545,"ãģ¿":546,"ãĤ§":547,"è³":548,"åħ¥":549,"åīį":550,"æĸ°":551,"èĩª":552,"æīĭ":553,"çŁ":554,"è»Ĭ":555,"èĪ":556,"å·Ŀ":557,"ç¾":558,"199":559,"ç¥":560,"åĴ":561,"ãĥĥãĤ¯":562,"éĢļ":563,"ãĥªãĥ¼":564,"å³":565,"çı":566,"åĴĮ":567,"è£":568,"è¿":569,"åĨħ":570,"ç©":571,"åĭķ":572,"è¨Ń":573,"æĸ¹":574,"åİ":575,"çī©":576,"ä¸»":577,"ãĤ»":578,"æīĢ":579,"ä¸ĭ":580,"ãĥ§":581,"ãģŁãĤģ":582,"è²":583,"ãĥĥãĥĪ":584,"å®¶":585,"çı¾":586,"ãģ¨ãģĦ":587,"ãĤ¿ãĥ¼":588,"éĩİ":589,"åħ¨":590,"ãĤ¬":591,"èŃ":592,"ãĥı":593,"å½ĵ":594,"æĬ":595,"ãĤ¹ãĥĪ":596,"ä¾":597,"ä½ĵ":598,"å³¶":599,"ç¶":600,"ãģĽ":601,"ä»¥":602,"å¹³":603,"åĮĸ":604,"æ¨":605,"æĮ":606,"ãĥĢ":607,"æ¼":608,"ãģ°":609,"çİ":610,"ãĥ³ãĤ°":611,"å°ı":612,"æ±":613,"éĸ¢":614,"åĽŀ":615,"åŃ¦æł¡":616,"ãģĹãģ¦ãģĦãĤĭ":617,"æĸĩ":618,"å²":619,"æİ":620,"åĪĿ":621,"ãĥ¢":622,"ä¸ĸ":623,"ãģ«ãģª":624,"ãģ§ãģĤ":625,"ãģĦãģ¦":626,"å¯¾":627,"ĠĠ":628,"çŃī":629,"ãĤ½":630,"ãĥ¼ãĥĪ":631,"æľĢ":632,"é¡":633,"çĶº":634,"ãģ¸":635,"ãĤĪãģĨ":636,"ãĢĢ":637,"çĽ®":638,"çĤ":639,"Ġ19":640,"ãĥĻ":641,"ãĥ¼ãĥł":642,"è¥":643,"ãģ¨ãģĦãģĨ":644,"è¡¨":645,"ç½":646,"ãģĺ":647,"ç¨":648,"å¤ļ":649,"å§":650,"åľ¨":651,"ãĤĤãģ®":652,"å»":653,"||":654,"00":655,"æ©Ł":656,"ãĥ³ãĥī":657,"çĲĨ":658,"ãĥĿ":659,"è¨ĺ":660,"ãĥį":661,"12":662,"è¦ĭ":663,"ãģķãĤĮãĤĭ":664,"åħ¬":665,"åº¦":666,"åı·":667,"ãģ¾ãģŁ":668,"åĮĹ":669,"æľŁ":670,"åĤ":671,"ãģ³":672,"èĥ":673,"å®Ł":674,"Ġ(":675,"ãģĿãģ®":676,"éĢģ":677,"18":678,"ä¸ī":679,"æµ·":680,"éģ¸":681,"ãĥ¯":682,"éŁ":683,"éĢ£":684,"åĭĿ":685,"ãĥľ":686,"è·":687,"èī":688,"äº¬":689,"è¥¿":690,"å¼ı":691,"ãĥİ":692,"è»į":693,"ãĥ¼ãĥī":694,"æ³ķ":695,"ãĤ±":696,"11":697,"ãĥĨãĥ¬":698,"èªŀ":699,"é¦":700,"ãĥ³ãĥĪ":701,"ãĤ¡":702,"åĮº":703,"æĦ":704,"ãģĵãģ®":705,"æŀ":706,"è¾":707,"çķª":708,"åĪ¶":709,"åİŁ":710,"æĺİ":711,"æĶ¾":712,"åģ":713,"åĬĽ":714,"ãģļ":715,"æĢ§":716,"ãĥ¼ãĤ¹":717,"çµĦ":718,"çĦ":719,"ãĥ©ãĤ¤":720,"çī¹":721,"ãĥĨãĥ¬ãĥĵ":722,"è«":723,"ä½į":724,"æķ°":725,"ãĥĦ":726,"åħĥ":727,"æķĻ":728,"ãĤıãĤĮ":729,"ãģ¾ãģ§":730,"æı":731,"éĺ":732,"åĢ":733,"å½¹":734,"çĶ»":735,"çł":736,"æ°´":737,"ä½¿":738,"éī":739,"ç¥ŀ":740,"æ®":741,"åĸ":742,"é£":743,"å¤ĸ":744,"æ§":745,"æ¼Ķ":746,"ãĤĴåı":747,"ãĤ´":748,"èµ":749,"éĥ½":750,"ç½®":751,"ãĥ´":752,"èº":753,"åĵģ":754,"æĽ¸":755,"åĦ":756,"ãĥĽ":757,"è¦ģ":758,"å·ŀ":759,"è¼":760,"æ²»":761,"éĿ¢":762,"éģĭ":763,"ãģ£ãģ¦ãģĦãĤĭ":764,"åĵ¡":765,"çĤ¹":766,"å£²":767,"çµĮ":768,"å¹´ãģ«":769,"èĤ":770,"ç³":771,"æĿĳ":772,"ãĤ®":773,"ãĤ·ãĥ§":774,"æº":775,"ï¼īãĢģ":776,"çĿ":777,"æ¬":778,"ãģķãĤĮãģ¦ãģĦãĤĭ":779,"éīĦ":780,"åħ±":781,"éĩĳ":782,"æĺŃ":783,"æ¯":784,"æĶ¿":785,"198":786,"ãĤ¶":787,"å¥³":788,"åĬł":789,"äºĮ":790,"æ°ĳ":791,"æŃ£":792,"ãĤ²":793,"éħ":794,"è§":795,"é¤":796,"å¤§åŃ¦":797,"ãģĮãģĤãĤĭ":798,"éĽ»":799,"èĥ½":800,"èĹ":801,"æŁ":802,"åįĹ":803,"çİĭ":804,"ãĤ¤ãĥ³":805,"æĿ¥":806,"æľ¨":807,"er":808,"è¨Ģ":809,"åĭĻ":810,"ãĥĶ":811,"èģ":812,"åı£":813,"ãģĵãĤĮ":814,"ãĥĩãĤ£":815,"ï¼īãĢĤ":816,"è¶":817,"ãĥĨãĤ£":818,"è·¯":819,"çµĲ":820,"âĢ":821,"ç§ĳ":822,"æĺŃåĴĮ":823,"æ°Ĺ":824,"ç®":825,"äº¤":826,"è©±":827,"ãĥļ":828,"èº«":829,"ãĥĹãĥŃ":830,"ãĤ¹ãĤ¿":831,"å½¢":832,"èĬ":833,"Ġ200":834,"éļĽ":835,"ãģ«ãĤĪãĤĬ":836,"å¤©":837,"å¤ī":838,"æĴ":839,"an":840,"ãģĴ":841,"ãģ§ãģį":842,"åĪ©":843,"ç©º":844,"ãģ«ãģĬ":845,"æĶ¾éĢģ":846,"åķ":847,"èĳ":848,"ãģĬãĤĬ":849,"ãĥªãĤ¢":850,"ãģ»":851,"çŁ¥":852,"ãĥĥãĥĹ":853,"éĽĨ":854,"æĽ²":855,"ç³»":856,"å·¥":857,"ç·¨":858,"ãģ¦ãģĦãģŁ":859,"æľī":860,"ãĥ¼ãĤº":861,"ãĥ¤":862,"æĭ":863,"çķĮ":864,"ãģ«ãĤĪãĤĭ":865,"çīĪ":866,"çĬ":867,"15":868,"ãĥ¼ãĤ¸":869,"ãĢģãĢĮ":870,"ãģĹãģ¦ãģĦãģŁ":871,"ãĥ³ãĤ¹":872,"éĮ":873,"çµĤ":874,"æ´»":875,"ä»ĺ":876,"æĥ":877,"åŀ":878,"ãĤĪãĤĬ":879,"åĽ£":880,"èĭ":881,"åĦª":882,"ãĥ¼ãĤ¯":883,"ãģĭãģ£ãģŁ":884,"ãĤ©":885,"ç¶ļ":886,"åºĥ":887,"ç´Ħ":888,"éĩį":889,"çĶ£":890,"åı°":891,"on":892,"ãĤį":893,"ä»»":894,"ä¸į":895,"æ¥½":896,"çĻ»":897,"åĪ¥":898,"ãģ®å¾":899,"å¢":900,"éĢ²":901,"éŁ³":902,"æĿ±äº¬":903,"ç¦":904,"å§ĭ":905,"åıĸ":906,"ãģ¨ãģªãģ£ãģŁ":907,"ãģĵãģ¨ãģĮ":908,"ä¿Ŀ":909,"é«ĺçŃī":910,"ãĥķãĤ¡":911,"ãģ§ãģĤãģ£ãģŁ":912,"ãĤ¢ãĥ«":913,"è¿ĳ":914,"ç¯":915,"ä¿¡":916,"çĽ¸":917,"è±":918,"ãģ¨ãģªãĤĭ":919,"åĲĳ":920,"ä»ĸ":921,"ç¾©":922,"ãģĿãĤĮ":923,"çĦ¡":924,"ãģ§ãĤĤ":925,"16":926,"æĶ¹":927,"ãģ¨ãĤĤ":928,"çĲĥ":929,"ãĢįï¼Ī":930,"ç±":931,"å¾Ĺ":932,"åŀĭ":933,"éĻ¢":934,"ãģĳãĤĭ":935,"æ¬¡":936,"ãĥĲãĤ¹":937,"ãĢľ":938,"ç§°":939,"17":940,"éĮ²":941,"ãģªãģı":942,"ãĤĮãĤĭ":943,"ç¾İ":944,"å£«":945,"in":946,"ãĤĴæĮ":947,"çĪ":948,"å¡":949,"æħ":950,"å²¡":951,"åı²":952,"197":953,"ç§»":954,"æµģ":955,"å¿ĥ":956,"èŃ°":957,"æľĿ":958,"æŃ¢":959,"30":960,"åŁŁ":961,"èĤ²":962,"çŁ³":963,"åĸ¶":964,"ãĤ·ãĥ§ãĥ³":965,"ãĥªãĤ«":966,"21":967,"æĮĩ":968,"å¤ª":969,"ãĤŃãĥ£":970,"ãĢħ":971,"ãģ«ãĤĪãģ£ãģ¦":972,"éĢł":973,"é¤¨":974,"æĿ¾":975,"ãĤ¸ãĥ£":976,"é«ĺçŃīåŃ¦æł¡":977,"ãĤīãĤĮãĤĭ":978,"äºķ":979,"é¦¬":980,"èª¬":981,"çµ±":982,"ĠS":983,"åŁİ":984,"å®ī":985,"éĥ¡":986,"éļĬ":987,"èĹ¤":988,"22":989,"ãĤ¿ãĤ¤":990,"ãģ¹":991,"ãĤĢ":992,"åı¤":993,"å®®":994,"æĿ¡":995,"çļĦãģª":996,"å´":997,"ãģ®ä¸Ģ":998,"ç¨®":999,"è³ŀ":1000,"ãģ«ãĤĤ":1001,"è»¢":1002,"è©¦":1003,"å±ŀ":1004,"çı¾åľ¨":1005,"ãĥ¼ãĥ³":1006,"è§£":1007,"çĽ´":1008,"æĻĤä»£":1009,"ä¸¡":1010,"ç¿":1011,"åĤĻ":1012,"è¨Ī":1013,"çĭ":1014,"ãĤ·ãĥ¥":1015,"çĶ±":1016,"æł¼":1017,"å±ĭ":1018,"ãĤĮãģŁ":1019,"ãĥĴ":1020,"åĳ¼":1021,"ãģ§ãģĤãĤĬ":1022,"ãģ®å¾Į":1023,"æ©ĭ":1024,"ç´Ģ":1025,"åľĴ":1026,"å¹³æĪĲ":1027,"åŃĺ":1028,"ãĤ·ãĥ£":1029,"æ¨©":1030,"éĥİ":1031,"çĶ·":1032,"ç·ı":1033,"ãģ«å¯¾":1034,"ãģ«ãģ¤":1035,"çĬ¶":1036,"æŃ¦":1037,"ãĢıï¼Ī":1038,"åħī":1039,"14":1040,"è¡ĵ":1041,"ãģĹãģĭ":1042,"æ±º":1043,"ãģ¨ãģ®":1044,"å»º":1045,"æ§ĺ":1046,"ãģĤãĤĬ":1047,"çģ":1048,"æĸ½":1049,"éĻį":1050,"ãĤ¯ãĥ©":1051,"è£½":1052,"ãĤĴåıĹ":1053,"Ġ201":1054,"åĥ":1055,"åºĹ":1056,"ç¸":1057,"åı¯":1058,"ãĥģãĥ£":1059,"èĦ":1060,"13":1061,"é¨":1062,"ãĤ¢ãĥ¡":1063,"æĴĥ":1064,"æĹ¥ãģ«":1065,"ãĥ¼ãĥĹ":1066,"ãĥ¥ãĥ¼":1067,"ä¹Ĺ":1068,"åŁº":1069,"ä½¿çĶ¨":1070,"éĸĢ":1071,"æ£":1072,"ä¼Ŀ":1073,"ãĤīãĤĮãģŁ":1074,"ä¸ĸçķĮ":1075,"éģ¸æīĭ":1076,"Ġç¬¬":1077,"æĬĢ":1078,"å¼ķ":1079,"ãĥ¼ãĥŀ":1080,"æ¹":1081,"ãģłãģ£ãģŁ":1082,"ãĤ¹ãĥĨ":1083,"æģ":1084,"ãĥķãĤ£":1085,"ãģ¶":1086,"æŃ´":1087,"ãģªãģĭãģ£ãģŁ":1088,"ãĥ¦":1089,"ãĤĴè¡Į":1090,"å±Ģ":1091,"en":1092,"éĢĢ":1093,"çĿĢ":1094,"åħĪ":1095,"ãĤ¢ãĥ¡ãĥªãĤ«":1096,"ç¦ı":1097,"ä¸ĩ":1098,"å°ĳ":1099,"æŃĮ":1100,"éĬ":1101,"ç®¡":1102,"åıĤ":1103,"ãģ®ä¸Ń":1104,"åĨį":1105,"åľŁ":1106,"èª¿":1107,"èı":1108,"éħį":1109,"25":1110,"ĠĠĠĠ":1111,"Ġï¼Ī":1112,"æĺł":1113,"åºľ":1114,"å¸¸":1115,"ãģĪãĤĭ":1116,"al":1117,"23":1118,"è£ħ":1119,"Ġå½¹":1120,"æ¡":1121,"ãģķãģĽ":1122,"æĦı":1123,"é¡Į":1124,"çĻºå£²":1125,"ĠãĢİ":1126,"æĪ¸":1127,"éīĦéģĵ":1128,"çļĦãģ«":1129,"or":1130,"ãģ«ãģĬãģĦãģ¦":1131,"æ¶":1132,"åģ´":1133,"ï½":1134,"°·":1135,"ä¼ļç¤¾":1136,"æīĵ":1137,"çľŁ":1138,"å´İ":1139,"æĶ¯":1140,"ãģĻãĤĭãģĵãģ¨":1141,"196":1142,"¢¨":1143,"ĠM":1144,"çķªçµĦ":1145,"ä½ı":1146,"ãģ¨ãģ¯":1147,"åĳ½":1148,"åıİ":1149,"åł±":1150,"ãģ«ãģ¤ãģĦãģ¦":1151,"è°·":1152,"å¹´ãģ®":1153,"ar":1154,"èªį":1155,"çłĶ":1156,"ĠC":1157,"æĹı":1158,"çĹ":1159,"åĻ":1160,"å¼·":1161,"çĻ»åł´":1162,"çĻ½":1163,"ãĥīãĥ©":1164,"ç¹":1165,"éĻ¸":1166,"ãģ®ãģ¿":1167,"ãģ«ãģªãģ£ãģŁ":1168,"æĸĻ":1169,"é¡ŀ":1170,"éľ":1171,"éĤ":1172,"é»":1173,"ãģ§ãģįãĤĭ":1174,"ĠT":1175,"è¡ĮãĤıãĤĮ":1176,"æ²³":1177,"Ġ199":1178,"éĺª":1179,"æĹ§":1180,"ä½Ĳ":1181,"ãĥ³ãĥĢ":1182,"èĲ":1183,"ãĤªãĥ³":1184,"åĿ":1185,"ãĥ©ãĥ³":1186,"ãģĤãģ£ãģŁ":1187,"åĲĦ":1188,"ãĥªãĤ¹":1189,"è«ĸ":1190,"çĽ£":1191,"ç¶Ļ":1192,"24":1193,"å®ĺ":1194,"éłĺ":1195,"æŃ»":1196,"ç¤º":1197,"ãĥ¼ãĥ©":1198,"åıį":1199,"éĢŁ":1200,"é£Ł":1201,"éŃ":1202,"æĽ´":1203,"åł´åĲĪ":1204,"æ·":1205,"æ§ĭ":1206,"èį":1207,"è¦³":1208,"éĻĲ":1209,"åħµ":1210,"åĪĹ":1211,"å¤ļãģı":1212,"ãģ«ãģªãĤĭ":1213,"ãĥĺ":1214,"ãĤ«ãĥ¼":1215,"at":1216,"æĺŁ":1217,"æ¤":1218,"ãĥ«ãĥĪ":1219,"ãĥ¼ãĥª":1220,"ç©¶":1221,"ãģĿãģ®å¾Į":1222,"åįĬ":1223,"æĽľ":1224,"è¬":1225,"åĲī":1226,"é¢¨":1227,"åĳ¨":1228,"ãģ²":1229,"éģĶ":1230,"è¦ı":1231,"ãģĹãģĭãģĹ":1232,"es":1233,"å½ĵæĻĤ":1234,"æļ":1235,"ãĤ°ãĥ©":1236,"ä½ľåĵģ":1237,"æ±Ł":1238,"ãĤģãģŁ":1239,"ãĥķãĤ©":1240,"èĢĥ":1241,"ãĥ¨":1242,"ãĤ·ãĤ¢":1243,"ç¢":1244,"åŃĹ":1245,"ãĥĥãĥī":1246,"å¾Įãģ«":1247,"BS":1248,"åķı":1249,"ç«¶":1250,"çłĶç©¶":1251,"ãĤ¼":1252,"èµ·":1253,"ĊĊ":1254,"ãģĳãģ¦":1255,"åº«":1256,"åĻ¨":1257,"ãģ«ãģĤãĤĭ":1258,"å¦":1259,"ãĢĢãĢĢ":1260,"èĳī":1261,"åĪ¤":1262,"éłŃ":1263,"ãĥªãĥ¼ãĤº":1264,"æĤ":1265,"å°Ĥ":1266,"ãĤ¸ãĤ§":1267,"ãĤĵãģ§":1268,"it":1269,"ãģ£ãģ¦ãģĦãģŁ":1270,"ãģķãĤĮãģ¦":1271,"ãĥ¬ãĥ¼":1272,"çĿ£":1273,"å¿ľ":1274,"å»ĥ":1275,"æĢ¥":1276,"ãĤģãĤĭ":1277,"éģİ":1278,"èī²":1279,"ãĥ©ãĥ¼":1280,"çĨ":1281,"ä¾ĭ":1282,"äºĪ":1283,"ãĥ¼ãĥĬ":1284,"ĠP":1285,"ãĤ¸ãĥ§":1286,"æĦĽ":1287,"ĠA":1288,"ç²":1289,"ãĥªãĥ¼ãĤ°":1290,"ãģ®æĶ":1291,"å¯º":1292,"åĪĩ":1293,"åıĬ":1294,"åŃĺåľ¨":1295,"ãĤĤãģĤãĤĭ":1296,"çķ°":1297,"è¦ª":1298,"èĭ±":1299,"åįĥ":1300,"ãģ¨åĳ¼":1301,"ĠãĢĮ":1302,"èī¯":1303,"åĽĽ":1304,"ãĤĴæĮģ":1305,"ãģĹãģĦ":1306,"âĨ":1307,"éĸĭå§ĭ":1308,"æ³ī":1309,"è¾¼":1310,"he":1311,"æµľ":1312,"è¡Ľ":1313,"ãĥĥãĤ¯ãĤ¹":1314,"ä»¶":1315,"ãģ§ãģ®":1316,"ãĤ·ãĥªãĥ¼ãĤº":1317,"ä¹ħ":1318,"éĽ¢":1319,"å®¢":1320,"ãģĳãģŁ":1321,"æŃ³":1322,"è¼ī":1323,"æ¸¯":1324,"å¤§ä¼ļ":1325,"è©¦åĲĪ":1326,"æĮģ":1327,"ãģ¨ãģĻãĤĭ":1328,"å·»":1329,"æľĪãģ«":1330,"æŀľ":1331,"åı¯èĥ½":1332,"ãĤĪãģĨãģ«":1333,"æºĸ":1334,"å½¼":1335,"éĺ²":1336,"å¾©":1337,"çĭ¬":1338,"ãĥ³ãĥĨ":1339,"50":1340,"Ġ198":1341,"éĩı":1342,"èĲ½":1343,"åķĨ":1344,"28":1345,"å°İ":1346,"26":1347,"ãģªãģĬ":1348,"éĿĴ":1349,"ãģĶ":1350,"èī¦":1351,"ãģªãĤĭ":1352,"æķĹ":1353,"ä¿Ĥ":1354,"åıĹ":1355,"å®Į":1356,"ol":1357,"ãĥĪãĥ«":1358,"çļĩ":1359,"27":1360,"ãĤģãģ¦":1361,"ãģ¨åĲĮ":1362,"ãģ®ãģŁãĤģ":1363,"ãĤµãĥ¼":1364,"ãĤµãĤ¤":1365,"åĳ³":1366,"åįĶ":1367,"ãĥ¬ãĤ¤":1368,"ãĥĸãĥ«":1369,"ãĤ·ãĥ¼ãĤº":1370,"æ»":1371,"æİ¥":1372,"é¨ĵ":1373,"äºī":1374,"ä»¤":1375,"æĥħ":1376,"ãģĲ":1377,"çĪ¶":1378,"ç´ļ":1379,"åĤ¬":1380,"åįģ":1381,"ãĥ¬ãĤ¹":1382,"ãģ®æŃ":1383,"æĹħ":1384,"åı¸":1385,"åĪ©çĶ¨":1386,"Ġå¤§":1387,"ç±³":1388,"çª":1389,"ãĤ·ãĥ¼ãĤºãĥ³":1390,"éĥ½å¸Ĥ":1391,"å®¤":1392,"ãĤĵãģł":1393,"ä¿®":1394,"ĠB":1395,"âĨĴ":1396,"ãĤ²ãĥ¼ãĥł":1397,"åĦªåĭĿ":1398,"åĲ«":1399,"ãĤ¦ãĤ§":1400,"ãĥĭãĤ¢":1401,"çĽ£çĿ£":1402,"äºĨ":1403,"ãĥķãĤ§":1404,"èĸ":1405,"ä»¥éĻį":1406,"å¿µ":1407,"ãģ®æĻ":1408,"ãģŁãģ¡":1409,"ä»£è¡¨":1410,"æķĻèĤ²":1411,"ãĥ¼ãĥĦ":1412,"ãģ®åľ":1413,"ãĥĬãĥ«":1414,"æŁ»":1415,"åħļ":1416,"èµ°":1417,"åĬĩ":1418,"åĨĨ":1419,"ãģŃ":1420,"ic":1421,"åĩºæ¼Ķ":1422,"æĻĤéĸĵ":1423,"è³ª":1424,"ãģĬãĤĪ":1425,"ãģĪãģŁ":1426,"æħĭ":1427,"ãĤĪãģĨãģª":1428,"å¸«":1429,"ãĥ¼ãĥģ":1430,"çį":1431,"ãģ«éĸ¢":1432,"ãĥĸãĥ©":1433,"èĪ¬":1434,"æĶ»":1435,"æ´¥":1436,"ãĤĮãģ°":1437,"è¶³":1438,"ç´ł":1439,"ãĥªãĥ³":1440,"çľĮç«ĭ":1441,"èĪª":1442,"ãĥ´ãĤ£":1443,"å¼µ":1444,"29":1445,"èŃ·":1446,"ãĥķãĥ©":1447,"Ġ/":1448,"éŁ¿":1449,"æ´ĭ":1450,"ãģĹãģ¾":1451,"ãĥ³ãĥĲ":1452,"å¿ħ":1453,"å¤īæĽ´":1454,"ãĤ»ãĥ³":1455,"å¤«":1456,"le":1457,"èĪ¹":1458,"æ²¢":1459,"åįĺ":1460,"å£°":1461,"çĴ":1462,"ãĥ³ãĥĩ":1463,"è³ĩ":1464,"æ½":1465,"å¤§ãģį":1466,"å®¹":1467,"åº§":1468,"ãĥŀãĥ³":1469,"ãĤ¯ãĥŃ":1470,"ãĤ³ãĥ³":1471,"ï½ŀ":1472,"ä¼Ĭ":1473,"ç¢º":1474,"ãĤ¹ãĥļ":1475,"å®³":1476,"ãĥģãĥ¼ãĥł":1477,"ä¹Ŀ":1478,"ãģ¸ãģ®":1479,"ä»ĭ":1480,"çİĩ":1481,"å¸Ŀ":1482,"èĬ±":1483,"ãĤ¤ãĥ«":1484,"çħ":1485,"ä¾Ľ":1486,"ãĥ³ãĤ¸":1487,"å¹´åº¦":1488,"ç¨ĭ":1489,"æ¨ª":1490,"åİ»":1491,"è¾º":1492,"å¤®":1493,"ä»Ĭ":1494,"è¨Ńç½®":1495,"å²©":1496,"éĹ":1497,"è¿°":1498,"æľ«":1499,"ãĤ¤ãĥĦ":1500,"ãģ®ãģ¯":1501,"æĲ":1502,"ãģ¨ãģªãĤĬ":1503,"ãĥ´ãĤ¡":1504,"ãģİ":1505,"çģ«":1506,"is":1507,"åħ«":1508,"ãĤīãĤĮãģ¦ãģĦãĤĭ":1509,"ãģ«åħ¥":1510,"ãģĬãĤĪãģ³":1511,"ãĤĥ":1512,"ä»¥ä¸Ĭ":1513,"æ´¾":1514,"ãģķãĤĮãģ¦ãģĦãģŁ":1515,"194":1516,"æŀĹ":1517,"ãģ®æĻĤ":1518,"Ġ3":1519,"æ¸©":1520,"ãĤ«ãĥ«":1521,"ãģªãģĮ":1522,"Ġ:":1523,"æĬķ":1524,"ro":1525,"2006":1526,"èĬ¸":1527,"ãģ®å½":1528,"2005":1529,"åĽ½éļĽ":1530,"ä¸ĢèĪ¬":1531,"ä¸İ":1532,"æ£®":1533,"ãĤ¹ãĤ¯":1534,"ãĤ¹ãĥĿ":1535,"ãģ«ãģĬãģĳãĤĭ":1536,"æ¸ħ":1537,"æ¸Ī":1538,"âĢ»":1539,"åĶ":1540,"ä»ķ":1541,"å¢Ĺ":1542,"å¹´ä»£":1543,"ãĢįãĢĮ":1544,"ãģĵãģ¨ãĤĴ":1545,"å°Ĩ":1546,"ãģªãģ©ãģ®":1547,"ãĢģãĢİ":1548,"æĺ¥":1549,"æĢĿ":1550,"æĸĩåĮĸ":1551,"ĠF":1552,"éĸ¢ä¿Ĥ":1553,"å¢ĥ":1554,"çĴ°":1555,"ãĥ³ãĥĶ":1556,"éłĥ":1557,"çķĻ":1558,"ãĤ¸ãĤª":1559,"ĠL":1560,"å¤ļãģĦ":1561,"å¿Ĺ":1562,"ãĤĨ":1563,"æłª":1564,"å°±":1565,"ĠãĤ¢":1566,"åĽ³":1567,"ĠD":1568,"åľ°åŁŁ":1569,"èģ·":1570,"ãĥĥãĥģ":1571,"ħå½ĵ":1572,"å¥½":1573,"èĩªåĭķ":1574,"ç±į":1575,"2007":1576,"éĸĭçĻº":1577,"æĺİæ²»":1578,"ãģ®åł":1579,"ãģ®å°":1580,"æ®º":1581,"æ´»åĭķ":1582,"ç«ł":1583,"èĮ":1584,"é£Ľ":1585,"ãĥ³ãĥĹ":1586,"çľģ":1587,"ion":1588,"ãĥīãĤ¤ãĥĦ":1589,"å®ĩ":1590,"å®Ī":1591,"çĻºè¡¨":1592,"ãģłãģĳ":1593,"ĠR":1594,"ãĥ¼ãĥĩ":1595,"31":1596,"é¦ĸ":1597,"ãģ¨ãģĹãģŁ":1598,"ä»¥ä¸ĭ":1599,"ãģĦãģªãģĦ":1600,"ãĤ½ãĥ³":1601,"å¤±":1602,"ĠI":1603,"195":1604,"2008":1605,"ä¼ģ":1606,"æ³¢":1607,"ãģ®åį":1608,"äºĭæ¥Ń":1609,"å¯Į":1610,"å¸¯":1611,"ãģĻãĤĭãģ¨":1612,"æ¶Ī":1613,"ãĤ¹ãĤ¿ãĥ¼":1614,"é»Ĵ":1615,"è±Ĭ":1616,"ä¾¡":1617,"ãĥ³ãĤ¿":1618,"åī²":1619,"å±ķ":1620,"éĻ¤":1621,"åģľ":1622,"å¾Įãģ®":1623,"å©":1624,"åħĲ":1625,"äºĶ":1626,"è©ķ":1627,"ãģķãĤī":1628,"åĭ¢":1629,"Ġ4":1630,"æºĲ":1631,"æĸŃ":1632,"å°¾":1633,"èĳĹ":1634,"ãģ®å¤§":1635,"éĹĺ":1636,"æį":1637,"å§Ķ":1638,"å¾³":1639,"ä¾¿":1640,"å¾¡":1641,"çĹħ":1642,"çł´":1643,"æŃ´åı²":1644,"ãĤ¦ãĤ£":1645,"æ¯į":1646,"è³Ģ":1647,"å¸°":1648,"é³":1649,"è¶Ĭ":1650,"ãģ¨åĳ¼ãģ°":1651,"ãģ®æī":1652,"æ¿":1653,"çĮ":1654,"éĸĭåĤ¬":1655,"ãĥ©ãĤ¯":1656,"ãģ®åľ°":1657,"2010":1658,"å¹´ãģ«ãģ¯":1659,"äººãģ®":1660,"ãģ®æķ":1661,"ä¸Ńå¤®":1662,"2000":1663,"ãĤ¤ãĤ¹":1664,"ãģ®åĨ":1665,"è¿½":1666,"ãĤ¥":1667,"ä½µ":1668,"ãĥ¼ãĥŃ":1669,"000":1670,"è±¡":1671,"ãģĭãģ¤":1672,"æ¦":1673,"éĩİçĲĥ":1674,"æ¢":1675,"JR":1676,"ãĥĭãĥ¥":1677,"ç¤¾ä¼ļ":1678,"ãĥķãĥĪ":1679,"è¨ĺéĮ²":1680,"ãĥ¼ãĥĵ":1681,"éº":1682,"ãĤ¦ãĥ³":1683,"ãģ¨ãģªãģ£ãģ¦ãģĦãĤĭ":1684,"ãĤªãĥª":1685,"ç§ĭ":1686,"åĳĬ":1687,"å¤ľ":1688,"å·®":1689,"å¾ĵ":1690,"åĲĮå¹´":1691,"åĬ©":1692,"ãĥīãĥ©ãĥŀ":1693,"åīµ":1694,"æ¸¡":1695,"ãĤ°ãĥ«":1696,"åĩºåł´":1697,"ãĤĮãģ¦":1698,"è¡Ĩ":1699,"æ¯Ķ":1700,"ãģĹãģŁãģĮ":1701,"ç¯ī":1702,"æĺłçĶ»":1703,"2004":1704,"éŁ³æ¥½":1705,"ãĤĩ":1706,"ãģ¨åħ±":1707,"åıĬãģ³":1708,"å»ĥæŃ¢":1709,"ä¸ŃåĽ½":1710,"è¦ĸ":1711,"å¤§éĺª":1712,"åĮ»":1713,"ãģįãģŁ":1714,"éĿŀ":1715,"IC":1716,"éģĵè·¯":1717,"æľª":1718,"ĊĠ":1719,"ãĥ³ãĥģ":1720,"èĶ":1721,"çµĤäºĨ":1722,"åĩºèº«":1723,"ãĥĩãĥ«":1724,"ãĥĻãĥ«":1725,"ãģªãĤī":1726,"ç©į":1727,"2009":1728,"éĬĢ":1729,"æ®ĭ":1730,"ç´°":1731,"ĠN":1732,"ãģ¼":1733,"æĻĤãģ«":1734,"åıĤåĬł":1735,"èģŀ":1736,"èĪİ":1737,"ãģ«ãģ¦":1738,"åįļ":1739,"æľĿæĹ¥":1740,"ä¸ĬãģĴ":1741,"éĽĦ":1742,"äººçī©":1743,"ãĥ¼ãĥ«ãĥī":1744,"ãģĪãģ¦":1745,"ãģªãģĮãĤī":1746,"åĪĬ":1747,"çĦ¶":1748,"æĥ³":1749,"100":1750,"ãģ®å¯":1751,"ãĤ¤ãĥĪ":1752,"åľ°æĸ¹":1753,"ãģ®åł´":1754,"ãĤĴæİ":1755,"ä½İ":1756,"åıĸãĤĬ":1757,"ä¼´":1758,"ãģ®åĩ":1759,"ãģĹãģı":1760,"2019":1761,"ãģ®åĲį":1762,"èµ¤":1763,"æĦŁ":1764,"st":1765,"èħ":1766,"ãĤ¨ãĥ«":1767,"è«¸":1768,"ä¸¸":1769,"ãģµ":1770,"ãģĭãĤīãģ¯":1771,"éĻ½":1772,"ĠE":1773,"è¾²":1774,"ãĥ¼ãĥĳ":1775,"éģĭè¡Į":1776,"TBS":1777,"ä¸ĸç´Ģ":1778,"ç¿Ĵ":1779,"ãĥķãĥ©ãĥ³ãĤ¹":1780,"å®Ĺ":1781,"ĠG":1782,"ãĥ¼ãĥĸ":1783,"ãģŁãģł":1784,"æ°¸":1785,"å¿ħè¦ģ":1786,"å¥Ī":1787,"è·¯ç·ļ":1788,"ãģ®åī":1789,"è¨³":1790,"ãĥŁãĥ¥":1791,"æĮĻ":1792,"å½±":1793,"å¹ķ":1794,"æĹ¥ãģ®":1795,"ãĤŃãĥ¼":1796,"2011":1797,"æıĽ":1798,"è²©":1799,"40":1800,"ãĥĲãĥ¼":1801,"ãģĮãģĤãĤĬ":1802,"ä¹ĭ":1803,"ãģ¥":1804,"ãĥ³ãģ®":1805,"æł¹":1806,"çŁŃ":1807,"æ¥µ":1808,"ãĤ¢ãĤ¤":1809,"æĿĲ":1810,"ãģĹãģ¦ãģĬãĤĬ":1811,"2012":1812,"ãģ¨ãĤĤãģ«":1813,"è¢":1814,"ãĥĽãĥ¼ãĥł":1815,"æ°ı":1816,"ãĤ¯ãĥĪ":1817,"ãģ¾ãĤĬ":1818,"äºĭä»¶":1819,"el":1820,"km":1821,"ãĥ¼ãĥķ":1822,"ãģ»ãģĭ":1823,"ãĤ¢ãĥĭ":1824,"èŃ¦":1825,"|-":1826,"åĢĭ":1827,"ä¼ĳ":1828,"ãĤ¢ãĥ«ãĥĲ":1829,"å¤ı":1830,"ãĥ¼ãĥĭ":1831,"ig":1832,"éĿ©":1833,"è©ŀ":1834,"èĻ":1835,"ãĥŃãĥ¼":1836,"ãģķãĤĵ":1837,"éĽ£":1838,"ãĤĴæĭ":1839,"æłªå¼ı":1840,"Ġ1":1841,"å¥ı":1842,"ãĥĪãĥ©":1843,"æ¦Ĥ":1844,"ãĥ¼ãĥĨ":1845,"äº¤éĢļ":1846,"ãģĨãģ¡":1847,"æī±":1848,"æµ·éģĵ":1849,"Ġ||":1850,"é¦Ļ":1851,"Ġ197":1852,"ãĤ¦ãĤ¹":1853,"ãģķãĤīãģ«":1854,"çµĮæ¸Ī":1855,"ãĤĴåıĸ":1856,"å»¶":1857,"ãĤĴè¦ĭ":1858,"èªŃ":1859,"ãģŀ":1860,"ãģłãģĮ":1861,"ä½įç½®":1862,"åºĥå³¶":1863,"ĠH":1864,"éģł":1865,"ãģ®å¥":1866,"çħ§":1867,"ãĥ©ãĥ³ãĥī":1868,"åĢī":1869,"ç§Ģ":1870,"å±ħ":1871,"è§Ĵ":1872,"HK":1873,"ãģ«å¯¾ãģĹãģ¦":1874,"åŃ¦èĢħ":1875,"èĪĪ":1876,"2003":1877,"åĥı":1878,"åıĭ":1879,"æıĲ":1880,"å¼ķãģį":1881,"å¥³åŃĲ":1882,"èĩªåĭķè»Ĭ":1883,"ç¥Ń":1884,"ãĤıãģĽ":1885,"2015":1886,"çĢ":1887,"ç¹Ķ":1888,"ãĤ¸ãĥ¥":1889,"ãĤ»ãĥ³ãĤ¿ãĥ¼":1890,"ãĤ¸ãĤ¢":1891,"é¤Ĭ":1892,"çķ¥":1893,"åłĤ":1894,"æ¯İ":1895,"ãĥ¼ãĥĲ":1896,"æ®µ":1897,"åħ¸":1898,"ãģĵãĤį":1899,"ãĤ«ãĥĥãĥĹ":1900,"æİĪ":1901,"ç®¡çĲĨ":1902,"éĩĮ":1903,"ãģĮçĻº":1904,"ãģ®é§ħ":1905,"ä¸Ńå¿ĥ":1906,"Ġ9":1907,"ãĥĭãĥ¼":1908,"æĸĩåº«":1909,"éİ":1910,"éģº":1911,"éģķ":1912,"ãĤĮãģ¦ãģĦãĤĭ":1913,"ãĤıãĤĮãĤĭ":1914,"re":1915,"äººãģĮ":1916,"ãĤ¢ãĥ³":1917,"æĸ½è¨Ń":1918,"2021":1919,"ĠW":1920,"åı³":1921,"ãĥŀãĤ¤":1922,"è²ł":1923,"åĽ½ãģ®":1924,"ãģ¨è¨Ģ":1925,"æĹ©":1926,"ãģŁãĤģãģ«":1927,"æºĢ":1928,"ãĥķãĤ¸":1929,"2014":1930,"of":1931,"2013":1932,"ou":1933,"ãģ®åĩº":1934,"æ¨Ļ":1935,"è¡Ĺ":1936,"ãģĿãģ®ä»ĸ":1937,"2020":1938,"åĸ¶æ¥Ń":1939,"æīĢå±ŀ":1940,"Ġ2":1941,"ä½ľæĽ²":1942,"æĻ®":1943,"èĭ¥":1944,"ãĢĪ":1945,"ãĢī":1946,"å²¸":1947,"ãĤ¢ãĥĬ":1948,"ç¸¾":1949,"ä¹Ŀå·ŀ":1950,"ç´Ļ":1951,"é«ĺæł¡":1952,"æĿ¿":1953,"ãģ«ç§»":1954,"å¹´ãģĭãĤī":1955,"åĿĤ":1956,"ãĤ¯ãĥ©ãĥĸ":1957,"ãĤĴæĬ":1958,"ä½ķ":1959,"è¬Ľ":1960,"è¨ĪçĶ»":1961,"ac":1962,"ãĥĢãĤ¤":1963,"å°Ħ":1964,"ãĥĹãĥ©":1965,"èĶµ":1966,"ãĤ¤ãĤ®":1967,"ãĤĴæ±":1968,"èĩªèº«":1969,"Ħı":1970,"åĽ²":1971,"åľ°åĮº":1972,"2016":1973,"çªģ":1974,"ä»¥å¤ĸ":1975,"è¨¼":1976,"æ³ģ":1977,"æ±ł":1978,"ãģªãĤĬ":1979,"ãĥįãĥĥãĥĪ":1980,"2002":1981,"çį²":1982,"è¨Ńç«ĭ":1983,"æłªå¼ıä¼ļç¤¾":1984,"åĲĮãģĺ":1985,"ãĤĭãģ¨":1986,"èĩªåĪĨ":1987,"è¨ĺå¿µ":1988,"60":1989,"Ġt":1990,"çī¹åĪ¥":1991,"ãģ»ãģ©":1992,"ãĤ¤ãĤ®ãĥªãĤ¹":1993,"éļİ":1994,"ãĥ©ãĤ¸ãĤª":1995,"åīĩ":1996,"è²©å£²":1997,"è£ľ":1998,"èĹ©":1999,"åĪ¶ä½ľ":2000,"éĢļãĤĬ":2001,"å§Ķåĵ¡":2002,"ä¸Ģéĥ¨":2003,"ãĤıãĤĬ":2004,"å·¦":2005,"ç¿Į":2006,"ãģ®å¼":2007,"æĤª":2008,"ãģĵãģĨ":2009,"ãĥ¶":2010,"æŃ©":2011,"2001":2012,"ãĥĬãĥ¼":2013,"ãģ«ä¼´":2014,"åģ¥":2015,"çµĲæŀľ":2016,"ç·ıåĲĪ":2017,"NHK":2018,"çĶŁæ´»":2019,"æĨ":2020,"ãĥŃãĤ·ãĤ¢":2021,"æĥħåł±":2022,"ç«¯":2023,"ãĥģãĤ§":2024,"åħ¨åĽ½":2025,"ãĤĴãĤĤ":2026,"è»Ĭä¸¡":2027,"æı´":2028,"æľĢçµĤ":2029,"ãģĮè¡ĮãĤıãĤĮ":2030,"ãĤ¹ãĤ³":2031,"ä¸Ģæĸ¹":2032,"æ©Łéĸ¢":2033,"ãĥĥãĥĳ":2034,"2022":2035,"2017":2036,"æķ´":2037,"ãģĵãĤĮãģ¯":2038,"ãĤĴè¡ĮãģĨ":2039,"èĢĥãģĪ":2040,"å°±ä»»":2041,"çĤº":2042,"ãĤ·ãĥ³ãĤ°":2043,"ãĢĤãĢĮ":2044,"æĽ¿":2045,"æ¨¡":2046,"ãģ®æĮ":2047,"ãĥŀãĥ«":2048,"å¸Ń":2049,"åįĴ":2050,"å¯Ħ":2051,"çİī":2052,"ãĤĭãģĵãģ¨":2053,"ãĥĲãĥ«":2054,"çĢ¬":2055,"ä¸ŃåŃ¦æł¡":2056,"ä¸»ç¾©":2057,"åĮĹæµ·éģĵ":2058,"ãĤ¹ãĥĿãĥ¼ãĥĦ":2059,"ãĥĪãĥª":2060,"ãģ®ãģ§":2061,"ãģ®ä¸Ģéĥ¨":2062,"æľĽ":2063,"ãģ®åĮ":2064,"ãĤ¢ãĥ«ãĥĲãĥł":2065,"å¯Ł":2066,"è¤":2067,"æ¤ľ":2068,"ãĤĴåĭĻ":2069,"è«ĩ":2070,"æĮĩå®ļ":2071,"æĵ":2072,"ãĥĲãĤ¤":2073,"åĪĿãģ®":2074,"2018":2075,"åĥį":2076,"çŃĸ":2077,"ãģŁãģłãģĹ":2078,"ãĤ·ãĥ¼":2079,"ç©ºæ¸¯":2080,"æĪ¦äºī":2081,"èªĮ":2082,"çĶ²":2083,"ãĤ·ãĥ£ãĥ«":2084,"é¹":2085,"ãĥ³ãĥĲãĥ¼":2086,"ãĤµãĥĥ":2087,"éŃĶ":2088,"ãģ®å·":2089,"ç¯Ģ":2090,"è¶ħ":2091,"æľŃ":2092,"æĳ":2093,"æ¡Ī":2094,"ãĤ¢ãĥĭãĥ¡":2095,"èĩ£":2096,"ç®Ĺ":2097,"èĢħãģĮ":2098,"ãģĭãĤīãģ®":2099,"è¿Ķ":2100,"å®¿":2101,"åĽ½éģĵ":2102,"è¡Ģ":2103,"å®Ŀ":2104,"Ġof":2105,"å¼¾":2106,"ãĤªãĥ¼":2107,"çī¹ãģ«":2108,"çĽĽ":2109,"æµ¦":2110,"å¸ĥ":2111,"å¹´éĸĵ":2112,"ãĥ³ãĥĳ":2113,"æ³¨":2114,"éĥ¨åĪĨ":2115,"ãĥĥãĤ·ãĥ¥":2116,"åĪĹè»Ĭ":2117,"ãģ®åĬ":2118,"å¼Ł":2119,"å¾Ĵ":2120,"çĸ":2121,"å®Łæĸ½":2122,"ãģĭãģ¤ãģ¦":2123,"åŃ¦éĥ¨":2124,"ãĥĵãĥ¥ãĥ¼":2125,"åħ¬åľĴ":2126,"èĪŀ":2127,"ãĥķãĤ¸ãĥĨãĥ¬ãĥĵ":2128,"ãģĵãģ¨ãģĭãĤī":2129,"æ¤į":2130,"é¹¿":2131,"è¨±":2132,"èŃĺ":2133,"ãģĹãģªãģĦ":2134,"ãģ«éĸ¢ãģĻãĤĭ":2135,"ER":2136,"35":2137,"ãģ¾ãģŁãģ¯":2138,"æ¸©æ³ī":2139,"ãĤĴåıĹãģĳ":2140,"åĩºçīĪ":2141,"ãĤ±ãĥĥãĥĪ":2142,"èĸ¬":2143,"èª²":2144,"ãģ«ãģ¤ãģĦãģ¦ãģ¯":2145,"ãĥªãĥ³ãĤ°":2146,"è·¡":2147,"ãĤ»ãĥ«":2148,"åĪĳ":2149,"as":2150,"ãĤĴåĲ«":2151,"ãĥ¼ãĥŁ":2152,"ãĥ¼ãĤ·ãĥ§ãĥ³":2153,"et":2154,"ãģ¨ãģĹãģ¦ãģ¯":2155,"ãģĦãģı":2156,"åį°":2157,"è¨Ńå®ļ":2158,"å©ļ":2159,"and":2160,"ãĥīãĥ«":2161,"ãĤĴæĮģãģ¤":2162,"ç¾¤":2163,"ãĤ¤ãĥ³ãĤ¿":2164,"ï¼Ŀ":2165,"ãģ¨ãģį":2166,"éļĽãģ«":2167,"çĨĬ":2168,"é«ĺéĢŁ":2169,"åķıé¡Į":2170,"ãģ¨åħ±ãģ«":2171,"çľĮéģĵ":2172,"IS":2173,"ãĥ³ãĤ¬":2174,"æĪ¿":2175,"çĬ¶æħĭ":2176,"Ġæĸ°":2177,"ç¾½":2178,"il":2179,"am":2180,"ç£":2181,"åĩ¦":2182,"ä»ĺãģĳ":2183,"ãĤīãģļ":2184,"åĬ¹":2185,"ãģĮãģĤãģ£ãģŁ":2186,"å£Ĭ":2187,"ä¹±":2188,"å¾´":2189,"ãģ®åĭ":2190,"ãĤŃãĥ£ãĥ©ãĤ¯":2191,"ãĤ°ãĥ«ãĥ¼ãĥĹ":2192,"æĹ¥æľ¬ãģ®":2193,"ç§ģ":2194,"åĬ´":2195,"å°ıåŃ¦æł¡":2196,"ãĥ¢ãĥĩãĥ«":2197,"æ¹¾":2198,"æľį":2199,"æ¹ĸ":2200,"ç²¾":2201,"ãĥıãĤ¤":2202,"ãĥ¼ãĤ¿ãĥ¼":2203,"ãģ®æ°":2204,"AN":2205,"ãĤ¢ãĥ¼":2206,"å½ĵåĪĿ":2207,"æĭħå½ĵ":2208,"çĽŁ":2209,"ç¬¬ä¸Ģ":2210,"ing":2211,"éĤ¦":2212,"ãĤ¯ãĥª":2213,"æ·±":2214,"ĠJ":2215,"çĨ±":2216,"äº¡":2217,"ãĤĤãģ®ãģ®":2218,"å¹¸":2219,"èģĸ":2220,"çį²å¾Ĺ":2221,"ãģ«ãģªãĤĬ":2222,"ãģ¾ãģ¾":2223,"éļ£":2224,"45":2225,"éł¼":2226,"éłħ":2227,"ĠO":2228,"ãģĸ":2229,"ãģ®åł´åĲĪ":2230,"ä¸ģ":2231,"åħĦ":2232,"çĴ°å¢ĥ":2233,"æĶ¿åºľ":2234,"ãĤ¾":2235,"åľ§":2236,"èĪªç©º":2237,"éĥ·":2238,"è²¡":2239,"æĬĢè¡ĵ":2240,"ãĥ¼ãĤ¿":2241,"ãĥ³ãĤ¯":2242,"éĢĶ":2243,"åıİéĮ²":2244,"åŃ¦çĶŁ":2245,"æĹħå®¢":2246,"ãĤĴçµĮ":2247,"äººéĸĵ":2248,"ãģĻãģ¹":2249,"çĶŁãģ¾":2250,"çł²":2251,"ä¸Ńãģ«":2252,"åĽ½åĨħ":2253,"å®Ļ":2254,"æĶ»æĴĥ":2255,"ãĥĮ":2256,"om":2257,"åº·":2258,"æ¦Ĥè¦ģ":2259,"åįĴæ¥Ń":2260,"ãĥĥãĤ°":2261,"çĽ¤":2262,"éłĨ":2263,"è¼¸":2264,"ãĥ³ãĥĩãĤ£":2265,"ãĤĩãģĨ":2266,"èµ·ãģĵ":2267,"ãĤ¹ãĤ«":2268,"åĬŁ":2269,"ãģ®å¯¾":2270,"ãĤ·ãĤ¹ãĥĨ":2271,"æ¨¹":2272,"ä¸ĥ":2273,"èĢħãģ®":2274,"Ġ196":2275,"çĻĤ":2276,"æ²¿":2277,"ãĤ·ãĤ¹ãĥĨãĥł":2278,"¡çĶ¨":2279,"é³¥":2280,"éħ¸":2281,"ãĥľãĥ¼ãĥ«":2282,"å¯Ĩ":2283,"Ġå°ı":2284,"åħ·":2285,"ent":2286,"éĢ±":2287,"ãģ¨åĳ¼ãģ°ãĤĮãĤĭ":2288,"ãģĵãĤĮãĤī":2289,"ãģ¡ãĤĥ":2290,"ãĤ·ãĤ§":2291,"ãĤµãĥ³":2292,"çĻ¾":2293,"éĸĭæ¥Ń":2294,"çĪĨ":2295,"ãģ§ãģ¯ãģªãģı":2296,"åł´æīĢ":2297,"ãģ¤ãģ®":2298,"ãĤ¹ãĥ¼ãĥĳ":2299,"ãģŀãĤĮ":2300,"æĻ¯":2301,"åĬĩåł´":2302,"ç¬¬äºĮ":2303,"å¡ļ":2304,"ãģ®æµ":2305,"å·¥æ¥Ń":2306,"å¾Įãģ¯":2307,"ãģĿãĤĮãģŀãĤĮ":2308,"=\"":2309,"éĸĵãģ«":2310,"ch":2311,"1999":2312,"38":2313,"ãĥĨãĥ¬ãĥĵæľĿæĹ¥":2314,"ãģ¨ãģ¨ãĤĤãģ«":2315,"å®ħ":2316,"åīįãģ«":2317,"æĶ¿æ²»":2318,"ãĤ½ãĥķãĥĪ":2319,"äº¬éĥ½":2320,"æī¿":2321,"ç«¹":2322,"èı¯":2323,"è¤ĩ":2324,"ãģ®ãģ¡":2325,"ãĥĹãĥ¬":2326,"ãĤĪãģĨãģ«ãģªãģ£ãģŁ":2327,"ãĥ¡ãĥ³ãĥĪ":2328,"éĿĻ":2329,"éģ©":2330,"ãģĵãģ¨ãģ§":2331,"é«ĺãģĦ":2332,"ãģŁãĤĬ":2333,"ãģĵãģ¨ãĤĤ":2334,"ãģ®ãģĮ":2335,"Ġ5":2336,"ï¼īãĢį":2337,"ĠĊĊ":2338,"Ġ18":2339,"ãĤ¢ãĤ¯":2340,"ãģĻãĤĭãģĵãģ¨ãģĮ":2341,"è¼ª":2342,"ãĥ¼ãĥĢ":2343,"åŃ«":2344,"ĠæĿ±":2345,"ç¦ıå²¡":2346,"34":2347,"ãģ§ãģ¯ãģªãģĦ":2348,"åħ±åĴĮ":2349,"èºį":2350,"ON":2351,"ä¸¦":2352,"æķµ":2353,"æ¸Ľ":2354,"1990":2355,"ãģ®åĳ":2356,"ãĥĨãĥ«":2357,"èįī":2358,"ãĤĴæı":2359,"ãģ®å±":2360,"ãģ®ãĤĤãģ®":2361,"éĻº":2362,"æ¼¢":2363,"åĳ¨è¾º":2364,"èĩªæ²»":2365,"åŃ¦ç§ĳ":2366,"ãĥ¼ãĥ¬":2367,"å®ĩå®Ļ":2368,"ãĢĢãĢĢãĢĢãĢĢ":2369,"II":2370,"é¾":2371,"æĺĩ":2372,"å»ºè¨Ń":2373,"ãĥĩãĤ¶":2374,"1998":2375,"ãĤŃãĥ£ãĥ©ãĤ¯ãĤ¿ãĥ¼":2376,"ãĥ³ãĥķ":2377,"åºģ":2378,"Ġ-ï¼ī":2379,"ãģ®è²":2380,"çĶŁçĶ£":2381,"ãģ£ãģ¦ãģĬãĤĬ":2382,"ãĥ¢ãĥ³":2383,"åĿĩ":2384,"çµ¶":2385,"æı®":2386,"éĽĳ":2387,"ãģ®ãĤĪãģĨãģ«":2388,"çī©èªŀ":2389,"ãģªãģ©ãģĮ":2390,"æķħ":2391,"å¤ªéĥİ":2392,"åĲĪãĤıãģĽ":2393,"ãĤ³ãĥŃ":2394,"ãģ®è£":2395,"åħŃ":2396,"åĲĪä½µ":2397,"37":2398,"äººåı£":2399,"æĮ¯":2400,"ãģĦãģ§":2401,"ãģ®æİ":2402,"æķ£":2403,"åĭĿåĪ©":2404,"ãĥªãĤ¹ãĥĪ":2405,"å¾ħ":2406,"æĬĹ":2407,"ãģ®ãĤĪãģĨãģª":2408,"ãģ®åº":2409,"ation":2410,"80":2411,"ĠĠĠĠĠĠĠĠ":2412,"é¾į":2413,"æĺĵ":2414,"èĢħãģ¯":2415,"ãģĭãģĳãģ¦":2416,"ç·¨æĪĲ":2417,"æľĢé«ĺ":2418,"BC":2419,"è£ģ":2420,"ãĤŃãĥ³ãĤ°":2421,"Ġm":2422,"çĽ¸æīĭ":2423,"FA":2424,"Ġ195":2425,"ed":2426,"ãĤĴçĻº":2427,"è»½":2428,"éĢĨ":2429,"åĨĻ":2430,"æ»ħ":2431,"Ġå±±":2432,"36":2433,"èĦ±":2434,"ãĥ¬ãĤ¯":2435,"éĸī":2436,"éļľ":2437,"ãĥ³ãĥĦ":2438,"çĩ":2439,"pan":2440,"å½¦":2441,"ãģ¨ãģĵãĤį":2442,"ï¼ī-":2443,"éģĭè»¢":2444,"ãĤĵãģ©":2445,"ĠV":2446,"æ¼«":2447,"ãĥ¼ãĥĨãĤ£":2448,"æ§ĭéĢł":2449,"åĢĴ":2450,"ãĤ¿ãĥ«":2451,"åĽº":2452,"éĢļå¸¸":2453,"é§Ĩ":2454,"ãģ«æĶ¹":2455,"ãĥ¼ãĥĵãĤ¹":2456,"æĪ»":2457,"è©©":2458,"åĽł":2459,"ãĥĵãĤ¢":2460,"èª¿æŁ»":2461,"33":2462,"æĵį":2463,"èĢģ":2464,"ãĥĽãĥ¼ãĥ«":2465,"Ġ6":2466,"iv":2467,"ï¼ı":2468,"ä»®":2469,"éĥ¨ãģ«":2470,"çµ¦":2471,"å²Ĳ":2472,"ãģĿãģĹãģ¦":2473,"ãĤĴå¾Ĺ":2474,"ãĤ«ãĥ¼ãĥī":2475,"ãĤµãĥ¼ãĥĵãĤ¹":2476,"ãĥ³ãĥĵ":2477,"ãĥ¡ãĥ³ãĥĲãĥ¼":2478,"æķĻæİĪ":2479,"æ±ºåĭĿ":2480,"ãĥ¯ãĤ¤":2481,"ãĤ¿ãĤ¤ãĥĪãĥ«":2482,"ãĥŃãĥĥãĤ¯":2483,"ĳç´Ħ":2484,"ãģ«ä¼´ãģĦ":2485,"ãģ¨åĲĮãģĺ":2486,"ãĥ¼ãģ®":2487,"1997":2488,"ĠK":2489,"ãĤµãĥĥãĤ«ãĥ¼":2490,"ãģ¨ãģķãĤĮãĤĭ":2491,"ãĥŃãĥ¼ãĥŀ":2492,"ç¬ĳ":2493,"ãģķãģĽãĤĭ":2494,"èĩ³":2495,"å¹Į":2496,"Ġ7":2497,"ãģĦãģ¯":2498,"åĸľ":2499,"ãģ«å¯¾ãģĻãĤĭ":2500,"å¹¹":2501,"ãĥ¼ãĥį":2502,"æľĪåı·":2503,"æĸ¹éĿ¢":2504,"å¤©çļĩ":2505,"ãĤīãĤĮãģ¦":2506,"éģĬ":2507,"å¨":2508,"32":2509,"éģĭåĭķ":2510,"è²»":2511,"æİ¨":2512,"ãģ®æĬ":2513,"39":2514,"å§Ķåĵ¡ä¼ļ":2515,"ãĤ¤ãĤ¿":2516,"æĸ°èģŀ":2517,"ç°":2518,"æ¨ªæµľ":2519,"å¸Ĥç«ĭ":2520,"âĢ¦":2521,"æĪ¦ãģ§":2522,"ãĤ¿ãĥ³":2523,"çĶ¨ãģĦ":2524,"ç½ª":2525,"åĢĻ":2526,"è²¨":2527,"us":2528,"ãģªãģ£ãģŁ":2529,"ãģ®ä¸»":2530,"å®£":2531,"æ±Ĥ":2532,"éĢ£ç¶ļ":2533,"ãģŁãĤĭ":2534,"çĬ¶æ³ģ":2535,"ãģ«ãģªãģ£ãģ¦ãģĦãĤĭ":2536,"ãĤĬãģ®":2537,"ãģ®å¸":2538,"ç«¶æĬĢ":2539,"ay":2540,"ãĤ¹ãģ®":2541,"ãĥ¬ãĥ³":2542,"é»Ħ":2543,"ãĤ¸ãĥ§ãĥ³":2544,"çŁ¢":2545,"æģµ":2546,"å¿ł":2547,"ĠæĹ¥æľ¬":2548,"ãģ®åīį":2549,"IN":2550,"å¾ĭ":2551,"æľĢãĤĤ":2552,"Ġä¸ī":2553,"æ¸¬":2554,"ä¼ļèŃ°":2555,"ãĥģãĥ¥":2556,"å¸ĿåĽ½":2557,"ä¸»ãģ«":2558,"ãĤĴçµĲ":2559,"åħ¼":2560,"éĺ¿":2561,"æĬľ":2562,"ãģ®ãĤ³":2563,"AT":2564,"ãģ®ä¸Ĭ":2565,"èĩªçĶ±":2566,"ãĥĹãĥŃãĥ¬ãĤ¹":2567,"åı¤å±ĭ":2568,"è¨ª":2569,"åĪĿãĤģãģ¦":2570,"BN":2571,"äºĭåĭĻ":2572,"ãĥĬãĤ¤":2573,"æľĢå¤§":2574,"åħ¨ãģ¦":2575,"ãĥ³ãĥĨãĤ£":2576,"ãĤĴéĢļ":2577,"ãģĻãĤĭãģŁãĤģ":2578,"1996":2579,"78":2580,"ãĥ´ãĤ§":2581,"ãĥĵãĥ¼":2582,"è²´":2583,"çı¾åľ¨ãģ®":2584,"ä¼ģæ¥Ń":2585,"çĽ®ãģ®":2586,"ç¥ŀç¤¾":2587,"ãĥĵãĥ«":2588,"åįł":2589,"è¦³åħī":2590,"ãĥ¨ãĥ¼ãĥŃ":2591,"åĺ":2592,"å¸¸ãģ«":2593,"åĲĳãģĳ":2594,"un":2595,"ãĥ³ãĥį":2596,"é®":2597,"æĲº":2598,"è¢«":2599,"å¹³åĿĩ":2600,"ŀľ":2601,"èĥĮ":2602,"ãĥĩãĤ¶ãĤ¤ãĥ³":2603,"æľ¬ç·ļ":2604,"çĻ»åł´ãģĻãĤĭ":2605,"ãĤĴéĸĭå§ĭ":2606,"ä»²":2607,"th":2608,"ãģ¾ãģ§ãģ¯":2609,"ãģ«åĩº":2610,"ä¹ĹãĤĬ":2611,"éģ¸æīĭæ¨©":2612,"1995":2613,"ĠãĤ¨":2614,"æ§ĭæĪĲ":2615,"éĥ¨éļĬ":2616,"de":2617,"ãģ®æĦı":2618,"ãĤ®ãĥ¥":2619,"ä»ĸãģ®":2620,"ä¼¼":2621,"éĪ":2622,"ãĥ¨ãĥ¼ãĥŃãĥĥãĥĳ":2623,"ãĥĸãĥª":2624,"éľĩ":2625,"æĹ¥æľ¬ãĥĨãĥ¬ãĥĵ":2626,"ãģ®å»":2627,"Ġ\"":2628,"ãĥ³ãĥŀ":2629,"ãĥĹãĥª":2630,"ç¥ĸ":2631,"æŀļ":2632,"åįĶä¼ļ":2633,"çµµ":2634,"éģ¸æĮĻ":2635,"æĭł":2636,"å¥³æĢ§":2637,"ãģĭãģĳ":2638,"ä¼ģçĶ»":2639,"Ġä¸Ń":2640,"ãģĮåĩº":2641,"çĲĨçĶ±":2642,"ãĥ¯ãĥ¼ãĥ«ãĥī":2643,"ãģķãģĽãģŁ":2644,"ä»ģ":2645,"æĿī":2646,"ãĤ¦ãĤ©":2647,"ãĥ¼ãĥĬãĥ¼":2648,"å¤§ãģįãģª":2649,"ãģ®ãĤ¢":2650,"åĬĽãĤĴ":2651,"çµĦç¹Ķ":2652,"çĭ¬ç«ĭ":2653,"ãģ«ãģĤ":2654,"ãģ¨ãģĹ":2655,"ãģ¨ãģĦãģ£ãģŁ":2656,"ãĥķãĥ«":2657,"ST":2658,"ç·ł":2659,"å¤§æŃ£":2660,"1994":2661,"ãĤħ":2662,"ï¼īï¼Ī":2663,"ĠU":2664,"ãĥ¼ãĥªãĥ¼":2665,"ç§ĳåŃ¦":2666,"ãĥĥãĥĦ":2667,"åĲįåı¤å±ĭ":2668,"çī¹å¾´":2669,"çĶ£æ¥Ń":2670,"ãĤ´ãĥ¼ãĥ«":2671,"ãģ¾ãģ£ãģŁ":2672,"ãĥ³ãģ¯":2673,"Ġ10":2674,"ãģĹãģ°":2675,"ãģªãģ©ãĤĴ":2676,"åīįãģ®":2677,"çĹħéĻ¢":2678,"æ¿Ģ":2679,"çµĦãģ¿":2680,"çĦ¼":2681,"ãĥ©ãĤ¤ãĥĸ":2682,"ãĤ¯ãĤ¹":2683,"AR":2684,"åī¯":2685,"åĽ½å®¶":2686,"ãģ»ãģ¨":2687,"ãģ®æĺ":2688,"å¹ħ":2689,"åĲĪè¡Ĩ":2690,"çĽ®çļĦ":2691,"åħ¬éĸĭ":2692,"ãģķãĤĮãģ¦ãģĬãĤĬ":2693,"ãĤīãģĭ":2694,"è¡¨è¨ĺ":2695,"ãĤĴæĮĩ":2696,"æ±ŁæĪ¸":2697,"ãĥ¼ãĥĩãĤ£":2698,"Ġ8":2699,"ãģ®äºº":2700,"éļĨ":2701,"Ġãĥŀ":2702,"ãģ®å¥³":2703,"ãĤĴåĩº":2704,"æłĦ":2705,"éĽª":2706,"48":2707,"ç·´":2708,"ãģĵãģ¨ãģ¯":2709,"è©ķä¾¡":2710,"å¦»":2711,"å®ĮæĪĲ":2712,"ãĢīï¼ī":2713,"âĺ":2714,"éĽ»æ°Ĺ":2715,"æĿ±äº¬éĥ½":2716,"ãĤĴä½¿çĶ¨":2717,"ãģ§ãģĤãĤĭãģĮ":2718,"ãĤ³ãĥ¼ãĤ¹":2719,"ä¸ģçĽ®":2720,"åºŃ":2721,"ãģ«ãģĹãģŁ":2722,"ãĢĤãĢİ":2723,"ãĥ¼ãĥĪãĥ«":2724,"ãģ®æĪ¦":2725,"ãģ«å°±ä»»":2726,"ãĥ³ãĥĸ":2727,"æ©Łèĥ½":2728,"||||":2729,"1980":2730,"è¸":2731,"ãĤ¦ãĥ«":2732,"ãģĿãģĨ":2733,"ãĥįãĥ«":2734,"åĪĩãĤĬ":2735,"ãģ®å§":2736,"ãĥ³ãĥľ":2737,"çŃĨ":2738,"åħ¥ãĤĬ":2739,"ãĥĪãĥŃ":2740,"ãģ«åĪĨ":2741,"ãģ«å¤īæĽ´":2742,"åĪĿæľŁ":2743,"å¡ģ":2744,"ãģ»ãģ¨ãĤĵãģ©":2745,"åĢ¤":2746,"æĻ®éĢļ":2747,"éĢļä¿¡":2748,"ãģ¾ãģ§ãģ®":2749,"èĭ±èªŀ":2750,"éŁĵ":2751,"ä»Ļ":2752,"ãģ®æ´":2753,"å°İåħ¥":2754,"çķ°ãģªãĤĭ":2755,"!!":2756,"éĸ¢éĢ£":2757,"æ±ºå®ļ":2758,"ãĤ¹ãĥĳ":2759,"ãģ®åŃĲ":2760,"å¼ĺ":2761,"ãģ«å¯¾ãģĹ":2762,"ur":2763,"ãĥĹãĥŃãĥĩ":2764,"ãģ®å°ı":2765,"æįķ":2766,"FC":2767,"ãĤ·ãĥ³":2768,"è¦ļ":2769,"åĤ·":2770,"ãĤ¤ãĤ¿ãĥªãĤ¢":2771,"ãĤĴéĻ¤":2772,"åĪ¸":2773,"ä¼¸":2774,"ãĤĴä¸Ńå¿ĥ":2775,"ãģ®æīĭ":2776,"ãģĺãģ¦":2777,"æĸ°æ½":2778,"è©¦é¨ĵ":2779,"çķªåı·":2780,"åŃ£":2781,"ä½ľè©ŀ":2782,"ãĤ¶ãĥ¼":2783,"ãģĹãģ¾ãģĨ":2784,"å¼ķéĢĢ":2785,"ãģ®æĢ":2786,"çīĩ":2787,"ãĥĪãĥ¬":2788,"é§ħåīį":2789,"ãĥķãĥ¬":2790,"ç¯Ħ":2791,"åĸĦ":2792,"éĢ£éĤ¦":2793,"è¦§":2794,"Ġthe":2795,"æĪĲç¸¾":2796,"éº»":2797,"ãĤ¹ãĥĨãĤ£":2798,"ä¸Ńç¶Ļ":2799,"ãĤªãĥ¼ãĥĹ":2800,"åĨħãģ®":2801,"âĹ":2802,"æĪĳ":2803,"ãģ®åŁ":2804,"ãĥªãĤª":2805,"åħ¥ãĤĮ":2806,"ãĤĴæŀľ":2807,"åŁºæľ¬":2808,"ãģĭãĤĬ":2809,"çµ±éłĺ":2810,"åŃĺåľ¨ãģĻãĤĭ":2811,"éĪ´":2812,"éĬĥ":2813,"ws":2814,"éģĭåĸ¶":2815,"è¦ıæ¨¡":2816,"å®Įåħ¨":2817,"ç¨ĭåº¦":2818,"åĲĽ":2819,"ãĤĴæŀľãģŁ":2820,"Ġé«ĺ":2821,"å¹¼":2822,"çı¾åľ¨ãģ¯":2823,"éģİåİ»":2824,"ãģ®åĨħ":2825,"æĸ¹æ³ķ":2826,"æİĽ":2827,"äºĪå®ļ":2828,"ãĤĴæ±º":2829,"ãĤĴä½¿":2830,"70":2831,"ãĥķãĤ¡ãĤ¤":2832,"æľŁéĸĵ":2833,"æĹħå®¢éīĦéģĵ":2834,"è¥²":2835,"ãģ®çĻº":2836,"ãģ§ãģįãģªãģĦ":2837,"æīĵãģ¡":2838,"è¡ĮæĶ¿":2839,"ãģĪãģ°":2840,"éĩįè¦ģ":2841,"ç«¥":2842,"é¨İ":2843,"åįĥèĳī":2844,"ãĤıãĤĮãģŁ":2845,"å±¤":2846,"ãĤıãĤĭ":2847,"ĠåĪĿ":2848,"ç«ľ":2849,"ãĤ¹ãĥ©":2850,"ãģ¡ãĤĥãĤĵ":2851,"190":2852,"äºĴ":2853,"ãĤįãģĨ":2854,"ãĤĴåıĹãģĳãģŁ":2855,"ãĤŃãĥ¥":2856,"ãĤ¢ãĥ¡ãĥªãĤ«åĲĪè¡Ĩ":2857,"ãģ®ãģĨãģ¡":2858,"èªķ":2859,"è«ĭ":2860,"å¤§ãģįãģı":2861,"é¶":2862,"ãģ®æĮĩ":2863,"éłĪ":2864,"å°ıèª¬":2865,"éĢ£åĲĪ":2866,"©Ł":2867,"ÃĹ":2868,"åĨħãģ«":2869,"çģ½":2870,"OR":2871,"ãĥ¼ãĥİ":2872,"å¥ĳç´Ħ":2873,"ãĤ¦ãĥ³ãĥī":2874,"å¤¢":2875,"éľ²":2876,"90":2877,"è¡ĮãĤıãĤĮãģŁ":2878,"ãģ§ãģĤãģ£ãģŁãģĮ":2879,"çı¾ä»£":2880,"æľŃå¹Į":2881,"ãĤ¹ãĥļãĤ·ãĥ£ãĥ«":2882,"åĲįç§°":2883,"Ġè¥¿":2884,"çłĤ":2885,"å°ĤçĶ¨":2886,"ç³»åĪĹ":2887,"ãģĿãģĵ":2888,"å¥ª":2889,"åħ¬å¼ı":2890,"æİ¢":2891,"ãĢıãĢİ":2892,"åĬ´åĥį":2893,"ãĢĲ":2894,"ãĢĳ":2895,"Ńè¼ī":2896,"éĥ¨ãģ®":2897,"1993":2898,"1989":2899,"å·¡":2900,"ãĥ©ãĤ¹":2901,"é¡į":2902,"æ²¼":2903,"èĦļ":2904,"åĸ¶æ¥ŃæīĢ":2905,"ãĤĪãĤĬãĤĤ":2906,"è¡¨ç¤º":2907,"é®®":2908,"CM":2909,"ãģĦãģ«":2910,"åĨįãģ³":2911,"åĽ£ä½ĵ":2912,"æĽľæĹ¥":2913,"å¹´ãģ¯":2914,"ãĥĩãĥĵãĥ¥ãĥ¼":2915,"ãĤ¨ãĥ³ãĤ¸":2916,"è£ı":2917,"1992":2918,"è£½éĢł":2919,"çĮ®":2920,"ãģĦãģļ":2921,"ãģ®æ¨":2922,"ãĥĲãĥ©":2923,"ãĤ³ãĥ¼ãĥī":2924,"ç´Ģåħĥ":2925,"é¡Ķ":2926,"æıı":2927,"ãģĹãģ¦ãģĦãģŁãģĮ":2928,"47":2929,"ãĤ·ãĥ³ãĤ°ãĥ«":2930,"äººãģ¯":2931,"ãĥĩãĤ£ãĤ¢":2932,"ä¸ĺ":2933,"âĢķ":2934,"ãĥ¼ãĥľ":2935,"æķ·":2936,"ãĤ¦ãĥł":2937,"åĦĦ":2938,"ãĥĻãĥ¼ãĤ¹":2939,"è²·":2940,"ãģ«ãģĬãģĦãģ¦ãģ¯":2941,"å°ĤéĸĢ":2942,"1991":2943,"ãĤĴåıĸãĤĬ":2944,"ãĥ¬ãĥ¼ãĤ¹":2945,"ç·¨åħ¥":2946,"éª":2947,"æĽ¹":2948,"ãģĻãģ¹ãģ¦":2949,"ãĥ¼ãĤ«ãĥ¼":2950,"Ġä¸Ĭ":2951,"èĩ¨":2952,"ter":2953,"æĻĤæľŁ":2954,"ãģ®ãģŁãĤģãģ«":2955,"ãĤ¤ãĥĻ":2956,"ãģ®å¿":2957,"ç´¹":2958,"ãĥīãĥª":2959,"ãģ¾ãĤĭ":2960,"ãĥ¼ãĥĻ":2961,"è¨İ":2962,"ãĤĴåĲ«ãĤĢ":2963,"éĽ²":2964,"ãĥ´ãĤ©":2965,"ãĥĲãĥ³ãĥī":2966,"ĠãĤ«":2967,"ãĥĻãĤ¹ãĥĪ":2968,"Ġãģ¯":2969,"ç§»ç±į":2970,"æ®¿":2971,"ãĥĪãĤ¥":2972,"å¼ģ":2973,"ãģĺãģŁ":2974,"ç¨²":2975,"CD":2976,"å¡©":2977,"55":2978,"ãĥ³ãĥįãĥ«":2979,"ãĥķãĥŃ":2980,"å¤ļæķ°":2981,"è©³":2982,"ç³»çµ±":2983,"ãĥ¼ãĥ©ãĥ³ãĥī":2984,"ãģĦãģŁãĤģ":2985,"ãģ®å½±":2986,"ãģıãĤĭ":2987,"æĪĲåĬŁ":2988,"èĩªãĤī":2989,"éĻĲå®ļ":2990,"åŃ¦åľĴ":2991,"ãĥĭãĥ¥ãĥ¼":2992,"Ġ12":2993,"ãĤĴçĶ¨":2994,"æĹ¥ãģĭãĤī":2995,"ãģ®æ§":2996,"ra":2997,"ãģ¸ãģ¨":2998,"ãĤĴä½ľ":2999,"æģĭ":3000,"ãģ¤ãģĭ":3001,"åĲĮæ§ĺ":3002,"ãĥĳãĥ³":3003,"èĩªçĦ¶":3004,"ãĤ¯ãĥ«":3005,"æ¼«çĶ»":3006,"ä»¥ä¸ĭãģ®":3007,"ãĥģãĥ£ãĥ³ãĥĶ":3008,"ãĤ¹ãĥĪãĥ©":3009,"è¿İ":3010,"å¾ĹçĤ¹":3011,"éľĬ":3012,"æ²ĸ":3013,"åĽ½æ°ĳ":3014,"ãģ®ä¸ĭ":3015,"ãĤĴä¸İ":3016,"å¥¥":3017,"ãģ¨æĢĿ":3018,"ç¾İè¡ĵ":3019,"èŃ°ä¼ļ":3020,"åħį":3021,"ãģ«åĬł":3022,"ç«ĭãģ¡":3023,"çĻ»éĮ²":3024,"ãĥ¦ãĥĭ":3025,"æĻº":3026,"ãĥĹãĥ¬ãĤ¤":3027,"ãģĹãģŁãĤĤãģ®":3028,"å·¥åł´":3029,"44":3030,"ãĥ¡ãĥ¼ãĥĪãĥ«":3031,"ãĤ´ãĥ«":3032,"éŃļ":3033,"te":3034,"ãģ¨ãģĨ":3035,"å·¨":3036,"éħĴ":3037,"åħ±åĴĮåĽ½":3038,"æģ¯":3039,"ãĤĦãģĻ":3040,"å½ĵæĻĤãģ®":3041,"ä¸Ńãģ®":3042,"èĮ¶":3043,"åŃĲãģ®":3044,"ãĥ³ãģĮ":3045,"ãģĵãģĵ":3046,"èĤī":3047,"çĹĩ":3048,"ï¼ģ":3049,"çī§":3050,"ä¹Ł":3051,"æŁĵ":3052,"å¤ļãģıãģ®":3053,"æĸĩåŃ¦":3054,"cm":3055,"ç§ĺ":3056,"æĬĺ":3057,"ãĤīãģªãģĦ":3058,"ers":3059,"åĵ²":3060,"ç¦ģ":3061,"èªķçĶŁ":3062,"å¤§çµ±éłĺ":3063,"ãģĽãĤĭ":3064,"49":3065,"å®ļæľŁ":3066,"ãĥŁãĥ¥ãĥ¼ãĤ¸":3067,"è£½ä½ľ":3068,"éĸ£":3069,"ç·¨æĽ²":3070,"HE":3071,"ãĢįãĢģ":3072,"å·¥äºĭ":3073,"ãĤ¦ãĥ³ãĤµãĥ¼":3074,"æĿ¡ç´Ħ":3075,"èį·":3076,"èĨ":3077,"ãģ¨èĢĥãģĪ":3078,"çµĲå©ļ":3079,"ãĤĴçį²å¾Ĺ":3080,"ãĥ¼ãĥ´":3081,"ãĤ«ãĥª":3082,"ãĥģãĥ£ãĥ³ãĥĶãĤªãĥ³":3083,"ï¼īãĥ»":3084,"ãģ®æģ":3085,"ãģ®æĽ":3086,"æĸ¹å¼ı":3087,"ãģ®å½±éŁ¿":3088,"ä»ı":3089,"çĶ±æĿ¥":3090,"ãģĮå¤ļãģĦ":3091,"ãģĳãĤĮãģ°":3092,"å½±éŁ¿":3093,"æľĪãģ®":3094,"ãĥľãĥ¼":3095,"ãģ«ãģ¨":3096,"åľı":3097,"ãģªãģ©ãģ§":3098,"åĪ¶åº¦":3099,"ãĤıãģ£ãģŁ":3100,"TV":3101,"ãĥĳãĥ¼":3102,"çļĦãģ«ãģ¯":3103,"çĶŁçī©":3104,"Ġ2005":3105,"æĪ¦éĹĺ":3106,"æ´»èºį":3107,"Ġand":3108,"éĻ£":3109,"æĪĲç«ĭ":3110,"åŁ·":3111,"åİļ":3112,"åħ¨ä½ĵ":3113,"æµ·è»į":3114,"ãģĭãģª":3115,"ä»¥åīį":3116,"ãģ®å®Ł":3117,"ç´Ķ":3118,"ç¨İ":3119,"å§¿":3120,"ãĤĴè¡Įãģ£ãģŁ":3121,"æ¹¯":3122,"ä»£çĽ®":3123,"ãĤ¢ãĤ¦":3124,"âĹĭ":3125,"ãģ®åİ":3126,"é£Ľè¡Į":3127,"æ²¹":3128,"ç°¡":3129,"ãģ®æł":3130,"ç«¶é¦¬":3131,"éĸĵãģ®":3132,"éĢĥ":3133,"ãģĦãģļãĤĮ":3134,"èĦĪ":3135,"ãģ©ãģĨ":3136,"ãģĻãĤĭãģĮ":3137,"ä¹Ĺè»Ĭ":3138,"éķ·éĩİ":3139,"ãĥ³ãĥĢãĥ¼":3140,"ãģ²ãģ¨":3141,"AS":3142,"ãĤ¢ãĤ¸ãĤ¢":3143,"ãĤ¢ãĥĬãĤ¦ãĥ³ãĤµãĥ¼":3144,"46":3145,"ä¸ĬãģĮ":3146,"èŃ¦å¯Ł":3147,"éª¨":3148,"è¾¼ãģ¿":3149,"æĨ²":3150,"ĠãĤ³":3151,"éĬĢè¡Į":3152,"éĭ":3153,"ãģĦãģ£ãģŁ":3154,"èªįãĤģ":3155,"èĮĤ":3156,"ãĤ¤ãĥĻãĥ³ãĥĪ":3157,"ãģ»ãģ¼":3158,"ãģ®ä¸Ńãģ§":3159,"åĪ»":3160,"åĨ¬":3161,"ãĤĴåıĤ":3162,"æļ´":3163,"æ¬§":3164,"ãĥĭãĥ¥ãĥ¼ãĤ¹":3165,"ãģĭãĤĮãģŁ":3166,"ãģ®åķ":3167,"ãĥĢãĥ¼":3168,"ãĥŁãĥ¼":3169,"çµĮçĶ±":3170,"ãĤ¹ãĥĨãĥ¼ãĤ¸":3171,"æŁ³":3172,"ç¨®é¡ŀ":3173,"ign":3174,"ãģĵãģ¨ãģĮãģ§ãģįãĤĭ":3175,"æ¾":3176,"um":3177,"ãĤ°ãĥ¬":3178,"ãģ®ä¸Ģãģ¤":3179,"ãĢĤï¼Ī":3180,"ãĤ¯ãĥ¬":3181,"ãģĵãģ¨ãĤĤãģĤãĤĭ":3182,"åħ±åĲĮ":3183,"ãģĵãĤĮãĤĴ":3184,"ãģ«åĲĳ":3185,"ãĥ©ãĤ¤ãĥĪ":3186,"æ¡ľ":3187,"æķĳ":3188,"ãĤĴç¤º":3189,"äººåħ¬":3190,"åĨ·":3191,"ĠãĤª":3192,"å¤§æĪ¦":3193,"æĸ°ãģŁ":3194,"ãĤĴçµĮãģ¦":3195,"æħ¶":3196,"è¿°ãģ¹":3197,"æĸĩåŃĹ":3198,"çĬ¯":3199,"ãĤ¿ãĤ¤ãĥĹ":3200,"ä¸ĩåĨĨ":3201,"ĿéĽ¢":3202,"æ¯Ľ":3203,"ãĥķãĤ¡ãĥ³":3204,"ĠãģĬ":3205,"çĶ³":3206,"çµĮåĸ¶":3207,"ãģ¶ãĤĬ":3208,"ag":3209,"ãĤĴæ®":3210,"åıĹãģĳ":3211,"åĲįãģ¯":3212,"çĨĬæľ¬":3213,"ir":3214,"ãĤĴæľī":3215,"çŃĶ":3216,"ãģ®èĪ":3217,"åĲ¦":3218,"ãĤ«ãĥ©":3219,"2023":3220,"æ³ķäºº":3221,"èģ´":3222,"ãģłãģ£ãģŁãģĮ":3223,"ãģ®æķĻ":3224,"å¶":3225,"ãģ®å£":3226,"å»ºç¯ī":3227,"ãĤĵãģª":3228,"ãĥģãĥ§":3229,"åĲ¸":3230,"ãģľ":3231,"ç¶Ń":3232,"åĨħå®¹":3233,"å¹´ãģ¾ãģ§":3234,"ãģĤãĤĭãģĦãģ¯":3235,"æĮĩå°İ":3236,"ãĥ¡ãĥ¼ãĤ¸":3237,"ãĥ¼ãĤ¯ãĤ¹":3238,"åł´åĲĪãģ¯":3239,"ãĥ¼ãĥŁãĥĬãĥ«":3240,"èĻ«":3241,"ãĤĴæĭħå½ĵ":3242,"ãĤĴéĸĭ":3243,"ãģķãĤĮãģŁãģĮ":3244,"ãģ®ãģĭ":3245,"è¨Ńè¨Ī":3246,"ãģĶãģ¨":3247,"çĶŁå¾Ĵ":3248,"é¶´":3249,"ä½ľæĪ¦":3250,"åħĲå³¶":3251,"ãĥŀãĥ¼":3252,"å¸Ĥæ°ĳ":3253,"æĮģãģ¡":3254,"ãģĵãģ®æĻĤ":3255,"ãĥĩãĥ¼ãĤ¿":3256,"ãĥıãĥ³":3257,"æľĪãģ«ãģ¯":3258,"ãģ¨ãģĹãģ¦ãģĦãĤĭ":3259,"ãĢħãģª":3260,"62":3261,"ĠãĤ¤":3262,"ä½Ļ":3263,"è»Į":3264,"åĶ±":3265,"éĽ¨":3266,"ãĥ¬ãĥ¼ãĤ·ãĥ§ãĥ³":3267,"ãĤ¤ãĥī":3268,"ä¸»ãģª":3269,"è¡£":3270,"éį":3271,"ç´¹ä»ĭ":3272,"ãĥ¬ãĤ®ãĥ¥":3273,"èŃ°åĵ¡":3274,"ãĤ¢ãĥ©":3275,"Ġ2006":3276,"ãģ®æĶ¯":3277,"ad":3278,"èŃ²":3279,"ãĤıãĤĮãģ¦ãģĦãĤĭ":3280,"æĩ":3281,"è¨Ģèĳī":3282,"å¤īåĮĸ":3283,"ãĤĴçĽ®":3284,"æĹ¥ãģ«ãģ¯":3285,"æ¥ŃåĭĻ":3286,"ãģ®è³":3287,"1987":3288,"äºľ":3289,"å¤§èĩ£":3290,"ãģ®ãģĤãĤĭ":3291,"å¯¾è±¡":3292,"ãĥįãĤ¹":3293,"ãĥĶãĤ¢":3294,"è¨Ĺ":3295,"æİ²":3296,"ä½ıæ°ĳ":3297,"åĲ¹":3298,"ãģ«ãģªãģ£ãģ¦":3299,"ãĤ¤ãĤº":3300,"è£ķ":3301,"é½":3302,"çī¹æĢ¥":3303,"å±ķéĸĭ":3304,"ãĤ¢ãĥķ":3305,"ãĤ³ãĥ¼ãĥģ":3306,"ãģ¨ãģĹãģ¦ãģ®":3307,"æĸ¹åĲĳ":3308,"èĺ":3309,"ãĥĭãĤ³":3310,"1988":3311,"å«":3312,"ç«ĭãģ¦":3313,"æ²¡":3314,"ãĤ¬ãĥ³":3315,"ç½²":3316,"æľĿé®®":3317,"ãĤ°ãĥ©ãĥł":3318,"ãĤ¢ãĥ¡ãĥªãĤ«åĲĪè¡ĨåĽ½":3319,"äº¤å·®":3320,"å½ĵåĪĿãģ¯":3321,"éĤ£":3322,"ãĤ¬ãĤ¹":3323,"æĭ¡":3324,"The":3325,"Ġ2007":3326,"500":3327,"äººæ°Ĺ":3328,"ãĤĴæĮĻ":3329,"æļ¦":3330,"åĩºãģĹãģŁ":3331,"EN":3332,"ãĤĴçĻºè¡¨":3333,"ä¸Ĭãģ®":3334,"å¤§ãģª":3335,"åį±":3336,"é¹¿åħĲå³¶":3337,"ãģĦãģ¦ãģĦãĤĭ":3338,"ãģĽãģļ":3339,"æĶ¹æŃ£":3340,"åĽ½éīĦ":3341,"ä¿Ĭ":3342,"æľĢåĪĿ":3343,"åľ°ãģ«":3344,"ãģ¬":3345,"ãģ®æ³":3346,"çĶ·åŃĲ":3347,"çī©ãģ®":3348,"ãĥĸãĥ¬":3349,"ç¤¾éķ·":3350,"å®¶æĹı":3351,"ãĤ®ãĥ¼":3352,"è£½åĵģ":3353,"im":3354,"189":3355,"AM":3356,"ãģ®æ¥":3357,"ãĤīãĤĮãģ¦ãģĦãģŁ":3358,"åĪĿä»£":3359,"å®¶ãģ®":3360,"éģĭçĶ¨":3361,"em":3362,"ãĤĴãģ¤":3363,"ãģ®è¿":3364,"å¾©å¸°":3365,"éĥµ":3366,"éĸ¢è¥¿":3367,"ãģ®å¢":3368,"ç¤¼":3369,"é§ħèĪİ":3370,"ãĤ¤ãĥ³ãĤ°":3371,"ä¸Ńãģ§":3372,"ä»¥æĿ¥":3373,"éħįç½®":3374,"é¡ĺ":3375,"çµ±åĲĪ":3376,"æĻĤä»£ãģ®":3377,"ãĤ¬ãĥ¼":3378,"ãĤ¤ãĥ³ãĥĪ":3379,"åĭ¤":3380,"!ï¼Ī":3381,"æĹ¥æĶ¾éĢģ":3382,"ãĤĪãģı":3383,"ãĤ³ãĥŁ":3384,"åħ¬æ¼Ķ":3385,"ï¼īï¼ļ":3386,"ãģ®æ¯":3387,"åŃ¦éĻ¢":3388,"ãĥŃãĥ³":3389,"ãĥĭãĥĥãĤ¯":3390,"ä¿ĿèŃ·":3391,"ãģ£ãģ":3392,"è¨Ģèªŀ":3393,"æī±ãģĦ":3394,"ãģªãģĳãĤĮãģ°":3395,"ãĤªãĤ¹":3396,"ä½ĵèĤ²":3397,"æĹŃ":3398,"ãģĿãģ®ãģŁãĤģ":3399,"ãĤĵãģ§ãģĦãĤĭ":3400,"ãģ®æ´»":3401,"ç·ļãģ®":3402,"ä¸»æ¼Ķ":3403,"ãĤ¿ãĤ¤ãĥł":3404,"ç¸®":3405,"ĠĠĠ":3406,"è¼ĥ":3407,"ä¸įæĺİ":3408,"ãĤºãĥł":3409,"æİ¡çĶ¨":3410,"ĠæĿ±äº¬":3411,"ĠãĢľ":3412,"æĿ±æĹ¥æľ¬":3413,"éĻ¸è»į":3414,"ĠãĤµ":3415,"åı²ä¸Ĭ":3416,"åĶ¯":3417,"AC":3418,"ĠæĿ¾":3419,"çĤ¹ãģ§":3420,"éĽ»è©±":3421,"ãģ«èĩ³":3422,"èĴ":3423,"å¯©":3424,"ãĥĨãĥ³":3425,"ä»¥éĻįãģ¯":3426,"ãģ®æ©Ł":3427,"ãĥŁãĤ¢":3428,"id":3429,"è£ħç½®":3430,"æŃ»åİ»":3431,"ç·ĳ":3432,"æĥĳ":3433,"1970":3434,"ãģ«ãģĹãģ¦":3435,"ãĤ»ãĥĥãĥĪ":3436,"ãģ®åĮĹ":3437,"ãĤĴåıĤçħ§":3438,"ec":3439,"æľĪãģĭãĤī":3440,"ãģ®æ¼":3441,"è¡Įåĭķ":3442,"åħĥå¹´":3443,"è¦ıå®ļ":3444,"ãĥªãĤ¨":3445,"çİĭåº§":3446,"Ġc":3447,"ãĤ®ãĥ£":3448,"å¯¾æĪ¦":3449,"ãģ«åŁº":3450,"æŀł":3451,"è¾ŀ":3452,"ãĤĤãģ¨":3453,"ãĥĥãĤ¸":3454,"éĿ¢ç©į":3455,"åłĢ":3456,"éĿŀå¸¸ãģ«":3457,"ĠâĢ»":3458,"ç§Ĵ":3459,"AL":3460,"ãģ®ãĤ¨":3461,"align":3462,"ãĤ¹ãĥļãĤ¤ãĥ³":3463,"è¾²æ¥Ń":3464,"ãģĵãģ¨ãģĮãģĤãĤĭ":3465,"ĠThe":3466,"åĩºãģĹ":3467,"ç¥¨":3468,"é¬":3469,"éĿĻå²¡":3470,"ĠåĮĹ":3471,"ç´į":3472,"é§Ĳ":3473,"oc":3474,"ãĥĨãĥ¼ãĥŀ":3475,"æĿ±æµ·":3476,"æĹ¢":3477,"ãģĭãģĭ":3478,"åĽ½ç«ĭ":3479,"åľ°çĲĥ":3480,"è£ħåĤĻ":3481,"Ġb":3482,"ãĤıãģļ":3483,"ä»ĺè¿ĳ":3484,"åľ°ä¸Ĭ":3485,"42":3486,"ãĥŃãĤ¹":3487,"ãģĽãģŁ":3488,"Ġ2008":3489,"æľīåĲį":3490,"ãĤªãĥªãĤ¸":3491,"åĩºæĿ¥":3492,"ãĥĢãĥł":3493,"Ġãĥı":3494,"åŃĿ":3495,"åŃĲä¾Ľ":3496,"æī¹":3497,"ãģĺãĤģ":3498,"çī¹å®ļ":3499,"âĢĿ":3500,"ãģ®ãĤ«":3501,"ãģ®å½¢":3502,"ĠãĥĲ":3503,"åĽ°":3504,"ãĤ¹ãĥĶ":3505,"å§ī":3506,"ç§»åĭķ":3507,"ãĤĮãģ¦ãģĦãģŁ":3508,"ãĢįãĢĤ":3509,"æĹĹ":3510,"æĴ®":3511,"è£ģåĪ¤":3512,"ãģĦãģĮ":3513,"ãĥªãĥ¥":3514,"æĶ¯æı´":3515,"å¯Įå£«":3516,"æķ´åĤĻ":3517,"ãģ®æ²":3518,"ãĥ«ãĤ¹":3519,"å½¢æĪĲ":3520,"æ¶²":3521,"éģĶæĪĲ":3522,"ãĤĴæĮĻãģĴ":3523,"ãĤ¢ãĥĥãĥĹ":3524,"éĥ¨éĸĢ":3525,"æĽ¸æĪ¿":3526,"åĲįãģ®":3527,"1986":3528,"ãģłãģĳãģ§":3529,"ow":3530,"ãĥ«ãĤ¯":3531,"ãģªãģ©ãģ«":3532,"å¦¹":3533,"åī£":3534,"ãģ®æĶ¿":3535,"ãģ®åİŁ":3536,"ãĥ¬ãĤ®ãĥ¥ãĥ©ãĥ¼":3537,"æĹ¥çĻºå£²":3538,"éĽ·":3539,"å®®å´İ":3540,"éħįä¿¡":3541,"æ··":3542,")ãĢģ":3543,"ãĥ³ãĥĬ":3544,"éģ¿":3545,"ãģ®æ¸":3546,"æĸĻçĲĨ":3547,"æīį":3548,"1983":3549,"æ¢°":3550,"ãĤªãĥªãĤ¸ãĥĬãĥ«":3551,"ä¿³":3552,"çĽĬ":3553,"æĿ±æĺł":3554,"çŃīãģ®":3555,"çĶ·æĢ§":3556,"æĸ½è¡Į":3557,"é½¢":3558,"ãĢįãĢģãĢĮ":3559,"ãģĹãģŁãģŁãĤģ":3560,"å¾ģ":3561,"Ġ11":3562,"åıĪ":3563,"è¡Įãģį":3564,"41":3565,"ãģ«åŁºãģ¥":3566,"çĶ°ä¸Ń":3567,"å°ĳå¹´":3568,"ç¢ºèªį":3569,"è«¸å³¶":3570,"58":3571,"å¿«":3572,"å½ĵé§ħ":3573,"è¦ĭãĤīãĤĮãĤĭ":3574,"é£²":3575,"çµĮé¨ĵ":3576,"ãģĹãģ®":3577,"Ġ2004":3578,"éļł":3579,"ãģĹãģ¾ãģ£ãģŁ":3580,"ä¼¯":3581,"ãĥ©ãĤ¤ãĥ³":3582,"ãĥĽãĥĨãĥ«":3583,"éĪ´æľ¨":3584,"°ãĤĬ":3585,"éĸĵãģ§":3586,"å¤ķ":3587,"ãĤĤãģ®ãģ§ãģĤãĤĭ":3588,"ãĥ¤ãĥ¼":3589,"åĨħãģ§":3590,"ãĤ»ãĥ³ãĥĪ":3591,"åıĮ":3592,"è¡¨çı¾":3593,"åĳ¨å¹´":3594,"ãĥªãĥ¼ãĤ¹":3595,"æ§ĺãĢħãģª":3596,"çµ¡":3597,"å·ĿçľĮ":3598,"Ġ2009":3599,"Ġin":3600,"äº¤éŁ¿":3601,"æĿ¡ä»¶":3602,"OW":3603,"å°ģ":3604,"ãģ®è·":3605,"ãģªãĤīãģªãģĦ":3606,"åİŁä½ľ":3607,"Ġãģ®":3608,"ãĥŀãĥ©":3609,"ä¸Ĭãģ§":3610,"ãģĭãģĦ":3611,"ãģĹãģŁãĤĬ":3612,"ãĥĳãĥª":3613,"å¤ĸåĽ½":3614,"ä»ĺãģį":3615,"æµħ":3616,"çĬ¬":3617,"ãģ®æĶ¾":3618,"kg":3619,"Ġf":3620,"Ġs":3621,"å®ŁéļĽ":3622,"æķ°ãģ¯":3623,"ãĤħãģĨ":3624,"æĴ¤":3625,"ãĥĭãĥ³ãĤ°":3626,"ãĢľï¼Ī":3627,"ä½ľå®¶":3628,"çĩĥ":3629,"éĩĿ":3630,"ãĥĪãĥĥãĥĹ":3631,"è¨´":3632,"ãĤĴåıĹãģĳãĤĭ":3633,"ãģ¾ãģĻ":3634,"ãĤĴåıĹãģĳãģ¦":3635,"ãĤ¹ãĤ±":3636,"èªĺ":3637,"ess":3638,"os":3639,"ĊĠĠĠĠĠĠĠĠ":3640,"éĽ»åŃĲ":3641,"ãģ«ãĤĪãĤĭãģ¨":3642,"èĪŀåı°":3643,"ãĤ»ãĤ¹":3644,"èĭ¦":3645,"æ¿ĥ":3646,"ãģ¯ãģªãģĦ":3647,"ç¬ł":3648,"åİ³":3649,"éĽħ":3650,"è§£èª¬":3651,"åģľè»Ĭ":3652,"ä¸Ģæĸ¹ãģ§":3653,"äººãĤĴ":3654,"çı¾å½¹":3655,"ãģ®æĭ":3656,"çĽ´æİ¥":3657,"ãģĻãĤĭãģªãģ©":3658,"æĳ©":3659,"ãĥ¥ãĥ¼ãĤµãĥ¼":3660,"ä»ķæ§ĺ":3661,"43":3662,"æ®Ĭ":3663,"ãĤīãģı":3664,"åĲ«ãģ¾":3665,"éĥµä¾¿":3666,"AP":3667,"ä¼ļéķ·":3668,"æĬ¼":3669,"ç¹ģ":3670,"ul":3671,"ãģ®åģ":3672,"åľ°ä¸ĭ":3673,"å¯¾å¿ľ":3674,"ãĥĿãĥ¼ãĥĪ":3675,"1985":3676,"ãģ®æŃ»":3677,"ãģĭãģ«":3678,"ãĥ©ãĥ«":3679,"åĪ°":3680,"éĻĦ":3681,"ãĥĨãĥ¬ãĥĵæĿ±äº¬":3682,"ŀį":3683,"ãģ®æĶ¹":3684,"ãģ®æ±":3685,"ãģ¨åĲĮæ§ĺ":3686,"ĠæĹ¥":3687,"Ġå£°":3688,"1984":3689,"åĪĳäºĭ":3690,"ãģ®è§":3691,"ç·Ĵ":3692,"ç¥ŀæĪ¸":3693,"å¹´çĶŁ":3694,"Ġ0":3695,"äºĭæķħ":3696,"Ġ2010":3697,"ãģ®ãģĵãģ¨":3698,"ãģĦãĤı":3699,"å¸Į":3700,"éĤĦ":3701,"ãģ®å»º":3702,"ãģ«åıĤåĬł":3703,"ãĥ©ãĥł":3704,"ãĥĹãĥŃãĥĩãĥ¥ãĥ¼ãĤµãĥ¼":3705,"ãĥķãĥ©ãĥ³":3706,"é£¯":3707,"ç¹°ãĤĬ":3708,"éĿ©åĳ½":3709,"è·ĿéĽ¢":3710,"ãĤ´ãĥ³":3711,"ç¥ŀå¥Ī":3712,"ãģĮéĸĭ":3713,"åĲįãĤĴ":3714,"èĥ½åĬĽ":3715,"188":3716,"åĶ¯ä¸Ģ":3717,"ãģªãģĹ":3718,"ãĥ¯ãĥ¼":3719,"ãĥŃãĥĥ":3720,"è¡ĮçĤº":3721,"ãĥĹãĥŃéĩİçĲĥ":3722,"VE":3723,"ãĥĪãĥ³":3724,"èįĴ":3725,"è¾¼ãģ¾":3726,"è¿½åĬł":3727,"æĽ¿ãģĪ":3728,"ç²¾ç¥ŀ":3729,"è¤ĩæķ°":3730,"oo":3731,"è©²":3732,"èıĮ":3733,"è§¦":3734,"é¬¼":3735,"1982":3736,"æĮĩæı®":3737,"è¸ı":3738,"ãĤµãĤ¤ãĥĪ":3739,"è¼¸éĢģ":3740,"LE":3741,"åıįå¯¾":3742,"ia":3743,"ãĤĴåĪ©çĶ¨":3744,"åĭķçī©":3745,"çĸĳ":3746,"ĠâĨĴ":3747,"éī±":3748,"59":3749,"å¥½ãģį":3750,"ãĤĴåĭĻãĤģãģŁ":3751,"OS":3752,"äºĭåĭĻæīĢ":3753,"ãĤĤãģĤãĤĬ":3754,"ãģ«æĪ»":3755,"åķĨåĵģ":3756,"ä»Ļåı°":3757,"Ġp":3758,"ç«¶èµ°":3759,"ãĥ©ãĤ°":3760,"æĺĮ":3761,"å¯¿":3762,"å°ıãģķ":3763,"ï¼į":3764,"é£¾":3765,"âĢľ":3766,"åķĨæ¥Ń":3767,"ãģ«ä½įç½®":3768,"éĻ¸ä¸Ĭ":3769,"ãĤĴæıĲ":3770,"ãĤĴè¨ĺéĮ²":3771,"çļ®":3772,"ç´Ģåħĥåīį":3773,"ä¼ı":3774,"æ´ŀ":3775,"ãģĹãģıãģ¯":3776,"çĥ":3777,"ç©Ĥ":3778,"ãĤĴè¡ĮãģĦ":3779,"æĦıåĳ³":3780,"ãģ«éĢ²":3781,"ãĤ¨ãĤ¢":3782,"èĬ¸è¡ĵ":3783,"Ġãĥĳ":3784,"åĭĿãģ¡":3785,"åĦĢ":3786,"ãģ«å±ŀ":3787,"ãģ®å¦":3788,"è¡Ŀ":3789,"çĻºçĶŁ":3790,"ãģĮå¤ļãģı":3791,"çĦ¡äºº":3792,"èĪĹ":3793,"åįĶåĬĽ":3794,"å¾ĮåįĬ":3795,"Ġéĩĳ":3796,"ä½ľæ¥Ń":3797,"æĢ§ãģĮ":3798,"Ġ2003":3799,"ç¸ģ":3800,"æĬķæīĭ":3801,"ãģĿãģ®ãģ¾ãģ¾":3802,"ç·¨éĽĨ":3803,"Ġæľ¬":3804,"ãģĹãĤĪãģĨ":3805,"ãĤ³ãĥ¼ãĥĬãĥ¼":3806,"ç¸Ħ":3807,"ãĥ¦ãĥ¼":3808,"ãģ£ãģ¦ãĤĤ":3809,"ISBN":3810,"ãĤ¹ãĤŃãĥ¼":3811,"éģ£":3812,"å½¢å¼ı":3813,"ãģ®åŁº":3814,"ãģŁãģĦ":3815,"åı°æ¹¾":3816,"ä¾µ":3817,"ãĥ¤ãĥŀ":3818,"ãģĮéĢ²":3819,"ãģ¨ãģĹãģ¦ãĤĤ":3820,"ãĤ¬ãĥ«":3821,"çłĶç©¶æīĢ":3822,"igh":3823,"åħĦå¼Ł":3824,"äººãģ«":3825,"ãģ®è¥":3826,"ãģĽãĤĵ":3827,"ãģ®ãĥĳ":3828,"ãģĦãģĦ":3829,"äººæ°ĳ":3830,"åŃĲãģĮ":3831,"æļĹ":3832,"ä½ĲèĹ¤":3833,"ä»ķäºĭ":3834,"çĤİ":3835,"æĽ¸åºĹ":3836,"ãĥĩãĤª":3837,"çĲĨè«ĸ":3838,"ãĤ²ãĤ¹ãĥĪ":3839,"åıĹè³ŀ":3840,"æĿ¯":3841,"ãĤ«ãĥ¡":3842,"å´©":3843,"ãĥ¦ãĥĢ":3844,"åĳī":3845,"çµ±ä¸Ģ":3846,"rows":3847,"ãģ®æķ°":3848,"ãģ®ãģĬ":3849,"éĽĳèªĮ":3850,"ov":3851,"ãģ¡ãĤī":3852,"ity":3853,"ãģ®æ°´":3854,"57":3855,"å°Ĩè»į":3856,"ä»¤åĴĮ":3857,"Ġä¸Ģ":3858,"åºķ":3859,"å¯Ľ":3860,"å¾ĵæĿ¥":3861,"ãģ®å¨":3862,"æĢª":3863,"ãģĺãĤĭ":3864,"ãĥĺãĥ«":3865,"å²³":3866,"çĤŃ":3867,"ãĤĴæ±Ĥ":3868,"ãĤ¤ãĥ³ãĥī":3869,"ä½ĵãģ¯":3870,"æ¬¡ä¸ĸçķĮ":3871,"ãģ®éķ·":3872,"éģħ":3873,"ãĤ·ãĥĨãĤ£":3874,"è¦ĩ":3875,"æĬŀ":3876,"ãģ®ä¸Ńå¿ĥ":3877,"ãĢĤ(":3878,"ä¹³":3879,"åĺī":3880,"ä¼Ŀèª¬":3881,"çĶŁãģ¾ãĤĮ":3882,"ãĤ¤ãĤ¢":3883,"1981":3884,"åĨĻçľŁ":3885,"ç¶ļãģį":3886,"è¿ĳãģĦ":3887,"ãģĮè¨Ńç½®":3888,"åľ°éľĩ":3889,"ãĤ¸ãĥ£ãĥ¼":3890,"èĢħãĤĴ":3891,"ä½ıå®ħ":3892,"ĠãģĮ":3893,"æµ©":3894,"ĠIn":3895,"ãĤªãĥªãĥ³ãĥĶ":3896,"æ¯Ķè¼ĥ":3897,"é£Łãģ¹":3898,"ä¸»è¦ģ":3899,"åŁºæºĸ":3900,"ãĤªãĥ¼ãĥĹãĥ³":3901,"UE":3902,"åĢį":3903,"æĻĤãģ®":3904,"ä¸»äººåħ¬":3905,"ãĥ¼ãĥĴ":3906,"ãĥķãĥª":3907,"éĺľ":3908,"ãĥªãĥĨãĤ£":3909,"çī¹æ®Ĭ":3910,"ãģ®å¼·":3911,"åª":3912,"ãģ«ãģĤãģ£ãģŁ":3913,"ä¾Ŀ":3914,"ãĤ¯ãĥ©ãĤ¹":3915,"rowspan":3916,"Ġ2011":3917,"åħĲç«¥":3918,"æ°ĳä¸»":3919,"OM":3920,"âĺĨ":3921,"PS":3922,"ï¼īâĢ»":3923,"ãĥ¦ãĥĢãĥ¤":3924,"ãģĮåı¯èĥ½":3925,"ãģ§ãĤĤãģĤãĤĭ":3926,"ãģ¯ä¸Ģ":3927,"è»Įéģĵ":3928,"å¼±":3929,"ãģ®åįĹ":3930,"ãģ®ãĥŀ":3931,"ãĥĥãĤ±":3932,"\"|":3933,"æŃ£å¼ı":3934,"åĨł":3935,"æ©Łæ¢°":3936,"åĮħ":3937,"99":3938,"ï¼ĪãĢİ":3939,"èªī":3940,"æ¬¡ä¸ĸçķĮå¤§æĪ¦":3941,"UR":3942,"ãģ«å¾ĵ":3943,"ãģ®æı":3944,"ãĤĴæµ":3945,"ãĤ¨ãĥ³ãĤ¸ãĥ³":3946,"åĲĮæĻĤãģ«":3947,"ä¸»å¼µ":3948,"éĢ£è¼ī":3949,"è¬Ľè«ĩ":3950,"å¹²":3951,"å½¢ãģ§":3952,"ç¡":3953,"åľ°çĲĨ":3954,"åħ¨æĹ¥æľ¬":3955,"ãģ®èĬ":3956,"åĳ¼ãģ°":3957,"è½":3958,"ãģĮå¿ħè¦ģ":3959,"ãĤ¹ãĤ¿ãĥ³":3960,"çĲĥåĽ£":3961,"å²¡å±±":3962,"ãģ®åĭķ":3963,"èĵ":3964,"ĠY":3965,"ãģ®é«ĺ":3966,"éĢĲ":3967,"âĢĵ":3968,"ĠSt":3969,"ãĤ¹ãĥ¼ãĥĳãĥ¼":3970,"ãģ®æĸ°":3971,"ãģ«ç·¨åħ¥":3972,"ãĤ¢ãĥ³ãĥī":3973,"ãĥĥãĤ·ãĥ§ãĥ³":3974,"mm":3975,"Ġd":3976,"ãĤ¢ãĤ«":3977,"æīķ":3978,"ãĥ¼ãĥ«ãĤº":3979,"éķ·å´İ":3980,"ãĤ¹ãĤ¿ãĥĥ":3981,"1979":3982,"ç¶Ļæī¿":3983,"ãģ®æµ·":3984,"ä¿³åĦª":3985,"ç¯ĩ":3986,"èĢħãģ«":3987,"ãģĴãĤĭ":3988,"çł´å£Ĭ":3989,"éģķãģĦ":3990,"ãģķãģ¾":3991,"éĩĪ":3992,"åĽĽåĽ½":3993,"ãĤĴãģĹãģŁ":3994,"ãĥªãĥªãĥ¼ãĤ¹":3995,"èĥŀ":3996,"çªĵ":3997,"ãĤĴæĦı":3998,"ãģ®åĢ":3999,"äººåĵ¡":4000,"åºĬ":4001,"ãĤ®ãĥª":4002,"ãĤ¯ãĥŃãĤ¹":4003,"ãĤĨãĤĭ":4004,"ãĤŃãĤ·":4005,"ãĤ»ãĤ¤":4006,"å®īåħ¨":4007,"åĲ¾":4008,"è¨ŃåĤĻ":4009,"å®¶åºŃ":4010,"èŃ°éĻ¢":4011,"ãģ®åħĥ":4012,"ãĤĴè¨Ńç½®":4013,"åĪĨåī²":4014,"èī¦éļĬ":4015,"ãģıãĤĬ":4016,"ãĤµãĥ«":4017,"è±ª":4018,"ãĥĦãĤ¢ãĥ¼":4019,"æĶ¿æ¨©":4020,"å±±åı£":4021,"ãĤ½éĢ£":4022,"ãģ®æľĢ":4023,"ãĤĴãģĻãĤĭ":4024,"æĹ¥æľ¬èªŀ":4025,"ãĥķãĤ£ãĥª":4026,"åħµåº«":4027,"Ġ1987":4028,"è¬Ľè«ĩç¤¾":4029,"çĶŁãģį":4030,"ãĥĸãĥŃ":4031,"æŀ¶":4032,"ãģ£ãģ¨":4033,"æ³ķå¾ĭ":4034,"æ¬ł":4035,"ãĥ¼ãĥĢãĥ¼":4036,"ãĤĴä¸Ńå¿ĥãģ«":4037,"æŀĲ":4038,"51":4039,"èªįå®ļ":4040,"ãĥīãĤ¥":4041,"å§«":4042,"ãĥ³ãĥĶãĥ¥ãĥ¼":4043,"å©¦":4044,"æĸ°æ½Ł":4045,"54":4046,"Ġw":4047,"ãĤĴãģ¯":4048,"ãĥ¼ãĥ¡":4049,"ãģ¤ãģ¤":4050,"åĮĸåŃ¦":4051,"çĶºæĿĳ":4052,"äººãģ§":4053,"åºĥãģı":4054,"è»įäºĭ":4055,"åı¸ä»¤":4056,"ãģ®å±±":4057,"ãĥĢãĥ³":4058,"ãģĮè¡ĮãĤıãĤĮãģŁ":4059,"ce":4060,"ãģĻãģĲ":4061,"å²Ĳéĺľ":4062,"CT":4063,"ut":4064,"ãĥ¼ãĥ¨":4065,"ä¸Ģéĥİ":4066,"ç¶±":4067,"ãģĮãģªãģĦ":4068,"ãĤ°ãĥŃ":4069,"op":4070,"ãģĵãģ¨ãģĮå¤ļãģĦ":4071,"åĽ³æĽ¸":4072,"ãģ¯å¤§":4073,"ä¸Ĭãģ«":4074,"æ¼Ķå¥ı":4075,"Ġ2012":4076,"äº¤å·®çĤ¹":4077,"ãĤĪãģĨãģ«ãģªãĤĭ":4078,"ãĤĴè¡¨":4079,"ãĤĴåıİ":4080,"Ġ2002":4081,"å½¼ãĤī":4082,"ãģ®æ®":4083,"æĶ¯éħį":4084,"åĮĸãģĹãģŁ":4085,"ãĤ½ãĥ¼ãĥī":4086,"åĦªç§Ģ":4087,"ãģ®ãĤª":4088,"å¼·ãģĦ":4089,"ãĥĹãĥ¬ãĥ¼":4090,"ãĤĤãģĨ":4091,"å¸Ĥåł´":4092,"ä¾¯":4093,"çİĭåĽ½":4094,"å½¼å¥³":4095,"Ġ978":4096,"56":4097,"äºĭå®Ł":4098,"èıĬ":4099,"ãģ®æŃĮ":4100,"ãĥ¬ãĥ³ãĤ¸":4101,"ãĤ¹ãĤ¿ãĤ¸ãĤª":4102,"æķ¬":4103,"ãģĮçĻºçĶŁ":4104,"èª²ç¨ĭ":4105,"Ġ.":4106,"è²¢":4107,"ãģ®æŃ´":4108,"åĬ¹æŀľ":4109,"æī¹åĪ¤":4110,"ĠãĥŁ":4111,"éĽ»è»Ĭ":4112,"èĦ³":4113,"çį£":4114,"ç£ģ":4115,"åŁ¹":4116,"ãĥ¡ãĥ¼ãĤ«ãĥ¼":4117,"ãĥĸãĥ«ãĤ¯":4118,"é§ĨéĢĲ":4119,"VD":4120,"ĠåĽ½éģĵ":4121,"ãĤªãĥªãĥ³ãĥĶãĥĥãĤ¯":4122,"æĿŁ":4123,"åĽŀæĪ¦":4124,"æŁĦ":4125,"Ġ2001":4126,"ãĥ¡ãĤ¤":4127,"åĪ¶éĻĲ":4128,"æ¤įçī©":4129,"å£ģ":4130,"èĬĿ":4131,"ãģ«éģ¸":4132,"ãĥĬãĥł":4133,"æĻĤä»£ãģ«":4134,"å¾Ģ":4135,"ãģ®èī":4136,"æ¾¤":4137,"ãĤ¹ãĤ¿ãĥĥãĥķ":4138,"53":4139,"èªł":4140,"åĮ»çĻĤ":4141,"¬ä»»":4142,"ãģ®æľ¬":4143,"ãģĵãģ¨ãģ«":4144,"æĸ¹ãģĮ":4145,"æĢ§ãĤĴ":4146,"éĺªç¥ŀ":4147,"çīĽ":4148,"çŁ¥ãĤīãĤĮãĤĭ":4149,"ä¸Ĭè¨ĺ":4150,"çĶ¨ãģ®":4151,"çĲĥåł´":4152,"ãģ«éĸ¢ãģĹãģ¦":4153,"TO":4154,"ãģĹãĤĵ":4155,"çµĦåĲĪ":4156,"ãĤĴãĤĤãģ£ãģ¦":4157,"ot":4158,"ri":4159,"ãĥ³ãĥĪãĥ³":4160,"åģ´ãģ«":4161,"ãĤīãģĦ":4162,"æĿ±åĮĹ":4163,"ãĥŃãĥľ":4164,"å¥ĩ":4165,"åĩºãģĻ":4166,"ãģ²ãĤį":4167,"ãĥ¼ãĥģãĤ§":4168,"ãģĦãģĨ":4169,"ç®±":4170,"å¤ªå¹³":4171,"æ¨Ļæºĸ":4172,"ãĤĴå§ĭ":4173,"ãĤ¹ãģ¯":4174,"åŁ¼":4175,"ãģ®æĦ":4176,"çĽĹ":4177,"ãĤªãĥķ":4178,"æ½®":4179,"UN":4180,"è¼Ŀ":4181,"âĶ":4182,"äºĢ":4183,"éİĮ":4184,"å½¼ãģ¯":4185,"å»¶éķ·":4186,"é«ĺéĢŁéģĵè·¯":4187,"åī¤":4188,"çŃĭ":4189,"ãģ®æĶ¾éĢģ":4190,"éı":4191,"ãĤªãĥĸ":4192,"ãģ§ãģĻ":4193,"åı¤ä»£":4194,"éŁĵåĽ½":4195,"å·±":4196,"åĭŁ":4197,"ãģ¡ãģª":4198,"è©³ç´°":4199,"ãģĦãģļãĤĮãĤĤ":4200,"ãģ«ãĤĪãĤĮãģ°":4201,"è²«":4202,"é³´":4203,"64":4204,"åĭĩ":4205,"èĩªæ²»ä½ĵ":4206,"ãĤ¯ãĥ©ãĤ¤":4207,"ãĤ¿ãĥ¼ãĥŁãĥĬãĥ«":4208,"ãģ®è¥¿":4209,"åĮºéĸĵ":4210,"åħ±çĶ£":4211,"æ¢ħ":4212,"ãĥĿãĥ³":4213,"ãĤĤãģĤãģ£ãģŁ":4214,"æĸī":4215,"ãģ®åł´åĲĪãģ¯":4216,"éļľå®³":4217,"ãģ®ç¬¬":4218,"é¦ĸéĥ½":4219,"æ¶Īéĺ²":4220,"åĪº":4221,"è¨ĵ":4222,"ãģ«ãģ¨ãģ£ãģ¦":4223,"ãĤ¸ãĥ¼":4224,"äº¤æıĽ":4225,"Ġ2000":4226,"å¡Ĺ":4227,"æİ²è¼ī":4228,"ãģªãģĦãģŁãĤģ":4229,"ãĤ·ãĥ¼ãĥ³":4230,"çĻºè¡Į":4231,"èįĺ":4232,"ãĥĭãĥĥ":4233,"ç¦ıå³¶":4234,"å¥Īèī¯":4235,"US":4236,"ãĤĴå¼ķãģį":4237,"æĴ®å½±":4238,"åĴĮæŃĮ":4239,"æİ¡":4240,"æĲŃè¼ī":4241,"ight":4242,"ĠåįĹ":4243,"ç¾ħ":4244,"äº¤æµģ":4245,"ãĤĵãģ§ãģĦãģŁ":4246,"ĠãĤ¹":4247,"æĸ°ãģĹãģĦ":4248,"å¸Ĥãģ®":4249,"åł±åĳĬ":4250,"ä»ĭèŃ·":4251,"ä»¥å¤ĸãģ®":4252,"æĳĺ":4253,"çĵ":4254,"Ġ|":4255,"é«ĺãģı":4256,"ãģĭãģ¤ãģ¦ãģ¯":4257,"nd":4258,"ãģ«çµĤ":4259,"ãĤ°ãĥª":4260,"èĩ´":4261,"ä»£ãĤıãĤĬ":4262,"çī©è³ª":4263,"å¡Ķ":4264,"ãĥŀãĥ¼ãĤ¯":4265,"ãĥ¡ãĥĩãĤ£ãĤ¢":4266,"èª¬æĺİ":4267,"ãĥ¼ãĥįãĥĥãĥĪ":4268,"çĳ":4269,"ãĥľãĤ¹":4270,"åįĬå³¶":4271,"éİĸ":4272,"åħħ":4273,"è§£æķ£":4274,"65":4275,"ãĥ¼ãĥ¢":4276,"ãĥĳãĥ¼ãĥĪ":4277,"åį´":4278,"å¼¦":4279,"çģ¯":4280,"ãģ®åĨį":4281,"ãĤĴãģ¨":4282,"å¹´éłĥ":4283,"ãģĭãĤĮãģ¦ãģĦãĤĭ":4284,"ãĤ«ãĥ³":4285,"æµ·å¤ĸ":4286,"ãĥķãĤ¡ãĥ¼":4287,"ãĥĲãĥ³":4288,"å¾³å³¶":4289,"èħķ":4290,"æıĲä¾Ľ":4291,"ãĤ¤ãĥ¡ãĥ¼ãĤ¸":4292,"ãģ®è«":4293,"300":4294,"éĥ¨ãģ¯":4295,"ãĥŁãĥĭ":4296,"ãģ®è§£":4297,"çĻºè¦ĭ":4298,"åĲĮçĽŁ":4299,"è¨ĺè¼ī":4300,"æ¯Ķãģ¹":4301,"ie":4302,"åľ°ãģ®":4303,"ãĥ¼ãĥŀãĥ³":4304,"ãģķãĤĮãģ¦ãģĦãģªãģĦ":4305,"77":4306,"ãĥĲãĥ¬":4307,"ãģ®æŃ´åı²":4308,"ET":4309,"æĺłåĥı":4310,"èŀį":4311,"ãģ¨ãģķãĤĮãģ¦ãģĦãĤĭ":4312,"ãĥķãĥªãĥ¼":4313,"ãģ®èŃ":4314,"é£Łåĵģ":4315,"ab":4316,"ãģ«çĻ»åł´ãģĻãĤĭ":4317,"ãĥĢãĥ«":4318,"éĢ£çµ¡":4319,"ãģĿãĤĮãĤĴ":4320,"çĭ¬èĩª":4321,"ãģ¨ç§°":4322,"ãĤ¢ãĥª":4323,"ãĤģãģ¦ãģĦãĤĭ":4324,"ç·ļãģĮ":4325,"ãģĪãģ¦ãģĦãĤĭ":4326,"ãģ§ãģįãģŁ":4327,"åģľçķĻ":4328,"ãĤĴè¨Ńç«ĭ":4329,"æĻĤãģ¯":4330,"ãĥİãĥ«":4331,"å¨ĺ":4332,"ãģ®å¨ĺ":4333,"AD":4334,"ãĤĴå®Łæĸ½":4335,"åĤ¾":4336,"æĢ§æł¼":4337,"1978":4338,"éİ®":4339,"ãģ®èĭ":4340,"è¿½ãģĦ":4341,"éı¡":4342,"Ġæ°´":4343,"ãģ§æĶ¾éĢģ":4344,"ãĤ½ãĥŃ":4345,"æ°·":4346,"æĽ¸ãģį":4347,"æĭħ":4348,"æĺĩæł¼":4349,"IT":4350,"ak":4351,"ĠãĢģ":4352,"ĠãĥŃ":4353,"Ġå²©":4354,"ãĤĴèµ·ãģĵ":4355,"éĸ¢æĿ±":4356,"çĻºå£²ãģķãĤĮãģŁ":4357,"ãĥĹãĥ¬ãĥŁãĤ¢":4358,"ãģ«å½ĵ":4359,"ãģ®èģ":4360,"è¨Ńãģĳ":4361,"ĠIS":4362,"ãĤĴæ®ĭ":4363,"ãĤĴæľīãģĻãĤĭ":4364,"Ġåħĥ":4365,"åĪĨéĽ¢":4366,"ãĥĿãĤ¤ãĥ³ãĥĪ":4367,"éĻĲãĤĬ":4368,"ãģ®åĽ½":4369,"æŀĿ":4370,"æĲį":4371,"ãĤĴæİ¡çĶ¨":4372,"ãĤ¹ãģĮ":4373,"ãģĻãĤĭãģŁãĤģãģ«":4374,"ãĤ«ãĤ¤":4375,"åĲįãģĮ":4376,"æĦĽçŁ¥":4377,"çĶ¨ãģĦãĤīãĤĮãĤĭ":4378,"éĥĬ":4379,"æĹ¥æľ¬ãģ§ãģ¯":4380,"ãģĽãģ¦":4381,"æİĴ":4382,"1977":4383,"æ¸ī":4384,"æ°ĳæĹı":4385,"1960":4386,"ãģ®ãĤĬ":4387,"è²ŀ":4388,"ä½ĵåĪ¶":4389,"ä»¥å¾Į":4390,"ä¸¹":4391,"ãĥĵãĥĩãĤª":4392,"ä¾ĭãģĪãģ°":4393,"61":4394,"åį³":4395,"åıįå¿ľ":4396,"ãĤĴç½®":4397,"ãĤĮãģªãģĦ":4398,"èŃľ":4399,"ãĥ¼ãĤ¸ãĥ§":4400,"æįľ":4401,"ãĤģãĤīãĤĮãģŁ":4402,"ãĤĴéĻ¤ãģı":4403,"éĥµä¾¿å±Ģ":4404,"çŀ":4405,"ãĥ©ãĥ³ãĥĢ":4406,"åºı":4407,"èª¤":4408,"å¸ĤåĨħ":4409,"æ³°":4410,"åĲįåīį":4411,"1973":4412,"æİ¥ç¶ļ":4413,"ãģ®æ§ĭ":4414,"åŁ¼çİī":4415,"ãĤ¨ãĥª":4416,"ãĥĿãĥ¼ãĥ«":4417,"éĬħ":4418,"è¬Ģ":4419,"ãģĮå¤§":4420,"ãĢħãģ«":4421,"ist":4422,"1976":4423,"æ¶¯":4424,"ãģĤãģ¾ãĤĬ":4425,"æľ¬ç¤¾":4426,"å°ļ":4427,"ãĤ¨ãĥĶ":4428,"ãĤĴåıĹè³ŀ":4429,"ä»®éĿ¢":4430,"ap":4431,"ãģĦãģªãģĭãģ£ãģŁ":4432,"åħ¥åı£":4433,"ãģ«è»¢":4434,"åĬī":4435,"ãģ®èĳ":4436,"éĢļç®Ĺ":4437,"ç©´":4438,"col":4439,"æľĹ":4440,"çĽ¸å½ĵ":4441,"1975":4442,"ãĥĭãĥ¥ãĥ¼ãĥ¨":4443,"åĢĭäºº":4444,"ç³¸":4445,"ãģĻãĤĭãģĵãģ¨ãģ§":4446,"ãĤĴæĮģãģ¡":4447,"è³ĩæł¼":4448,"ãģĮçĶŁ":4449,"ãĥ©ãĤ¹ãĥĪ":4450,"åĪĢ":4451,"æľ¬ä½ľ":4452,"é«ª":4453,"ãģ®åľ°åŁŁ":4454,"ãģĹãģ¦ãģĦãģªãģĦ":4455,"ãĥĭãĥ¥ãĥ¼ãĥ¨ãĥ¼ãĤ¯":4456,"åįĪ":4457,"ãĤ¸ãĤ§ãĤ¯ãĥĪ":4458,"åĢĻè£ľ":4459,"ãĥ¡ãĤ¤ãĥ³":4460,"çĻºå±ķ":4461,"æĪ¦ãģ§ãģ¯":4462,"ãĤ·ãĥ«":4463,"ãĤ«ãĥĬ":4464,"æ¸ħæ°´":4465,"1972":4466,"åıĤæĪ¦":4467,"ãĥ¼ãģ¯":4468,"ãĤ³ãĥ³ãĥĶãĥ¥ãĥ¼":4469,"åĪĨéĩİ":4470,"ä¸»é¡Į":4471,"Ġ1999":4472,"ãģ®è£½":4473,"ãĤĴçĽ®æĮĩ":4474,"08":4475,"Ġå¤©":4476,"éĥ¨å±ĭ":4477,"ç¸¦":4478,"éļ£æİ¥":4479,"ãĤ¨ãĥ³":4480,"ç¬¬ä¸ī":4481,"é§ħåĳ¨è¾º":4482,"ä¿ĿéĻº":4483,"52":4484,"ãģĦãģ®":4485,"ãĤ³ãĤ¹":4486,"æĻ´":4487,"æķĻä¼ļ":4488,"ç¶ļãģĳ":4489,"åĶĲ":4490,"ãģĮä¸Ģ":4491,"çĶºç«ĭ":4492,"ãģªãģĭ":4493,"ãĥªãĥ¼ãĥ³":4494,"åĨħéĸ£":4495,"ãĤ¹ãĤ¿ãĥ¼ãĥĪ":4496,"å¾©æ´»":4497,"å¡ģæīĵ":4498,"Ġ17":4499,"ãĤ¸ãĤ¢ãĥł":4500,"ãģ¯çĦ¡":4501,"ãĤĤãģĹãģıãģ¯":4502,"ãĤªãĥ¼ãĥ«":4503,"ãĥ¬ãĥ¼ãĥ«":4504,"å°ĳãģªãģı":4505,"èªŃå£²":4506,"ãģ«åĩºåł´":4507,"çķĳ":4508,"æĶ¿çŃĸ":4509,"å°ĳãģªãģĦ":4510,"æŃ»äº¡":4511,"ç¶ŃæĮģ":4512,"çŃĳ":4513,"çĪµ":4514,"åŃ¦ç¿Ĵ":4515,"ãĤŃãĥ³":4516,"SP":4517,"Ġãĥª":4518,"Ġ15":4519,"ĠçŁ³":4520,"ãģ®åĦ":4521,"åĨįéĸĭ":4522,"éĺ²è¡Ľ":4523,"ãģ®æīĢ":4524,"ç§ĭçĶ°":4525,"ãģĦãģł":4526,"ãĥ«ãĥī":4527,"æĸ°è¨Ń":4528,"Ġæ¼Ķ":4529,"ãģĹãĤĥ":4530,"æĺ¼":4531,"75":4532,"èľ":4533,"è¨º":4534,"ãĤıãĤīãģļ":4535,"éĢļç§°":4536,"ãĥ³ãĥĻ":4537,"ãĤ¹ãĥĪãĥªãĤ¢":4538,"å®ı":4539,"ãģ®æµģ":4540,"åľ°åħĥ":4541,"åı¸ä¼ļ":4542,"ãĤĴåĬł":4543,"æŃ´ä»£":4544,"ãģ¾ãģ§ãģ«":4545,"æ¥½ç«ł":4546,"ãĥŁãĥ¥ãĥĭ":4547,"è»įãģ®":4548,"åĬĽãģĮ":4549,"æ»Ŀ":4550,"äººãģ§ãģĤãĤĭ":4551,"è¨ĺè¿°":4552,"éģ¸æĬŀ":4553,"ãĥķãĤ£ãĥ«":4554,"å®£è¨Ģ":4555,"ãģ«ãģĭãģĳãģ¦":4556,"ãĥĥãĤµ":4557,"ãĤ¨ãĥ³ãĤ¿":4558,"æ²Ī":4559,"ä»¥ä¸Ĭãģ®":4560,"av":4561,"ãģ«æķĹ":4562,"ãĥŀãĤ¹":4563,"é§Ĵ":4564,"è³Ľ":4565,"ãģ¨æĶ¹":4566,"åºĥåł´":4567,"å¤ªéĻ½":4568,"ãģ®æŃ¦":4569,"ãĥĢãĤ¤ãĥ¤":4570,"ãĥ¯ãĥ¼ãĥ«ãĥīãĤ«ãĥĥãĥĹ":4571,"æĹ¥ãģ¯":4572,"ãĥĩãĥ¥":4573,"è±Ĩ":4574,"%ãĢģ":4575,"âĸ":4576,"ãģ®ãĤµ":4577,"ãģ®éĸĵ":4578,"çĶŁæ¶¯":4579,"åĲĪãĤıãģĽãģ¦":4580,"èĽ":4581,"ãģĻãĤĭãĤĤãģ®":4582,"ãģ®æ£":4583,"ç¥ī":4584,"ãĤ±ãĥ«":4585,"ãģ«æĶ¹ç§°":4586,"æĥĳæĺŁ":4587,"æĹ¬":4588,"ãĥĳãĥ©":4589,"ä¸ĸä»£":4590,"è¿ĳãģı":4591,"è½Ħ":4592,"æľ¬æĿ¥":4593,"ãĥĲãĥĥãĤ¯":4594,"æĮĳ":4595,"æ¯Ĵ":4596,"æĢ¥è¡Į":4597,"¼åħ¥":4598,"Ġv":4599,"çĭŃ":4600,"ç¦ıç¥ī":4601,"èĲ½ãģ¡":4602,"ãģ¾ãģł":4603,"åĳĤ":4604,"ãģ«å¿ľ":4605,"æł¸":4606,"1974":4607,"ãĥ¼ãĥªãĥ³ãĤ°":4608,").":4609,"ĠãģĤ":4610,"ãģ¨ãģªãģ£ãģ¦ãģĦãģŁ":4611,"å¼·ãģı":4612,"EC":4613,"ãĤĴåįł":4614,"ãģ®èĥ":4615,"åºĥãģĮ":4616,"æ²³å·Ŀ":4617,"æľĪçĻºå£²":4618,"é¦ĸçĽ¸":4619,"ge":4620,"ub":4621,"ãĤ³ãĥ³ãĥĵ":4622,"çľ¼":4623,"åŀĭãģ®":4624,"ĠĠĠĠĠ":4625,"è¾¼ãĤĢ":4626,"Âł":4627,"ãģĵãĤĮãģĮ":4628,"ãĤ¹ãĤ¿ãĤ¸ãĤ¢ãĥł":4629,"å»ºãģ¦":4630,"åįļå£«":4631,"ãĥ¯ãĥ¼ãĤ¯":4632,"éĩįè¦ģãģª":4633,"ãĤĴå»ĥæŃ¢":4634,"ãģĹãģ¦ãĤĤ":4635,"ãĥĹãĥĪ":4636,"æĹħè¡Į":4637,"ãģ¨åĳ¼ãģ¶":4638,"åīµè¨Ń":4639,"èªŃãģ¿":4640,"åıĪãģ¯":4641,"èĢħãģ¨ãģĹãģ¦":4642,"ãĥľãĥ³":4643,"est":4644,"ãĥ¼ãĥĲãĥ¼":4645,"äº¤éŁ¿æĽ²":4646,"ãģ®æĹ¥":4647,"ãĤĴä¸Ģ":4648,"ãĤ¯ãĥ¼ãĥ«":4649,"æµ®":4650,"è£Ĥ":4651,"ãģĴãģŁ":4652,"68":4653,"ãĤ¹ãĥ«":4654,"ãģķãģĦ":4655,"å³¡":4656,"ãĥİãĥ³":4657,"éĿ¢ãģ«":4658,"æŁĶ":4659,"Ġ2013":4660,"ä¸ĩäºº":4661,"ãģ®æĥ":4662,"çµĲæĪĲ":4663,"è¿ĳä»£":4664,"å¹ķåºľ":4665,"ill":4666,"åĩ¦çĲĨ":4667,"OL":4668,"ãĤ¯ãĤ·ãĥ§ãĥ³":4669,"å³°":4670,"åı·ç·ļ":4671,"ãģĹãģªãģĮãĤī":4672,"çİĦ":4673,"ãĤ¼ãĥ«":4674,"è¿°ãģ®":4675,"ç´ħ":4676,"ä¼ĬèĹ¤":4677,"ãĥįãĥ«ãĤ®ãĥ¼":4678,"ĠåĪĿåĩº":4679,"TR":4680,"ãĤĴè¶ħ":4681,"ãĤ¹ãĤ¿ãĤ¤ãĥ«":4682,"ç¿¼":4683,"æĶ¯åºĹ":4684,"ãģ«è¡Į":4685,"ãĤ¬ãĥ³ãĥĢ":4686,"ãĤ¹ãĥĪãĥ³":4687,"ãģĹãģ¦ãģĦãĤĭãģĮ":4688,"ãģĺãĤĥ":4689,"Ġ1998":4690,"ãĥĸãĥ©ãĥ³ãĥī":4691,"å¤±æķĹ":4692,"ãģ¨è¿°ãģ¹":4693,"éĸĭéĢļ":4694,"ä¼ĳæŃ¢":4695,"éļ»":4696,"ãĥįãĤ¿":4697,"åıĸå¼ķ":4698,"ãĤīãģĮ":4699,"ãĤ¿ãĥĥãĤ°":4700,"éĢ£çĽŁ":4701,"ä¼Ŀçµ±":4702,"åģµ":4703,"è¡ĮãĤıãĤĮãĤĭ":4704,"åĲīçĶ°":4705,"å¤ªå¹³æ´ĭ":4706,"ãĤĴæ¨":4707,"çµĮæŃ´":4708,"æ£Ħ":4709,"ãģ¦ãĤĤ":4710,"01":4711,"æ´²":4712,"ãģ«æīĢå±ŀ":4713,"åĪ¶å®ļ":4714,"å®®åŁİ":4715,"Ġ2014":4716,"è²¨çī©":4717,"ç·´ç¿Ĵ":4718,"ãģ®æ³ķ":4719,"éĻ¥":4720,"ãĤĴæ¸":4721,"ãĥ¼ãĥĻãĥ«":4722,"è²¢çĮ®":4723,"ãĤ¯ãĥªãĤ¹":4724,"å®ļç¾©":4725,"ä½ĵãģĮ":4726,"ãģĪãģį":4727,"åĪĨãģ®":4728,"æ¸ĭ":4729,"Ġ2015":4730,"ï¼ĪãĢĮ":4731,"ãģ¨ãģªãģ£ãģ¦":4732,"ãĥ¼ãĥĭãĥ³ãĤ°":4733,"06":4734,"ãĤĴè¿İ":4735,"éĢģãĤĬ":4736,"ä¸īéĥİ":4737,"æĶ¹éĿ©":4738,"æ²ĸç¸Ħ":4739,"ãģķãĤĮãģ¦ãģĦãģŁãģĮ":4740,"ãģ«åĩºæ¼Ķ":4741,"ç¥Ŀ":4742,"åįĹéĥ¨":4743,"ĠISBN":4744,"ĠãĥĪ":4745,"å¾¹":4746,"è¦³æ¸¬":4747,"æĭ¡å¤§":4748,"DVD":4749,"è®":4750,"ãģ«ãĤı":4751,"ãĤĴæĲ":4752,"æĪĲéķ·":4753,"ãģĦãģ¦ãģĦãģŁ":4754,"æĸĻéĩĳ":4755,"å¹¹ç·ļ":4756,"ç¯ĦåĽ²":4757,"è©°":4758,"1000":4759,"ãģĭãĤĵ":4760,"ãĤ½ãĥ³ãĤ°":4761,"éķ·éĩİçľĮ":4762,"od":4763,"æĻĤãģ«ãģ¯":4764,"ãģ®èµ":4765,"åĪ¶å¾¡":4766,"å¨ģ":4767,"ãĥĥãĥĶ":4768,"ãĥĩãĤ¤":4769,"è³ĩæĸĻ":4770,"ãģ®åķı":4771,"ãĤģãģ¦ãģĦãģŁ":4772,"åŃĲãģ¯":4773,"éĢĶä¸Ń":4774,"ãĢĤï¼ī":4775,"ãĤ¢ãĥī":4776,"æĺİãĤīãģĭ":4777,"åħ±ãģ«":4778,"Ġ2016":4779,"ãĥĪãĥ©ãĥĥãĤ¯":4780,"ãģ®çłĶç©¶":4781,"ãĥ«ãĥĬ":4782,"ãģĭãĤĮãĤĭ":4783,"ãģĵãģ®ãģŁãĤģ":4784,"æģĲ":4785,"èıľ":4786,"ãĤªãĥ¼ãĤ¹ãĥĪãĥªãĤ¢":4787,"éĻµ":4788,"ãĤĦãģ¾":4789,"å®ĹæķĻ":4790,"07":4791,"ĠéĿĴ":4792,"å¹´ãģ¶ãĤĬ":4793,"å¤§è³ŀ":4794,"å¥ī":4795,"ãģªãģ£ãģ¦ãģĦãĤĭ":4796,"ç³ĸ":4797,"çĶŁãģ¾ãĤĮãģŁ":4798,"æħ®":4799,"ãĥ³ãĥĩãĤ£ãĥ³ãĤ°":4800,"æ¢¨":4801,"ãģĮå§ĭ":4802,"æĹ¥ãĤĪãĤĬ":4803,"ãĥ³ãĥļ":4804,"å½ĵæĻĤãģ¯":4805,"ĠçĻ½":4806,"ãĤ²ãĥ«":4807,"ãĥĶãĤ¢ãĥİ":4808,"éĳ":4809,"åĲįèªī":4810,"ãĥĳãĥ«":4811,"ãģŁãĤī":4812,"å¹´ãĤĪãĤĬ":4813,"è»įãģ¯":4814,"è¼©":4815,"åı¯èĥ½æĢ§":4816,"ãģ®æŃ£":4817,"ï¼Į":4818,"ä¼ļé¤¨":4819,"åľŁæĽľ":4820,"Ġå¤§éĺª":4821,"St":4822,"ãĤĴéĽĨ":4823,"ãĤŃãĥŃ":4824,"ãĥĲãĥĥ":4825,"æľĢå¾Įãģ®":4826,"ãĥļãĥ«":4827,"UEFA":4828,"ãĤĴæĦıåĳ³":4829,"69":4830,"BA":4831,"ith":4832,"åħįè¨±":4833,"æĹ¥æľ¬äºº":4834,"å®Łçı¾":4835,"éĽĨåĽ£":4836,"æ¬¡éĥİ":4837,"çļĩå¸Ŀ":4838,"Ġãĥ¬":4839,"ãģ«ä»»":4840,"ãĤĴéģĶæĪĲ":4841,"ãĥ«ãĥ¼ãĥĪ":4842,"ãĤ·ãĥĬ":4843,"ç½°":4844,"èĬ³":4845,"åºĹèĪĹ":4846,"çĪ¶è¦ª":4847,"'s":4848,"æĴ²":4849,"ãģ®æĬĢ":4850,"åīĽ":4851,"Ġ2017":4852,"ç¦ģæŃ¢":4853,"Ġ13":4854,"ãģ®æ·":4855,"èĤ¥":4856,"ãĤ¦ãĤ§ãĤ¤":4857,"è¬Ŀ":4858,"åģľæŃ¢":4859,"éİĮåĢī":4860,"ãģ®æ¬":4861,"ãĥ¼ãĥĸãĥ«":4862,"ãģ®æ¯į":4863,"ãĥĴãĥĥãĥĪ":4864,"èĩªåĭķè»Ĭéģĵ":4865,"ãĤ¢ãĥķãĥªãĤ«":4866,"ãĤ«ãĥ¡ãĥ©":4867,"ãĥŃãĥ³ãĥī":4868,"çĲĨåŃ¦":4869,"ãģĦãĤĴ":4870,"ãĤĤãĤĵ":4871,"ãģĬãĤīãģļ":4872,"åģ´ãģ®":4873,"æ¯İå¹´":4874,"éĩĳå±ŀ":4875,"OC":4876,"ãĤĴåĽ³":4877,"ãĥĩãĤ¸":4878,"å·ŀãģ®":4879,"ID":4880,"Ã©":4881,"ãĥĿãĥª":4882,"1971":4883,"ãģ«å¤ī":4884,"ãĥĲãĥĪãĥ«":4885,"ãĤ¨ãĥĪ":4886,"ãĥĶãĥ³":4887,"è¡ĽçĶŁ":4888,"åĪĬè¡Į":4889,"ãĢıãĢģ":4890,"ãĤıãģĳ":4891,"ä¸»åĤ¬":4892,"åīĬ":4893,"çĻºè¡¨ãģķãĤĮãģŁ":4894,"ãĥ³ãĤ¬ãĥªãĥ¼":4895,"!ãĢį":4896,"Ġæľ¨":4897,"ãĤªãĥ«":4898,"ãĤ¿ãĤ¯":4899,"æľ¬å¡ģæīĵ":4900,"ãģĪãĤīãĤĮãģŁ":4901,"ãĤ¨ãĥ¬":4902,"ç§»è»¢":4903,"æ½ľ":4904,"ãģ®å§¿":4905,"è´":4906,"ç¶²":4907,"çŁ¥äºĭ":4908,"ãĥĪãĥªãĥĥãĤ¯":4909,"ãĤĴæĮĩãģĻ":4910,"å¼ıãĥĽãĥ¼ãĥł":4911,"ãĥĹãĥŃãĤ¸ãĤ§ãĤ¯ãĥĪ":4912,"ãĤ¢ãĥ¡ãĥªãĤ«ãģ®":4913,"ãģ®åĳ¨":4914,"Ġãģ¨":4915,"ãģĹãģ¦ãģįãģŁ":4916,"ä¼ļåł´":4917,"åıĸç·ł":4918,"ãĥĸãĥ©ãĥĥãĤ¯":4919,"å½°":4920,"éĻ°":4921,"è¿«":4922,"ãĤĪãģĨãģ«ãģªãĤĬ":4923,"ãĤĤãģ®ãģĮ":4924,"è¨ĺäºĭ":4925,"ä½¿ãĤıãĤĮãĤĭ":4926,"å«Į":4927,"ãģ«è¦ĭ":4928,"ãģĭãĤĮ":4929,"ãĥ¬ãĤ³ãĥ¼ãĥī":4930,"ãģ®æĻĤä»£":4931,"éĻĦå±ŀ":4932,"ãģĻãĤĭãģ¨ãģĦãģĨ":4933,"ãĤĴè§£":4934,"ãĥĨãĤ¤":4935,"ç¶Ļç¶ļ":4936,"ãĤ¦ãĤ§ãĤ¢":4937,"è§Ĵå·Ŀ":4938,"¶Ī":4939,"åĩºãģķãĤĮãģŁ":4940,"ãĥ¼ãĤ¸ãĥ£":4941,"ãģĹãģªãģĭãģ£ãģŁ":4942,"å¹»":4943,"ãĤ¤ãĥ¬":4944,"ä¿¡åı·":4945,"âĺħ":4946,"Ġ16":4947,"å¼¥":4948,"æľĢå¾Į":4949,"èī²ãģ®":4950,"ãĤ³ãĥŁãĥ¥ãĥĭ":4951,"èĳ¬":4952,"ãĥģãĥ£ãĥ³ãĥįãĥ«":4953,"äºĪéģ¸":4954,"ãĥ¼ãĥģãĤ§ãĥ³ãĤ¸":4955,"«éľ²":4956,"ãĤĴçĶŁ":4957,"ãĤ«ãĥ¼ãĥ«":4958,"æłĹ":4959,"ãĤ¢ãĤ¯ãĤ»ãĤ¹":4960,"ãģ®æĶ¿æ²»":4961,"å¤§éĻ¸":4962,"ãĥıãĥł":4963,"ãģ®ãģŁãĤģãģ®":4964,"ãģ®åĮº":4965,"NN":4966,"èª°":4967,"åľ°ãģ§":4968,"å®Łé¨ĵ":4969,"æıļ":4970,"åĪ¤æĸŃ":4971,"ãĤ³ãĥ³ãĥĶãĥ¥ãĥ¼ãĤ¿":4972,"å¹´é½¢":4973,"ãģ®æĤ":4974,"çľĭ":4975,"ç¶ļãģı":4976,"å¾ĮæľŁ":4977,"è³¼åħ¥":4978,"æīĢåľ¨":4979,"æ©Łæ§ĭ":4980,"ãģ«ãģªãĤĭãģ¨":4981,"ãĥķãĤ©ãĥ³":4982,"ãģ²ãģ¨ãģ¤":4983,"ãģ®æ´»åĭķ":4984,"IG":4985,"og":4986,"ãĤĴæĴ":4987,"ãģĵãĤĮãĤīãģ®":4988,"ãģ®åķıé¡Į":4989,"FM":4990,"ãĥ¼ãģĮ":4991,"ãĢįï¼ī":4992,"ãģįãģ£":4993,"æ¼Ķåĩº":4994,"æ¡Ĥ":4995,"è¦ıåĪ¶":4996,"éķ·ãģĦ":4997,"èº«éķ·":4998,"éļĽãģ«ãģ¯":4999,"æĿ¾æľ¬":5000,"ard":5001,"æĸ°æ½®":5002,"ãģ®ä¸ĸçķĮ":5003,"ãģĭãĤĭ":5004,"ãĤĪãģĹ":5005,"ç·¯":5006,"èĹ¤åİŁ":5007,"éłĺåŁŁ":5008,"ĠäºĮ":5009,"ä½ĵãģ®":5010,"æ©ŁåĻ¨":5011,"ãĥ¯ãĥ³":5012,"ç¢ºä¿Ŀ":5013,"ãĥ¼ãĥĩãĥ³":5014,"å½©":5015,"ãĥĬãĤ¤ãĥĪ":5016,"å±±æľ¬":5017,"èĳĽ":5018,"å®īå®ļ":5019,"åĩºèº«ãģ®":5020,"ell":5021,"ãģ®ä¸Ģéĥ¨ãģĮ":5022,"é¼":5023,"ãĤĴçŁ¥":5024,"å°ī":5025,"å¯Ŀ":5026,"ç¤İ":5027,"ãĥĩãĥ³":5028,"ãĥĿãĥ¼ãĥ©ãĥ³ãĥī":5029,"æķĻå¸«":5030,"ãģ®å¸Ĥ":5031,"é·":5032,"ãĤĴæīĭ":5033,"æĹ¥ãģ¾ãģ§":5034,"çĶ°å¸Ĥ":5035,"all":5036,"ãĤ¹ãĥŀ":5037,"æĪ¦éļĬ":5038,"ç¥Ĳ":5039,"ç¨ļ":5040,"ä¸īåĽ½":5041,"Ġ1996":5042,"å¾³å·Ŀ":5043,"1968":5044,"èħ¹":5045,"09":5046,"Ġ[":5047,"åĪ·":5048,"ãģ¹ãģį":5049,"æŃĮæīĭ":5050,"éĢŁåº¦":5051,"éĬĢæ²³":5052,"ct":5053,"ãĥĨãĤ¯":5054,"ãĥ¥ãĥ¼ãĤ¹":5055,"ãĥıãĥ³ãĤ¬ãĥªãĥ¼":5056,"ãĥĹãĥŃãĤ°ãĥ©ãĥł":5057,"ãĤ¸ãĥ£ãĥ³":5058,"çķ°ãģªãĤĬ":5059,"ne":5060,"ãĥ¬ãĥ³ãĥĪ":5061,"åħĪçĻº":5062,"our":5063,"ãģ«ãģĤãģŁãĤĭ":5064,"å¶ĭ":5065,"ãģ§ãģĤãĤĭãģ¨":5066,"æĪ¦å¾Į":5067,"ãĤ¬ãĥ³ãĥĢãĥł":5068,"ãĤ³ãĥ«":5069,"æ³Ĭ":5070,"å½¹æīĢ":5071,"ãĤĴçµĲãģ¶":5072,"ãĥŀãĥį":5073,"ãģĵãģ®ãĤĪãģĨãģª":5074,"ãģĮåŃĺåľ¨":5075,"çĶ°é§ħ":5076,"ãģªãģĳãĤĮãģ°ãģªãĤīãģªãģĦ":5077,"åªĽ":5078,"åĪĨé¡ŀ":5079,"æľĢåĪĿãģ®":5080,"èĦĩ":5081,"ãģ®åĲįç§°":5082,"è¡ĮãģĨ":5083,"1969":5084,"79":5085,"MA":5086,"ä¸Ģåº¦":5087,"ä¹¾":5088,"åĬłèĹ¤":5089,"å°ĤæĶ»":5090,"ç¬¬äºĮæ¬¡ä¸ĸçķĮå¤§æĪ¦":5091,"è¢«å®³":5092,"éĸĭå¹ķ":5093,"ãĤĤãģ®ãģ¯":5094,"ãĤ¸ãĥ£ãĥĳãĥ³":5095,"ç²ī":5096,"ãģªãĤĵ":5097,"ãĤµãĥ©":5098,"ç³»ãģ®":5099,"Ġst":5100,"ãģĦãģ¤":5101,"ãĥ¡ãĥ«":5102,"ãĤ¨ãĥªãĤ¢":5103,"å±±èĦĪ":5104,"ãģĮè¦ĭ":5105,"æļ®":5106,"ãĥ¼ãĥĵãĥ¼":5107,"ft":5108,"xt":5109,"éĭ¼":5110,"RE":5111,"ãĤĴæŀľãģŁãģĹãģŁ":5112,"63":5113,"89":5114,"ãģŁãģ£ãģ¦":5115,"ãĤ¸ãĥ³":5116,"åŀ£":5117,"åĽ£åľ°":5118,"1967":5119,"ãĥ©ãĥĸ":5120,"äººãģ¨":5121,"ãĤ¨ãĥĨãĤ£":5122,"ç·ļãģ®é§ħ":5123,"ãĤ¹ãĥĪãĥ¼ãĥªãĥ¼":5124,"ãĥ¢ãĤ¹ãĤ¯":5125,"çĽ¸æĴ²":5126,"éĸĭåĤ¬ãģķãĤĮãģŁ":5127,"ãģ«èĩ³ãĤĭ":5128,"ãĤ«ãĥ©ãĥ¼":5129,"è¿·":5130,"ãģĮçĻºè¶³":5131,"ãģ¨èªŀ":5132,"æľĪåł´æīĢ":5133,"çī©é¤¨":5134,"è²¬ä»»":5135,"å¯¾çŃĸ":5136,"è¥¿éĥ¨":5137,"ä»ĸãģ«":5138,"éĳĳ":5139,"ãģ®ãĥª":5140,"ï¼ħ":5141,"æľ¬éĥ¨":5142,"åįĵ":5143,"é«ĺæ©ĭ":5144,"éłĤ":5145,"åĵ¡ãģĮ":5146,"ãĤĴæĬ±":5147,"ç¬ĳãģĦ":5148,"å¤§æ©ĭ":5149,"æĢĴ":5150,"ãĥªãĥ³ãĤ¯":5151,"ãĤĴæıı":5152,"ãģ®å£°":5153,"ãĤĴå¥ª":5154,"ãĤ¤ãĥŃ":5155,"ä¸Ģè¦§":5156,"æ²Ļ":5157,"è¦ģæ±Ĥ":5158,"åħ±éĢļ":5159,"ãĢĢãĢĢãĢĢãĢĢãĢĢãĢĢãĢĢãĢĢ":5160,"åģľçķĻæīĢ":5161,"04":5162,"1950":5163,"éĸĭè¨Ń":5164,"æĢ§ãģ®":5165,"ç¦ıäºķ":5166,"ãģ®å½¹":5167,"ãĥĨãĥ¬ãĥĵãĥīãĥ©ãĥŀ":5168,"Ġä½Ĳ":5169,"ãĥĪãĥ³ãĥįãĥ«":5170,"ãĥĲãĥ¼ãĥĪ":5171,"åŁĭ":5172,"éĨ":5173,"ãģĮçĦ¡":5174,"ãģĮå¢Ĺ":5175,"ãģĵãģ¨ãģ«ãģªãĤĭ":5176,"ãĥīãĥ©ãĤ¤":5177,"ãĤĴæ¼":5178,"ç¶¾":5179,"éŃı":5180,"ivers":5181,"ãĤĴãģ¯ãģĺãĤģ":5182,"66":5183,"åĲĮç¤¾":5184,"ãĤ±ãĥ¼ãĤ¹":5185,"1964":5186,"Ġl":5187,"ãĢĤãĢį":5188,"ãĤ³ãĥ¼ãĥ«":5189,"æŁı":5190,"ãģªãģıãģªãģ£ãģŁ":5191,"ä¾Ľçµ¦":5192,"å§Ķè¨Ĺ":5193,"ãģįãģ£ãģĭãģĳ":5194,"ãĥķãĤ©ãĥ«":5195,"è¢ĭ":5196,"400":5197,"Ġå¹³":5198,"ãģĮåħ¥":5199,"ãĥ³ãĥ¡":5200,"ãģ¾ãģ¨":5201,"å¾Ħ":5202,"è³ĥ":5203,"æĸ¹éĩĿ":5204,"ãģļãģ¤":5205,"ãĥĽãĥ«":5206,"ĠãĥĢ":5207,"ãģ®å³":5208,"å°Ĭ":5209,"ä¸ŃæŃ¢":5210,"å¯§":5211,"äº¤æ¸ī":5212,"ĠTHE":5213,"ãģ«ä¹Ĺ":5214,"æĹĭ":5215,"ãģĪãĤīãĤĮãĤĭ":5216,"æ´Ĺ":5217,"å¤§åŃ¦éĻ¢":5218,"é£Ľãģ³":5219,"ãĤ¿ãĤ¦ãĥ³":5220,"ãģĪãģªãģĦ":5221,"ä¸ĭãģ®":5222,"ç¨¿":5223,"å¤§éĺªåºľ":5224,"83":5225,"æĸİ":5226,"å¤§åŀĭ":5227,"çıį":5228,"åł±éģĵ":5229,"ãĤ¹ãĤ³ãĥĥãĥĪ":5230,"ãĤ¹ãĥŃ":5231,"å¾Ĳ":5232,"ç´«":5233,"çĶ°çĶº":5234,"å¢ĵ":5235,"Ġ2018":5236,"è¡ĽéĸĢ":5237,"ä¹ħä¿Ŀ":5238,"ãĤĴç¤ºãģĻ":5239,"ãģ«ç½®":5240,"ãģ¾ãģ¤":5241,"æĿ±éĥ¨":5242,"åħ¬åħ±":5243,"ãģ®æĺł":5244,"åĽ°éĽ£":5245,"ob":5246,"ãģĭãĤīãĤĤ":5247,"èĢĲ":5248,"ãĥĦãĤ£":5249,"æ¥½æĽ²":5250,"å¾Ģå¾©":5251,"ãģ®å®¶":5252,"çĽ®ãģ«":5253,"æŁ´":5254,"æĸ°ãģŁãģ«":5255,"ãĥ¼ãĥĮ":5256,"é¡§":5257,"ãĤĴè¡Įãģ£ãģ¦ãģĦãĤĭ":5258,"çĻ»åł´ãģĹãģŁ":5259,"ä¼Ĭåĭ¢":5260,"ãĤ¢ãĤ·":5261,"ãĥĥãĤ»":5262,"å¾ĮãĤĤ":5263,"ç«ĭåł´":5264,"éĢ²åĩº":5265,"çĹĽ":5266,"03":5267,"ãĥ¬ãĥĥãĥĪ":5268,"ãĤ¨ãĥįãĥ«ãĤ®ãĥ¼":5269,"ãĤ¿ãĥ¼ãĥ³":5270,"ãĤĤãģ®ãģ§":5271,"è¦ģç´ł":5272,"ãĤ¸ãĥ§ãĥ¼ãĤ¸":5273,"ãĤµãĤ¤ãĥī":5274,"ãģ®åĲįåīį":5275,"ãĤ¤ãĥ³ãĤ°ãĥ©ãĥ³ãĥī":5276,"ä½ĵãĤĴ":5277,"ãĥŃãĥ¼ãĥī":5278,"ãĥĹãĥ©ãĤ¤":5279,"åħµè¡Ľ":5280,"ãģŁãģ¡ãģ¯":5281,"ãģ®è·¯":5282,"ãĤ¨ãĥĶãĤ½ãĥ¼ãĥī":5283,"Ġåīį":5284,"ãģ«æĮĩå®ļ":5285,"ä¿Ĺ":5286,"éĬŃ":5287,"ï¼īãĢĮ":5288,"æķı":5289,"ãģĳãĤĵ":5290,"ãĥŁãĤ¹":5291,"ãĤ²ãĥ³":5292,"ç´°èĥŀ":5293,"ãĤªãĥ¼ãĤ¹ãĥĪãĥ©":5294,"05":5295,"nivers":5296,"ãģ®ä¸ī":5297,"åħ¨ãģı":5298,"ãģĹãģ°ãģĹãģ°":5299,"ãģ®æ¥½":5300,"è¾¼ãĤĵãģł":5301,"æ¸¡è¾º":5302,"åħ±çĶ£åħļ":5303,"Ġ2019":5304,"ãĤıãģ£ãģ¦":5305,"ĠCh":5306,"åı¯èĥ½ãģª":5307,"ãĥĭãĥĥãĥĿãĥ³":5308,"Ġéķ·":5309,"ãģıãĤī":5310,"æ²¿éĿ©":5311,"ãģĭãģªãĤĬ":5312,"ãĤŃãĥªãĤ¹ãĥĪ":5313,"éģºä¼Ŀ":5314,"GP":5315,"SU":5316,"ãģĤãģ£ãģ¦":5317,"ãĥĥãĤ«":5318,"åºĦ":5319,"ãģ«ãģĬãģĦãģ¦ãĤĤ":5320,"ãĥĩãĤ¸ãĤ¿ãĥ«":5321,"ãĤªãĥ¼ãĤ¹ãĥĪãĥ©ãĥªãĤ¢":5322,"ãģ¨å¯¾æĪ¦":5323,"éķ·å®ĺ":5324,"è³¢":5325,"ãĥ¯ãĥ¼ãĥī":5326,"æŁ±":5327,"æ¥½åĽ£":5328,"èĬ¸èĥ½":5329,"ãĥŀãĥ©ãĤ½ãĥ³":5330,"KO":5331,"åĲĳä¸Ĭ":5332,"æ£ĭ":5333,"Ġ1997":5334,"ãĤĦãģĻãģĦ":5335,"æľĢå¤ļ":5336,"ãģ«ãĤĪãģ£ãģ¦ãģ¯":5337,"æľªæĿ¥":5338,"å±Ĭ":5339,"æİĺ":5340,"ĠPr":5341,"JRæĿ±æĹ¥æľ¬":5342,"éģ©çĶ¨":5343,"åĽºå®ļ":5344,"02":5345,"NA":5346,"OV":5347,"ãĤĴãģĹãģ¦ãģĦãĤĭ":5348,"ãĤıãĤĮãģ¦":5349,"åĳ¼ãģ³":5350,"ï½¥":5351,"æĦĽåªĽ":5352,"ive":5353,"ãĤīãĤĮãģ¦ãģĬãĤĬ":5354,"ãĥªãĤ¢ãĥł":5355,"ãģ®åºĥ":5356,"èĺĩ":5357,"æĪĴ":5358,"ãģ®æº":5359,"æµª":5360,"å¦Ļ":5361,"ãĤµãĤ¤ãĤº":5362,"éĽ»éīĦ":5363,"ãģ»ãģĨ":5364,"åĸ¶åĮĸ":5365,"èı±":5366,"ãģ®åĩºæ¼Ķ":5367,"åĲĮãģĺãģı":5368,"æĸ°ãģŁãģª":5369,"ãģ®æ±º":5370,"88":5371,"ãģ«è¿ĳãģĦ":5372,"ãģ¯ãģĵãģ®":5373,"åĲĪãģĦ":5374,"å±±çĶ°":5375,"ç¥¥":5376,"å°ıæŀĹ":5377,"åº¦ãģ®":5378,"ãģĦãĤıãĤĨãĤĭ":5379,"åµ":5380,"éĩľ":5381,"ãģ¤ãģĳ":5382,"åĲĪæł¼":5383,"éļĶ":5384,"ãģ¿ãģ«":5385,"ãģĿãĤĮãĤī":5386,"æĮĻãģĴ":5387,"ãģ®ãģ«":5388,"ãĥĵãĤ¸":5389,"çĶŁåĳ½":5390,"æĹ¥æľ¬ä»£è¡¨":5391,"yle":5392,"ãģĹãģŁãģĵãģ¨":5393,"ãģĬãģĬ":5394,"éļı":5395,"ãĤ½ãĥĬ":5396,"å¤ļãģĭãģ£ãģŁ":5397,"å·»ãģį":5398,"ãĥ³ãĥĹãĥª":5399,"ĠãĤ·":5400,"æĪ¦ãģ®":5401,"åŃĲãĤĴ":5402,"ãģªãģ©ãĤĤ":5403,"ãĥıãĤ¦ãĤ¹":5404,"é§ĨéĢĲèī¦":5405,"!ãĢı":5406,"ãĥ«ãĤ¤":5407,"ä¸ŃæĿĳ":5408,"ãĥīãĤ¢":5409,"é¡ķ":5410,"ç¿»":5411,"åįļçī©é¤¨":5412,"ãģ®åĦª":5413,"ãģ®ãģ»ãģĭ":5414,"ãĥ³ãĥĿ":5415,"å°ĳå¥³":5416,"ãģ®åĲĮ":5417,"å±±å¸Ĥ":5418,"æīĢæľī":5419,"è²¸":5420,"æ¼ģ":5421,"æĶ¯æĮģ":5422,"1965":5423,"æ®ºäºº":5424,"ãĥĲãĥ©ãĤ¨ãĥĨãĤ£":5425,"åľ¨ç±į":5426,"åĮĹéĥ¨":5427,"ãĥļãĥ³":5428,"ãĥ¬ãĤ¯ãĤµ":5429,"ä¹Ĺè»Ĭäººåĵ¡":5430,"ãģ«ãģĻãĤĭ":5431,"åľ°ãĤĴ":5432,"ãģ¯ä»¥ä¸ĭãģ®":5433,"ãĤĴæĦ":5434,"ç·ļãĤĴ":5435,"æł¡èĪİ":5436,"åĪĨæŀĲ":5437,"ãģ§ãģįãģªãģĭãģ£ãģŁ":5438,"ãģ«åıĸãĤĬ":5439,"ãģĮåŃĺåľ¨ãģĻãĤĭ":5440,"è»Ĭåº«":5441,"ãĤ¬ãĥĭ":5442,"ãģ®æ§ĺ":5443,"Ġå·Ŀ":5444,"ãģ®åĤ":5445,"ãĤ·ãĥ§ãĥĬãĥ«":5446,"èĩªèº«ãģ®":5447,"åįĺä½į":5448,"ãģ®æĽ²":5449,"è¡ĮãģĻãĤĭ":5450,"ãĥ¢ãĥ¼ãĥī":5451,"ãģĹãĤĩãģĨ":5452,"çĶĺ":5453,"ãģķãģĪ":5454,"æľĪæĽľ":5455,"æŃ¦åĻ¨":5456,"ãĤ·ãĥĥãĥĹ":5457,"çĻºéĽ»":5458,"é£¼":5459,"æĭĵ":5460,"éºĹ":5461,"çĦ¡äººé§ħ":5462,"71":5463,"ãģ®ãĥ¬":5464,"ãģĮæ®ĭ":5465,"ãģ®èĤ":5466,"ãĥľãĤ¯":5467,"ãĥĩãĤ£ãĥ¼":5468,"ãĤŃãĥ£ãĥ©":5469,"ĠãĥĬ":5470,"æĿ±æ´ĭ":5471,"ãĥŁãĥ³ãĤ°":5472,"ãĥ¼ãĥģãĥ£":5473,"å¹¡":5474,"ãĥģãĤ¢":5475,"çŃĴ":5476,"è¦ĸèģ´":5477,"åĲ¸åıİ":5478,"Ġä½ľè©ŀ":5479,"ãĤ¹ãĤŃ":5480,"æ®ĸ":5481,"åıĸå¾Ĺ":5482,"ãģ«å¯¾å¿ľ":5483,"ãģĻãĤĭãģĵãģ¨ãĤĴ":5484,"æĴ¤éĢĢ":5485,"ED":5486,"ä»°":5487,"ãĥĸãĥŃãĥĥãĤ¯":5488,"å¹³åĴĮ":5489,"ãĤ³ãĥ³ãĤµ":5490,"çŁŃæľŁ":5491,"æĻ®åıĬ":5492,"èĹ©ä¸»":5493,"éļ£ãģ®é§ħ":5494,"WA":5495,"ãĤĭãģĮ":5496,"ãģ£ãģŁãģĮ":5497,"ä¸Ńèı¯":5498,"åĩ½":5499,"ãĤ¨ãĥķ":5500,"ãĥģãĥ³":5501,"æľĢåĦªç§Ģ":5502,"IR":5503,"è¦Ĩ":5504,"é§ħæ§ĭéĢł":5505,"èīĩ":5506,"ãĤ·ãĥ¼ãĤºãĥ³ãģ¯":5507,"ä¾¡æł¼":5508,"Ġkm":5509,"1966":5510,"ç¹ĭ":5511,"ãĤĴåĭĻãĤģãĤĭ":5512,"ãĤ´ãĥ«ãĥķ":5513,"äºŃ":5514,"æĸ¹ãģ«":5515,"çĲĨè§£":5516,"ãĥľãĤ¿ãĥ³":5517,"æ»ĳ":5518,"ãĤ¢ãĤ¦ãĥĪ":5519,"ç°¡æĺĵ":5520,"æįľæŁ»":5521,"eg":5522,"ãģ®åľŁ":5523,"ãģĿãģ®ä»ĸãģ®":5524,"ãĤ¤ãĥ³ãĤ¿ãĥ¼ãĥįãĥĥãĥĪ":5525,"åıĸç·łå½¹":5526,"ãģ®å³¶":5527,"è¹":5528,"Ġåħ¨":5529,"ãģĮä½¿çĶ¨":5530,"ãĤ¢ãĥł":5531,"é§ħãģĭãĤī":5532,"ãĤ½ãĥĵ":5533,"æ¬¡ãģ®":5534,"ãĥĴãĥĪ":5535,"å®ĪåĤĻ":5536,"JRä¹Ŀå·ŀ":5537,"ãģ®è¿ĳ":5538,"ç¹°ãĤĬè¿Ķ":5539,"ip":5540,"Ġn":5541,"æĹ¨":5542,"ãģĻãģİ":5543,"èĩªè»¢":5544,"åģ¥åº·":5545,"ãĥŁãĥ¥ãĥ¼ãĤ¸ãĥĥãĤ¯":5546,"ĠãĤ¶":5547,"çľĮãģ®":5548,"ãĤ¿ãĥ¼ãĤº":5549,"éĽĨåĲĪ":5550,"éģİãģİ":5551,"èĸĦ":5552,"éłĥãģ«":5553,"è¨±åı¯":5554,"PC":5555,"æĹ¥ä»ĺ":5556,"ç§¦":5557,"art":5558,"ãģ®æĶ»":5559,"çįĦ":5560,"ï¼Ł":5561,"æĸ°å®¿":5562,"æľŁãģ«":5563,"æĭĽ":5564,"ãĤĴè¨ª":5565,"ä¸ĸãģ¯":5566,"æµ·å²¸":5567,"ine":5568,"Ġ1995":5569,"ãģ£ãģ¦ãģĦãģŁãģĮ":5570,"è¡ĨèŃ°éĻ¢":5571,"ç¡¬":5572,"ãĤĴå¤±":5573,"éĩĳæĽľ":5574,"æ£Ĵ":5575,"æ»ŀ":5576,"ãĤĴæĲŃè¼ī":5577,"67":5578,"ãĥĨãĤ¹ãĥĪ":5579,"æĿ±å®Ŀ":5580,"åĽŀè»¢":5581,"åĽŀå¾©":5582,"ä½¿ãģĦ":5583,"ãģĵãĤĮãģ«ãĤĪãĤĬ":5584,"ãĢħãģ®":5585,"åĥļ":5586,"åĽ½éļĽç©ºæ¸¯":5587,"æĶ¿æ²»å®¶":5588,"IFA":5589,"ãģĤãĤī":5590,"ãģ®æ¤":5591,"ãĤ³ãĥ³ãĥĪ":5592,"ãĤ³ãĥ³ãĥĨ":5593,"åľ°ãģ¯":5594,"æ©Łåĭķ":5595,"åħµåĻ¨":5596,"ãģ®åĬĽ":5597,"ãĤĴéĢļãģĺãģ¦":5598,"ĠæŃ¦":5599,"ãĥ¬ãĥ¼ãĥĪ":5600,"æķ°ãģĮ":5601,"å¡ŀ":5602,"æģĴ":5603,"åħĪçĶŁ":5604,"æĮĳæĪ¦":5605,"ãĤ½ãĥĵãĤ¨ãĥĪ":5606,"AG":5607,"ä¸ŃåŃ¦":5608,"æĽ½":5609,"ãĥĻãĥ«ãĥĪ":5610,"ãĤıãģªãģĦ":5611,"ç«ĭãģ¤":5612,"çī©ãĤĴ":5613,"éŃĤ":5614,"ãģ«åıİéĮ²":5615,"ãģ¨ãģ¿":5616,"ãĤ¤ãĤ¨":5617,"ãĥĥãĤŃ":5618,"ä¹Ļ":5619,"æĸ¹ãģ®":5620,"æĭ¬":5621,"å§īå¦¹":5622,"ãĥĭãĤ¹":5623,"åİŁåĽł":5624,"æ¡ĥ":5625,"ãģĦãģıãģ¤ãģĭ":5626,"ãģ®åĳ½":5627,"ãģ®è¶":5628,"ãĥĲãĤ¹åģľ":5629,"ãĤ¹ãĤ¯ãĥ¼ãĥ«":5630,"ãĤ¢ãĤ«ãĥĩ":5631,"ç·Ĭ":5632,"ãĤªãĥ©ãĥ³ãĥĢ":5633,"ãĤ¹ãĤ¿ãĥ³ãĥĪ":5634,"èĺŃ":5635,"ãģ¨ä¸Ģ":5636,"ãģ¨è¦ĭ":5637,"ãģ¾ãģļ":5638,"ãģ®è¾":5639,"è¼Ķ":5640,"çĭĻ":5641,"åįĺçĭ¬":5642,"åĳ¨å¹´è¨ĺå¿µ":5643,"ãģ®æıĲ":5644,"ha":5645,"Ġ20":5646,"ãģ®ä¸į":5647,"åħĭ":5648,"ãģĻãĤĮãģ°":5649,"åĭ²":5650,"ç´¢":5651,"ãĥĳãĤ¹":5652,"åıĤçħ§":5653,"åįĶå®ļ":5654,"çĢ¬æĪ¸":5655,"ãĥ¦ãĥĭãĥĥãĥĪ":5656,"ãģ®åķĨ":5657,"ãĤĴä¸ĭ":5658,"ãĥ«ãĤ«":5659,"ãĥĲãĥ³ãĤ¯":5660,"ãģ¨ãĤĤåĳ¼ãģ°":5661,"ãĥ¬ãĥ¼ãĤ¿ãĥ¼":5662,"ãģŁãģ¡ãģĮ":5663,"ãģ®æģ¯":5664,"ãģ®ç¥ŀ":5665,"ãĤĴæĶ¾":5666,"æĸĹ":5667,"ãģ©ãĤĤ":5668,"è²§":5669,"ãģĮãģĤãĤĭãģĮ":5670,"1963":5671,"if":5672,"ãĢıï¼ī":5673,"èĩªå·±":5674,"è¶£":5675,"å·¥åŃ¦":5676,"éĢ²è¡Į":5677,"åĽ³æĽ¸é¤¨":5678,"ãĥĬãĤ¦":5679,"å¾Įè¿°":5680,"è»Ĭãģ®":5681,"çµ±è¨Ī":5682,"å¼·åĮĸ":5683,"èĦļæľ¬":5684,"ĠãĤ¦":5685,"ãĥīãĥ¼ãĥł":5686,"ĠĊĠ":5687,"å®ŁéļĽãģ«":5688,"æĶ¾éĢģãģķãĤĮãģŁ":5689,"æĶ¹éĢł":5690,"ãģ®æ°ĳ":5691,"æĹ¢ãģ«":5692,"ãģĭãģĨ":5693,"ãĤ³ãĥł":5694,"è²łãģĳ":5695,"ï¼Ĭ":5696,"ãģĮæµģ":5697,"äº®":5698,"çĲĨäºĭ":5699,"æĻĤä»£ãģ¯":5700,"æ£Ł":5701,"è´Ī":5702,"72":5703,"ãĥķãĤ¡ãĥŁ":5704,"ue":5705,"ãĥ¡ãĥ³":5706,"ä¿ĥ":5707,"åĿĬ":5708,"ä½ĵèĤ²é¤¨":5709,"98":5710,"ik":5711,"Ġç¥ŀ":5712,"éĢı":5713,"ä¸Ńä¸ĸ":5714,"çĻºè¨Ģ":5715,"ä½ľæĪĲ":5716,"ãĤīãĤĮãģªãģĦ":5717,"ãģ®æĢ§":5718,"ãģ®è³ĩ":5719,"Ġde":5720,"ãĥĨãĥĥãĥī":5721,"ãģ£ãģ¦ãģįãģŁ":5722,"ãĤĴæ§":5723,"å¥³åĦª":5724,"çŁ¥èŃĺ":5725,"ä¿ĿåŃĺ":5726,"è¦ıæ¨¡ãģª":5727,"ãģĶãģ¨ãģ«":5728,"ãģ®ãģªãģĦ":5729,"ï¼ĥ":5730,"ãģĮæĪĲç«ĭ":5731,"éģĤ":5732,"ãĥ¬ãĥĥãĥī":5733,"åĪĨãģĳ":5734,"æĿ¥ãģŁ":5735,"å²©æīĭ":5736,"ç·łçµĲ":5737,"æİ¢åģµ":5738,"æ¯Ķè¼ĥçļĦ":5739,"ãĥīãĥŃ":5740,"æľŁå¾ħ":5741,"ç®ĩ":5742,"å¡¾":5743,"ãĤ·ãĥ£ãĥ³":5744,"èª¿æķ´":5745,"åł´åĲĪãĤĤãģĤãĤĭ":5746,"æ¶Īæ»ħ":5747,"ãģ®æ£®":5748,"ĠçĶ°":5749,"è»¸":5750,"æĻĭ":5751,"ãĥĲãĥ¼ãĥ³":5752,"ãĤ±ãĥ³":5753,"åĲĦç¨®":5754,"ãģĿãģĵãģ§":5755,"éĻ¸ä¸Ĭç«¶æĬĢ":5756,"ãģŁãģ³":5757,"ãģ¨ãģªãģ£ãģ¦ãģĬãĤĬ":5758,"äºĭãģĮ":5759,"æ°ĳåĸ¶åĮĸ":5760,"æĮĩæĳĺ":5761,"æĸĩåĮĸè²¡":5762,"ãģ«å°±ä»»ãģĹãģŁ":5763,"Ġãĥĵ":5764,"ĠãĤŃ":5765,"ãģ«çĶ±æĿ¥":5766,"ãĤ¢ãĤ¹":5767,"è»Ĭãģ¯":5768,"å½ĵãģ¦":5769,"ãģķãģĽãģ¦":5770,"ãģ·":5771,"ãĥ«ãĥ¼ãĥ«":5772,"å·£":5773,"è¥¿æĹ¥æľ¬":5774,"è¡Ĺéģĵ":5775,"åĤ¾åĲĳ":5776,"Ġç¾İ":5777,"ãĥŀãĥĥãĥģ":5778,"ant":5779,"éĺ²æŃ¢":5780,"å¿ħãģļ":5781,"çħĻ":5782,"ãģ®æĦıåĳ³":5783,"ãĤĴæ¼Ķ":5784,"Ġä¸ĭ":5785,"æĿ¥æŃ´":5786,"éŃĶæ³ķ":5787,"ãĤµãĥĥãĤ«ãĥ¼éģ¸æīĭ":5788,"ãģ®æĦĽ":5789,"ãĤ¤ãĤª":5790,"ãĤ·ãĥ¼ãĥĪ":5791,"éĢĢåĽ£":5792,"èıĵ":5793,"und":5794,"ud":5795,"ãģĦãģ¡":5796,"æľŁãģ®":5797,"åĢŁ":5798,"ev":5799,"ĠãĤ»":5800,"ãĤĬãĤĴ":5801,"ä¹Ŀå·ŀæĹħå®¢éīĦéģĵ":5802,"èĩ¨æĻĤ":5803,"ç¥ŀå¥Īå·ĿçľĮ":5804,"Ġãĥĸ":5805,"å¾®":5806,"åĨĴ":5807,"å®ļæĻĤ":5808,"è¦ıåīĩ":5809,"å®ĮäºĨ":5810,"EL":5811,"Ġ2020":5812,"ãĤĴæ´":5813,"èªŀãģ§":5814,"ãģĻãĤĭãģĵãģ¨ãģ¯":5815,"ãĥ¼ãĥ©ãĥ¼":5816,"åĲīéĩİ":5817,"ãĤ¤ãĥ³ãĤ¿ãĥĵãĥ¥ãĥ¼":5818,"ä»£ãĤıãĤĬãģ«":5819,"åĲĪæµģ":5820,"åĲĪè¨Ī":5821,"çĻºè¶³":5822,"éĸĵãģ¯":5823,"ãĥĳãĥ¼ãĤ¯":5824,"å·Ŀé§ħ":5825,"å»·":5826,"èıħ":5827,"èģ·åĵ¡":5828,"ãģĻãĤĭãģĵãģ¨ãģĮãģ§ãģįãĤĭ":5829,"ãģłãģĳãģ§ãģªãģı":5830,"ãģ«ä¸Ģ":5831,"ãĥ³ãĥı":5832,"ãĥŀãĥª":5833,"ãģ§ãģĤãĤĭãģŁãĤģ":5834,"ãĥĿãĥ«ãĥĪ":5835,"æ¬¡ç¬¬":5836,"éĮ²éŁ³":5837,"åŁºåľ°":5838,"å¼·åĪ¶":5839,"ãĤ°ãĥ©ãĥ³ãĥī":5840,"å¤§ä¼ļãģ§":5841,"ãĤĴåıĸå¾Ĺ":5842,"ãĤĴæ§ĭ":5843,"Ġ&":5844,"ãĤ¿ãĥ¬ãĥ³ãĥĪ":5845,"è»įãģĮ":5846,"ãģĻãģª":5847,"ãĥĥãĤ«ãĥ¼":5848,"ãģĹãģŁãģ¨ãģĦãģĨ":5849,"å¤§åĪĨ":5850,"æīĢãģ«":5851,"å½ĵè©²":5852,"ãģ¨åĲĮæĻĤãģ«":5853,"çİĩãģĦãĤĭ":5854,"ãĤ¸ãĥ¥ãĥĭãĤ¢":5855,"ãģ®å¼Ł":5856,"æĵįä½ľ":5857,"çĬ¯ç½ª":5858,"çĥĪ":5859,"ãĥĢãĥ³ãĤ¹":5860,"æº¶":5861,"åį±éĻº":5862,"ãĤĴæµģ":5863,"æĹ¥æĽľ":5864,"æĻĤçĤ¹":5865,"ä½įãģ«":5866,"ãģĵãĤĮãģ«":5867,"çĭ©":5868,"ãĤ¤ãĥ³ãĤ¿ãĥ¼ãĥģãĤ§ãĥ³ãĤ¸":5869,"æ¸Ľå°ĳ":5870,"å°ĤéĸĢåŃ¦æł¡":5871,"ãģ¤ãģį":5872,"ä¹ĥ":5873,"æ±ļ":5874,"ãĥĻãĤ¤":5875,"ãĥĩãĤ£ãĥ³ãĤ°":5876,"ãĥļãĥ¼ãĤ¸":5877,"å½¢æħĭ":5878,"è¡ĽéļĬ":5879,"Ġ1984":5880,"ãĤ³ãĥ³ãĤµãĥ¼ãĥĪ":5881,"å¯Ĵ":5882,"ãĤĴæº":5883,"å¸Ĥãģ«":5884,"å¸Ĥéķ·":5885,"åİŁåīĩ":5886,"ä½įãĤĴ":5887,"ãĤ¦ãĤ£ãĥªãĤ¢ãĥł":5888,"ãĥ³ãĥĳãĤ¹":5889,"ãĥŃãĤ±ãĥĥãĥĪ":5890,"è¨ĢãģĨ":5891,"çµĲå±Ģ":5892,"ãģ¨è¨ĢãģĨ":5893,"åĲ¦å®ļ":5894,"86":5895,"ãĥ¼ãĤ·":5896,"TC":5897,"ãģ«ä½¿çĶ¨":5898,"ãĤ³ãĥ¼ãĥĴ":5899,"æĻ¶":5900,"åħ±èĳĹ":5901,"ãģ®å¾©":5902,"ãĥ«ãĥĪãĥ©":5903,"çĻºçĿĢ":5904,"ãĥ³ãĥīãĥ«":5905,"é¨Ĵ":5906,"ä¸Ģéĥ¨ãģ®":5907,"ES":5908,"ast":5909,"ãĤĴéĩį":5910,"çŁ¥ãĤīãĤĮãģ¦ãģĦãĤĭ":5911,"æµľæĿ¾":5912,"æĨ²æ³ķ":5913,"ãģĭãģĹ":5914,"æķ°ãģ®":5915,"||||||||":5916,"OP":5917,"ãĤĴéĢ²":5918,"æĿİ":5919,"ãģłãģ¨":5920,"åĲįç¾©":5921,"åīįåįĬ":5922,"åĬĽãģ¯":5923,"çĽ¸äºĴ":5924,"æĽ´ãģ«":5925,"ãĥ¼ãĥı":5926,"ãĥ¢ãĥª":5927,"å¿ħè¦ģãģĮãģĤãĤĭ":5928,"ãĥģãĥ£ãĥ³ãĥĶãĤªãĥ³ãĤº":5929,"96":5930,"Ġãĥ©":5931,"ãĤīãģĹ":5932,"ãģĹãģŁå¾Į":5933,"ãĤĴæį":5934,"æµ´":5935,"ang":5936,"è³ŀãĤĴåıĹè³ŀ":5937,"ç£Ĳ":5938,"ãĤ¢ãĥĨ":5939,"ãĤ·ãĤªãĥ³":5940,"äºĭãĤĴ":5941,"ãģļãģ«":5942,"ãĥ©ãĤ¤ãĥĢãĥ¼":5943,"çĻ»æĿ¿":5944,"Ġ1993":5945,"ãģ®å°ĳ":5946,"ãĥ¯ãĤ¤ãĥī":5947,"ãģ«æĪĲåĬŁ":5948,"ä½³":5949,"ãĥ©ãĤ¤ãĤªãĥ³":5950,"éĮ¦":5951,"åºľçľĮ":5952,"æ»ĭ":5953,"ãĥ³ãĥģãĥ£":5954,"ãģ«ä½įç½®ãģĻãĤĭ":5955,"ãģ¯ç´Ħ":5956,"ãģ®åĸ":5957,"ãĤ¸ãĥ«":5958,"æĸĩæĽ¸":5959,"ãĥªãĤ¢ãĥ«":5960,"éľ§":5961,"å±ķç¤º":5962,"ãģ®ãģ¡ãģ«":5963,"Ġåħ«":5964,"Ġ2021":5965,"ãĢĶ":5966,"ãĢķ":5967,"ãģ®åŃĺåľ¨":5968,"åı¥":5969,"ãĤģãģĲ":5970,"èªĩ":5971,"åľ°å¸¯":5972,"ãĥĿãĥ¼ãĤ¿ãĥ¼":5973,"ãĥķãĤ©ãĥ¼ãĥł":5974,"åľ°ä¸ĭéīĦ":5975,"åĪ°çĿĢ":5976,"73":5977,"ä¸ĬãģĴãģŁ":5978,"ãģ¥ãģĳ":5979,"ãģ®æ¼Ķ":5980,"76":5981,"é´":5982,"ãĤĴçĿĢ":5983,"å±±çľĮ":5984,"è¥¿æŃ¦":5985,"ãĥ¼ãĥĬãĥ¡ãĥ³ãĥĪ":5986,"èĸ©":5987,"ãĥĻãĥ«ãĥªãĥ³":5988,"ãģ¨ãģķãĤĮãģŁ":5989,"ãĥŃãĤ¤":5990,"ç«£":5991,"ãĢıãĢģãĢİ":5992,"éĢļéģİ":5993,"ãĤ¬ãĤ¤":5994,"çµ±æ²»":5995,"éļİç´ļ":5996,"ãĥ¬ãĤ¯ãĤ¿ãĥ¼":5997,"æ¬§å·ŀ":5998,"ãĥĥãĤŃãĥ¼":5999,"èªŀãģ®":6000,"æĢ§èĥ½":6001,"çı¾åľ¨ãģ§ãģ¯":6002,"åĥķ":6003,"åĪ©çĶ¨çĬ¶æ³ģ":6004,"ç±³åĽ½":6005,"per":6006,"ãĤĴãģĭ":6007,"ãĤĴå®Ī":6008,"ãĥ¬ãĥĻãĥ«":6009,"ãĥ¡ãĤ«":6010,"ãģ®è¼":6011,"æĸ°å¹¹ç·ļ":6012,"å®Łæ³ģ":6013,"ãĤ®ãĤ¿ãĥ¼":6014,"ãĢħæľ¨":6015,"ãģĵãģ¡ãĤī":6016,"éĽ¢èĦ±":6017,"åĦĦåĨĨ":6018,"å¸ĮæľĽ":6019,"Ġãĥ¢":6020,"ï¼īï¼ī":6021,"æĹ¥å¹³åĿĩ":6022,"æŃ¯":6023,"ãĤ¨ãĤ¤":6024,"ãĥĺãĥĥãĥī":6025,"ãģ®ãĤĬãģ°":6026,"èĩªè»¢è»Ĭ":6027,"ç·ļãģ¯":6028,"æ¥½åĻ¨":6029,"åŃĹãģ¯":6030,"æĤ£":6031,"æİĽãģĳ":6032,"éĻ³":6033,"åĦŁ":6034,"ord":6035,"æŃ»èĢħ":6036,"ãģ«å¤§":6037,"ä¼ļåĵ¡":6038,"ãĥĵãĥ³":6039,"åįĥä»£":6040,"ãĥ³ãĤ¿ãĥ«":6041,"ãĤ¦ãĤ£ãĥ¼ãĥ³":6042,"ãģĵãģ¨ãĤĤãģĤãĤĬ":6043,"ãģ®äºĮ":6044,"ãģ«è²¢çĮ®":6045,"ãģĮãģª":6046,"ãģĮä»ĺ":6047,"ãĤĤãģĹ":6048,"æĪ¦èī¦":6049,"åħ¥åŃ¦":6050,"ãģªãģĭãģ£ãģŁãģĮ":6051,"ç¢ĳ":6052,"éĸīéİĸ":6053,"ä»²éĸĵ":6054,"No":6055,"ãģ«ãģĤãĤĬ":6056,"ãģıãģªãĤĭ":6057,"åĲĳãģį":6058,"æīĵæĴĥ":6059,"éĿĴæ£®":6060,"ãģ®å·¥":6061,"çĶ³è«ĭ":6062,"æĿ±è¥¿":6063,"ãģªãģ©ãģ¯":6064,"ãĥŁãĥ³":6065,"å³ł":6066,"ä»¥åīįãģ¯":6067,"ãĤĴçł´":6068,"ãģ®æ¹":6069,"ä¸īéĩį":6070,"åĳ¨åĽ²":6071,"äºĪåĤĻ":6072,"ãģ«åħ¥ãĤĬ":6073,"åīµç«ĭ":6074,"ãĤīãģĹãģĦ":6075,"ãĤĦãĤĬ":6076,"å¿į":6077,"ãģ¿ãģ®":6078,"Ġ1994":6079,"è¡Ŀçªģ":6080,"ãĤ¤ãĥ¼":6081,"ãģ£ãģ¦ãģĦãģªãģĦ":6082,"å§ĵ":6083,"åĸ«":6084,"çīĪãģ§ãģ¯":6085,"ä½İãģĦ":6086,"ãģ®å¤ĸ":6087,"ãĤ¢ãĥ³ãĥĪ":6088,"ãĤ¯ãĤ¿ãĥ¼":6089,"çĶ°ãģ¯":6090,"æ´¾éģ£":6091,"éĢĨãģ«":6092,"ãģ®æĪ¦ãģĦ":6093,"ãĤªãĥ¼ãĥĹãĥĭãĥ³ãĤ°":6094,"åĪĨåī²æ°ĳåĸ¶åĮĸ":6095,"ãģ®èĳĹ":6096,"GM":6097,"½åŁ¹":6098,"Ġ2022":6099,"ãĤ¹ãĥª":6100,"ãĤ¯ãĤ¤ãĤº":6101,"éĥ¨ãģĮ":6102,"èĩªç¤¾":6103,"ãĥ¯ãĤ·":6104,"ãĤ°ãĥ©ãĥ³ãĥĹãĥª":6105,"èĻİ":6106,"ãĤ«ãĥĬãĥĢ":6107,"ãģĮèµ·ãģĵ":6108,"æ·¡":6109,"æķĹéĢĢ":6110,"æĬķç¥¨":6111,"ãģĭãģĭãĤıãĤīãģļ":6112,"85":6113,"AK":6114,"®æįķ":6115,"ãĤĴåħ¥":6116,"éĢ®æįķ":6117,"ãģ®åĴ":6118,"ãĥ³ãĥŃ":6119,"åĲĮæĻĤ":6120,"ãģķãĤĮãĤĭãģĵãģ¨":6121,"ãĥĨãĤ£ãĥĥãĤ¯":6122,"ãģ¦ãģĦãģŁãģĮ":6123,"çĮ«":6124,"ãģ®åħ¨":6125,"è¨ĺèĢħ":6126,"æ·»":6127,"ä½µè¨Ń":6128,"ãĤĴæĦıåĳ³ãģĻãĤĭ":6129,"ãģ®ä»£":6130,"ãģĻãģ¨":6131,"å¸³":6132,"ãĥŃãĥ¼ãĤº":6133,"ä½įãģ®":6134,"ãģĹãģ¾ãģĦ":6135,"ãĤĴçµĲæĪĲ":6136,"ION":6137,"MC":6138,"ªçĴ°":6139,"Ġéĩİ":6140,"ãĤ·ãĥ³ãĤ¬":6141,"ãĤµãĤ¦ãĥ³ãĥī":6142,"æĬķãģĴ":6143,"ãģ«éĸ¢ãģĹãģ¦ãģ¯":6144,"ç«£å·¥":6145,"ãĥĥãĤº":6146,"éĽĩ":6147,"åĽŀãĤĬ":6148,"ind":6149,"è¨Īç®Ĺ":6150,"ãģĿãģ®å¾Įãģ¯":6151,"æĢĿæĥ³":6152,"ç©įæ¥µ":6153,"åĲ«ãģ¾ãĤĮãĤĭ":6154,"æĹ¥æľ¬ãģ§":6155,"åģ½":6156,"å¦Ĥ":6157,"å¾ĴæŃ©":6158,"èĥĮæĻ¯":6159,"ãģ®åĨħå®¹":6160,"ãĤĤå¤ļãģĦ":6161,"éĢ¸":6162,"èĢķ":6163,"åİŁåŃĲ":6164,"äºķä¸Ĭ":6165,"ãģĿãģ®å¾ĮãĤĤ":6166,"æ³¨çĽ®":6167,"ãģ®å¦»":6168,"ä¸Ńéĥ¨":6169,"ãĥ¡ãĤ¿ãĥ«":6170,"ä½ľçĶ¨":6171,"ãĥ¤ãĤ¯":6172,"èµ·çĶ¨":6173,"åįģåŃĹ":6174,"åĲĪä½µãģĹ":6175,"ãģ®æĽ¸":6176,"¿æĺĵ":6177,"ãĤĦãģĮ":6178,"ãģ¤ãģı":6179,"é«ĺçŁ¥":6180,"æ¥½å¤©":6181,"1962":6182,"å¤§ãģįãģĦ":6183,"éłĥãģĭãĤī":6184,"ãĢīï¼īâĢ»":6185,"åŁºæľ¬çļĦãģ«":6186,"æĽ¹æĵį":6187,"span":6188,"ï¼ĳ":6189,"éģ·":6190,"ãģĤãĤĭãģĮ":6191,"ING":6192,"ãģ®èĬ±":6193,"ãĤĭãģĵãģ¨ãģĮ":6194,"ãĤĤåĲ«":6195,"ãģķãĤĮãģªãģĦ":6196,"ãģķãĤĮãģ¦ãģĦãĤĭãģĮ":6197,"ãģ®ä¸Ģäºº":6198,"åĳ½ä»¤":6199,"Ġ1992":6200,"ãĤ·ãĥĥãĤ¯":6201,"åł´ãģ§":6202,"ãĤ¨ãĤ¹ãĥĪ":6203,"éĥ½éģĵ":6204,"ç©ºéĸĵ":6205,"Ġ14":6206,"ãģ®åħĪ":6207,"ãĥ¼ãĤ«":6208,"ãģĮãģĦãĤĭ":6209,"ãģĦãģį":6210,"ãĥ©ãĥªãĥ¼":6211,"æľĪæľŁ":6212,"ãĥĩãĤ¹":6213,"ãĤ¨ãĥĵ":6214,"ç§°ãģ¯":6215,"ãģ¨åĲĮãģĺãģı":6216,"ãģ¨åĲĮæ§ĺãģ«":6217,"eb":6218,"ãĥªãĥĥãĤ¯":6219,"å¸ĤçĶºæĿĳ":6220,"ãĥĥãĥĪãĥľãĥ¼ãĥ«":6221,"å¸°åĽ½":6222,"ãģ®å¥³æĢ§":6223,"è»Ĵ":6224,"ãĥŀãĥĭ":6225,"ä½ľãĤĬ":6226,"å¥³åŃ¦æł¡":6227,"1945":6228,"ãģ®æ°Ĺ":6229,"ãģ«å±ŀãģĻãĤĭ":6230,"Ġåºĥå³¶":6231,"ãģĵãģĿ":6232,"æľ¬æł¼":6233,"ãĥĨãĥł":6234,"ãĤ±ãĤ¤":6235,"æħ£":6236,"åľŁåľ°":6237,"èªįèŃĺ":6238,"çĻ»åł´äººçī©":6239,"ãģ®ä½ľåĵģ":6240,"1961":6241,"ç¢ºç«ĭ":6242,"ãĥĹãĥŃãĥĩãĥ¥ãĥ¼ãĤ¹":6243,"åĽ½éīĦåĪĨåī²æ°ĳåĸ¶åĮĸ":6244,"ãģ®çĪ¶":6245,"ãģĭæľĪ":6246,"åĪĨãģ«":6247,"ãĥĻãĥĥãĥĪ":6248,"éĽĨèĲ½":6249,"åıįä¹±":6250,"ãģĵãģĨãģĹãģŁ":6251,"æ³¨æĦı":6252,"Ġä¸»æ¼Ķ":6253,"ãģŁãģ¨":6254,"ãģ®èĦ":6255,"ĠãĥĽ":6256,"æľ¬äºº":6257,"éģĵåħ·":6258,"å¹³æĹ¥":6259,"ãĤĤãģ®ãĤĴ":6260,"çĶ»éĿ¢":6261,"å¤©çĦ¶":6262,"è©¦ãģ¿":6263,"ç®¡è½Ħ":6264,"ãĤ°ãĥ©ãĥķãĤ£":6265,"ational":6266,"ãģ¨èĢĥãģĪãĤīãĤĮãģ¦ãģĦãĤĭ":6267,"Ġwith":6268,"ãĥ¢ãĤ¹ãĤ¯ãĥ¯":6269,"95":6270,"çĶ·å¥³":6271,"éģºçĶ£":6272,"800":6273,"ãģ®çĶŁ":6274,"ãĢģãĢģ":6275,"ãĤ¢ãĥŀ":6276,"åĲĪæĪĲ":6277,"åŃĲä¼ļç¤¾":6278,"æĹ¥æľ¬åĽ½":6279,"ãĥ«ãĥĪãĥ³":6280,"è¦ıæł¼":6281,"Ġ1989":6282,"ãģ®æĮģ":6283,"OK":6284,"åĮĸãģķãĤĮãģŁ":6285,"ãĥĩãĤ£ãĥĵ":6286,"æī±ãģĨ":6287,"åľ°ä¸Ĭé§ħ":6288,"SH":6289,"ãĤĴéĢģ":6290,"ãĥ³ãĤµãĥ¼":6291,"ãĥĨãĥŃ":6292,"æĸ°æĹ¥æľ¬":6293,"åĬłåħ¥":6294,"ãĤĴæĬķ":6295,"ãĥĹãĥ©ãĤ¹":6296,"ãģ®å¢Ĺ":6297,"å´©å£Ĭ":6298,"å·Ŀå´İ":6299,"DS":6300,"Ġa":6301,"ãģ¾ãģķ":6302,"ç©ºæ°Ĺ":6303,"ç¾©åĭĻ":6304,")ãĢĤ":6305,"ãģ®ãĤĤãģ¨":6306,"ãĥŀãĤ¯":6307,"ç´Ľ":6308,"çĲ´":6309,"æĦıè¦ĭ":6310,"Ġstyle":6311,"97":6312,"éµ":6313,"ãģ¾ãĤĮãģŁ":6314,"å¾ªçĴ°":6315,"å¸Ĥè¡Ĺ":6316,"æĪ¦ãĤĴ":6317,"ãĤ·ãĥ§ãĥ¼":6318,"è¿ĳå¹´":6319,"æĻĤä»£ãģĭãĤī":6320,"ãĤ³ãĥ¼ãĥĩãĤ£":6321,"å°ıåŀĭ":6322,"æĽ¸ç±į":6323,"è©ķè«ĸ":6324,"ãģ®åĭĿ":6325,"é¨İå£«":6326,"ĊĠĠĠĠĠĠĠĠĠĠĠĠĠ":6327,"Ġå®ī":6328,"ãģ®åĵ":6329,"ä¸Ģå®ļ":6330,"ãĤĦãĤĦ":6331,"Ġ1990":6332,"ãģ®æ¨©":6333,"æľĪåĪĬ":6334,"çĶ¨èªŀ":6335,"ãĤ¹ãĤ¿ãĥł":6336,"ãĤ¤ãĤ¹ãĥ©":6337,"æ¤ľæŁ»":6338,"è¸Ĭ":6339,"æ³³":6340,"æľĢå¾Įãģ«":6341,"ãĥĴãĥŃ":6342,"æ·³":6343,"ãģ®åīµ":6344,"æĹ©ãģı":6345,"IM":6346,"ĠãĤ¿":6347,"å¹´ä»¥éĻį":6348,"ãĤĴæĵ":6349,"ãĥıãĥ¼ãĥī":6350,"å¯¾ç«ĭ":6351,"THE":6352,"ep":6353,"ãģ®åĲĦ":6354,"å°»":6355,"ãģ®è¬":6356,"ãĤ¹ãĥĪãĥª":6357,"ãĥ¢ãĥ³ãĥī":6358,"ãģĿãĤĮãģĮ":6359,"è¡ĽæĺŁ":6360,"å¥ıæĽ²":6361,"ãģĸãģ¾":6362,"IV":6363,"ä½ľãĤīãĤĮãģŁ":6364,"ãĥģãĥ¼ãĥķ":6365,"åĴ²":6366,"æľ«ãģ«":6367,"ãģ®æĥħ":6368,"ãĢį(":6369,"ãĥŃãĤ´":6370,"äºĮçŃī":6371,"æ°ĹåĢĻ":6372,"æĭĿ":6373,"åıİåħ¥":6374,"åĪ¤å®ļ":6375,"ãĥŃãĥĥãĥĨ":6376,"ãģ®æĶ»æĴĥ":6377,"ãģ®æľī":6378,"ãģ®ä¸¡":6379,"ãģĮä¸į":6380,"æµĦ":6381,"çİĭåŃĲ":6382,"ãĤŃãĥ£ãĥ³ãĥĹ":6383,"æ¨©ãĤĴ":6384,"ãĤ¸ãĤ§ãĤ¤":6385,"è³ĩæľ¬":6386,"åĩ¦åĪĨ":6387,"enter":6388,"ãĥĭãĥ¥ãĥ¼ãĤ¢ãĥ«":6389,"Ġèµ¤":6390,"ä¸ĢæĻĤ":6391,"åı¤åħ¸":6392,"ãĤĮãģ¦ãģĬãĤĬ":6393,"©ļ":6394,"å¹´éĢ£ç¶ļ":6395,"ãģ«åħ¥ãĤĭ":6396,"æıĲæĲº":6397,"å®Įåħ¨ãģ«":6398,"OT":6399,"ãĥĬãĥŁ":6400,"æ©ŁãģĮ":6401,"åĪ¥ãģ®":6402,"ãĥ¬ãĤ¯ãĤ·ãĥ§ãĥ³":6403,"ãĥ¦ãĥ¼ãĤ´":6404,"å°½":6405,"éĥ¨éķ·":6406,"åĮºåŁŁ":6407,"ãģ®ä¸Ńãģ«":6408,"æĦıèŃĺ":6409,"æĬ¼ãģĹ":6410,"74":6411,"ĠãĥĻ":6412,"ãģĹãģŁãģ®ãģ¯":6413,"ç¦Ħ":6414,"æĮĩåĲį":6415,"è°·å·Ŀ":6416,"èĳĹä½ľ":6417,"æľªæºĢ":6418,"ãĥĬãĤ¤ãĤ¿ãĥ¼":6419,"ãģ®æĢĿ":6420,"ãģ®ãģ§ãģĤãĤĭ":6421,"ãģ®æĿ±":6422,"æĻ©":6423,"ãģªãģ©ãģĮãģĤãĤĭ":6424,"åº¦ãģ¯":6425,"éĢ£çµĲ":6426,"ãĥİãĥ¼":6427,"ãģ®æģ¯åŃĲ":6428,"Ch":6429,"ĠèĹ¤":6430,"ãĤ«ãĥ¬":6431,"ãĥŀãĥĦ":6432,"ãĤıãģ¡":6433,"èĢħãģ§ãģĤãĤĭ":6434,"åĲĮä¸Ģ":6435,"æŃ³ãģ§":6436,"ãģĶãĤį":6437,"ãĤ¹ãĥļãĥ¼ãĤ¹":6438,"çİĩãģ¯":6439,"ä½ľæĽ²å®¶":6440,"åİļçĶŁ":6441,"Ġï¼ļ":6442,"ãĥĩãĥ¼":6443,"åħ¬ç«ĭ":6444,"ãĤ´ãĥª":6445,"çĦ¡ç·ļ":6446,"ãĤ¹ãĥĨãĥ¼ãĤ¯ãĤ¹":6447,"æĮ¯ãĤĬ":6448,"ãģ®åĴĮ":6449,"çľł":6450,"éĢ£æĲº":6451,"åģ´ãģ¯":6452,"ãģŁãģ¡ãģ®":6453,"ãĤĨãģį":6454,"ãĥįãĥĥãĥĪãĥ¯ãĥ¼ãĤ¯":6455,"ãĤĴéĸĭå§ĭãģĹãģŁ":6456,"ãģ®æĮĩå°İ":6457,"å°ıãģķãģª":6458,"ãģıãĤĵ":6459,"ãĥŁãĥ©":6460,"çľŁçĲĨ":6461,"ãģ«ãģ¤ãģĦãģ¦ãĤĤ":6462,"å£°åĦª":6463,"å·®ãģĹ":6464,"ç¥ŃãĤĬ":6465,"ç§ĺå¯Ĩ":6466,"è¨Ĥ":6467,"åĽ½å¢ĥ":6468,"ãĥĢãĥĸãĥ«":6469,"ç¶ļãģĳãģŁ":6470,"èĤ²æĪĲ":6471,"ãĤŃãĥ£ãĥ³ãĥĳãĤ¹":6472,"ãĤĨãģĨ":6473,"ass":6474,"è²´æĹı":6475,"ªç½®":6476,"Ġæĸĩ":6477,"ãģ«æ¯Ķãģ¹":6478,"ä¸ĸå¸¯":6479,"åķĵ":6480,"éģºè·¡":6481,"ãģ£ãģ¨ãĤĤ":6482,"å¤§åĴĮ":6483,"ãĤĪãģĦ":6484,"æ¬²":6485,"åı¤ãģı":6486,"Ġ1991":6487,"åĮ»å¸«":6488,"èħ°":6489,"éģłå¾ģ":6490,"ãģ¨ãģįãģ«":6491,"ãģ®å¿ĥ":6492,"ãģ«åŁºãģ¥ãģı":6493,"å¿«éĢŁ":6494,"ĠX":6495,"ãģ®éļĽãģ«":6496,"éģĩ":6497,"ç·©":6498,"ãģ®èº":6499,"éĥ½å¿ĥ":6500,"ãģĿãĤĮãģ¯":6501,"ory":6502,"ĠAn":6503,"åı¸é¦¬":6504,"ãģ«ä¼´ãģĨ":6505,"ãĥ¼ãĤ¸ãĥ§ãĥ³":6506,"ãģªãģ£ãģ¦":6507,"ãĤ¹ãĤ¤":6508,"ãĥŃãĥ¼ãĥ«":6509,"å®¶ãģ¯":6510,"ãĥķãĤ£ãĥ³":6511,"äºĶéĥİ":6512,"éłĪè³Ģ":6513,"å¯©æŁ»":6514,"ãĥĹãĥ¬ãĥŁãĤ¢ãĥł":6515,"ãģ¨ãģķãĤĮ":6516,"ãģ¦ãĤĭ":6517,"è¡Įãģı":6518,"ãĤªãĥ¼ãĤ¯":6519,"ãĥĹãĥ¼ãĥ«":6520,"ãģķãĤĮãĤĭãģĮ":6521,"å®Łæ¥Ń":6522,"èĩªåĪĨãģ®":6523,"æĨ¶":6524,"å¹´ãģĭãĤīãģ¯":6525,"å¤§éĩı":6526,"èĩªè¡ĽéļĬ":6527,"åįĹåĮĹ":6528,"ä½Ĳè³Ģ":6529,"èĮ¨":6530,"1959":6531,"èĳĹæĽ¸":6532,"æ®µéļİ":6533,"æİĪæ¥Ń":6534,"ãĥĵãĤ¸ãĥįãĤ¹":6535,"ãĤ¢ãĤ«ãĥĩãĥŁãĥ¼":6536,"ĠZ":6537,"ãģ®ãģ²ãģ¨ãģ¤":6538,"ãĤĴå¤ī":6539,"ãģ§ãģ«":6540,"æĸľ":6541,"ãģĻãĤĭåł´åĲĪ":6542,"æľ¨æĿĳ":6543,"éĩıãģ¯":6544,"text":6545,"EM":6546,"ãģªãģ©ãģ¨":6547,"çĽ¸è«ĩ":6548,"æĶ¹èī¯":6549,"ãģ«ç§»ç±į":6550,"ãģ§ãģ¯ãģªãģĦãģĭ":6551,"é»Ħéĩĳ":6552,"niversity":6553,"ãģ«æ¬¡":6554,"ãģŁãģĳ":6555,"ãĤĴçĻºå£²":6556,"ãĥĪãĥ¼ãĥĬãĥ¡ãĥ³ãĥĪ":6557,"æĸ¬":6558,"ä¸Ģäºº":6559,"æĻĤçĤ¹ãģ§":6560,"å¸Ĥå½¹æīĢ":6561,"ãĥĬãĥ³":6562,"æĪ¦ãģĦ":6563,"åĭķãģį":6564,"çĽ®æ¨Ļ":6565,"åº¦ãģĮ":6566,"ãĥĪãĥ«ãĤ³":6567,"å¹´åº¦ãģ®":6568,"åı¸ä»¤å®ĺ":6569,"äº¤éŁ¿æĽ²ç¬¬":6570,"ãĤĦãģĮãģ¦":6571,"å¤§éĩİ":6572,"ãĥ³ãĥ¢":6573,"ãĥĵãĥ¥":6574,"è»Ĭä½ĵ":6575,"éĽ»æ±ł":6576,"ãĥĩãĤ£ãĥ¬ãĤ¯ãĤ¿ãĥ¼":6577,"éħ¸åĮĸ":6578,"ä¼¸ãģ³":6579,"ãĤĴçį²å¾ĹãģĹãģŁ":6580,"ãģ¨æĶ¹ç§°":6581,"ãģ«çĿĢ":6582,"ãĤĴå°İåħ¥":6583,"çĶ¨éĢĶ":6584,"å°ıåŃ¦":6585,"äº¬éĥ½å¸Ĥ":6586,"éĺ²å¾¡":6587,"Ġ1988":6588,"ç¥ŀå¥Īå·Ŀ":6589,"æľĪãģ¾ãģ§":6590,"ãģĹãģ¦ãģĦãģı":6591,"è»Ł":6592,"æĪ¦ãģ¯":6593,"ãĥŁãĥĥãĤ·ãĥ§ãĥ³":6594,"ãģ§ãģįãģļ":6595,"ãĥŃãĥ¼ãĤ«ãĥ«":6596,"ãĤŃãĤ·ãĤ³":6597,"ãĤĭãģŁãĤģ":6598,"ãĤªãĥ¼ãĥĪ":6599,"åħ¨éĽĨ":6600,"æĿ¾ç«¹":6601,"ãģ«ãĤĤãģĭãģĭãĤıãĤīãģļ":6602,"1948":6603,"ãĥķãĥ©ãĥ³ãĤ¯":6604,"æ°ĳä¸»åħļ":6605,"Ġé»Ĵ":6606,"ãģķãģ¨":6607,"å¼ĵ":6608,"ãĤªãĥļ":6609,"éł»":6610,"çī©ãģ¯":6611,"åħĥãĢħ":6612,"ort":6613,"ãģªãĤīãģļ":6614,"å¿ħè¦ģãģª":6615,"æĹŃå·Ŀ":6616,"ãģ®æĺłçĶ»":6617,"å®ļæĻĤåĪ¶":6618,"AY":6619,"ãģ§ä½¿çĶ¨":6620,"ãĤ¦ãĥ³ãĥĪ":6621,"çıł":6622,"ç§ĳå¤§åŃ¦":6623,"è©²å½ĵ":6624,"Ġ#":6625,"ĠåĮĹæµ·éģĵ":6626,"ãģ«æ¸¡":6627,"å¹¾":6628,"åĳ½åĲį":6629,"Ġ1986":6630,"åįĺãģ«":6631,"ä¸Ģçķª":6632,"ãĥĳãĥ¯":6633,"è¾Ľ":6634,"éĽ»åĬĽ":6635,"æ¯İæĹ¥":6636,"æĸ°èģŀç¤¾":6637,"ãĥŃãĥ³ãĥīãĥ³":6638,"ãģĻãģªãĤıãģ¡":6639,"ĠãĤ¬":6640,"Ġæ£®":6641,"ãĥªãĥĴ":6642,"ãģĨãģĪ":6643,"ãĤĴæ·":6644,"çµĮç·¯":6645,"ãĥªãĤ¢ãĥ³":6646,"ä¸ĢèĪ¬çļĦ":6647,"ä¾¡åĢ¤":6648,"ç¤¾ä¼ļä¸»ç¾©":6649,"éĢ±åĪĬ":6650,"ãģ®æĬķ":6651,"ãģ®çµĲæŀľ":6652,"ãĤ¤ãĥ³ãĥĩãĤ£":6653,"ãģįãĤĬ":6654,"ãĥ¡ãĥŃ":6655,"ãĥĸãĥ³":6656,"ãĤ´ãĥ¼":6657,"æŃ¦èĶµ":6658,"tern":6659,"è¨ĵç·´":6660,"ãģķãĤĴ":6661,"çĶ°å·Ŀ":6662,"ä¸īèı±":6663,"éģĭè³ĥ":6664,"å½¢çĬ¶":6665,"ãĥĲãĤ¹ãĤ±ãĥĥãĥĪ":6666,"ãĥ¼ãĥŀãĥĭãĤ¢":6667,"ãģ®ãģ¿ãģ§":6668,"æĽ´æĸ°":6669,"ãĥ¶æľĪ":6670,"æ¡ĪåĨħ":6671,"ãĤĴçĶ¨ãģĦãģ¦":6672,"çŁŃæľŁå¤§åŃ¦":6673,"ĠĠĊ":6674,"ãģ¨åĲį":6675,"ãĤ³ãĥŀ":6676,"åĲĮå£«":6677,"ä¸ĭãģ«":6678,"è¦³éŁ³":6679,"left":6680,"å²©æ³¢":6681,"ãģ®å°Ĥ":6682,"çĪĨçĻº":6683,"ãģĮä¸»":6684,"ãģĻãģĳ":6685,"ãģ¨ãģĹãģ¦ãģĦãģŁ":6686,"ãĥľãĥ«":6687,"ãĥĨãĥ¬ãĥĵãĤ¢ãĥĭãĥ¡":6688,"ä¸¡ç·¨æĪĲ":6689,"ãĤ¤ãĥ«ãĤ¹":6690,"æ¶Īè²»":6691,"è®ĥ":6692,"ãģ«ãģĹ":6693,"ä¼Ĳ":6694,"äººãĢħ":6695,"ãģĪãĤĤãĤĵ":6696,"ãģ¸ç§»":6697,"æł¼éĹĺ":6698,"æĤ²":6699,"ãĤªãĤ¹ãĥŀãĥ³":6700,"io":6701,"æ«":6702,"Ġg":6703,"ãĥĵãĥĥãĤ°":6704,"åĮĸãģĹ":6705,"åĮºåĪĨ":6706,"é¦Ļå·Ŀ":6707,"ç£¨":6708,"ãģĦãģĭ":6709,"ãģĻãĤĭãĤĤ":6710,"ãĥŀãĥīãĥª":6711,"ãĤŃãĤ¢":6712,"çı¾è±¡":6713,"å£²ãĤĬ":6714,"ãĥķãĤ©ãĥ¼ãĥŀ":6715,"ãģ®å¼ķ":6716,"å¯ĦãĤĬ":6717,"ç¾¤é¦¬":6718,"ãĥ¼ãĥĨãĤ£ãĤ¹ãĥĪ":6719,"ç¨²çĶ°":6720,"AB":6721,"ãģ«ä½ı":6722,"ãģĹãģŁåł´åĲĪ":6723,"ãĥĲãĤ¹ãĤ¿":6724,"ãĥģãĥĥãĤ¯":6725,"æı¡":6726,"åıĸæī±":6727,"èĢĥãģĪãĤĭ":6728,"ãģ¯ä»¥ä¸ĭãģ®éĢļãĤĬ":6729,"ĠçľŁ":6730,"ĴåĲ¦":6731,"ãĥĥãĤ¿ãĥ¼":6732,"ãģķãĤĮãĤĭãģ¨":6733,"æķ°åŃ¦":6734,"ãģ®æķĻèĤ²":6735,"ãģ¤ãģ¾ãĤĬ":6736,"è²¿æĺĵ":6737,"é¦¬åł´":6738,"ç®¡å¼¦":6739,"èĲĮ":6740,"1949":6741,"ä½İä¸ĭ":6742,"æ¨Ļé«ĺ":6743,"éħ¸ç´ł":6744,"ãģ¯ãģĿãģ®":6745,"ãĥ«ãĥ¼ãĥŀãĥĭãĤ¢":6746,"è¨¼æĺİ":6747,"åĩºçīĪç¤¾":6748,"ãĥģãĥ£ãĥ³ãĥĶãĤªãĥ³ãĤºãĥªãĥ¼ãĤ°":6749,"éģŃ":6750,"æĹ¥æľ¬åĽ½åĨħ":6751,"å½ĵãģŁãĤĬ":6752,"ç¨¼":6753,"åĭĻåĵ¡":6754,"éĽĨä¸Ń":6755,"ãĢħãģ¨":6756,"ãĤ·ãĤ¢ãĤ¿ãĥ¼":6757,"éģİç¨ĭ":6758,"ç¦ıå²¡çľĮ":6759,"åįĥèĳīçľĮ":6760,"ãģ«ä»ķ":6761,"ãģ¨çµĲå©ļ":6762,"ãĥľãĥĩãĤ£":6763,"å°ĳãģĹ":6764,"åĲĮæ§ĺãģ«":6765,"UM":6766,"æª":6767,"ãģĮå®ĮæĪĲ":6768,"ãĤĤãĤĬ":6769,"æľĪãĤĪãĤĬ":6770,"ãĥŃãĥ³ãĤ°":6771,"éº¦":6772,"ãĤĴæĭħ":6773,"åĵ²åŃ¦":6774,"ran":6775,"ĠåĽ½":6776,"ãģ®æĴ":6777,"åĨĬ":6778,"ãĥĹãĥ¬ãĤ¹":6779,"æ¥ŃèĢħ":6780,"çī©çĲĨ":6781,"ãĥıãĥ¯ãĤ¤":6782,"ãĥĨãĤ£ãĥĸ":6783,"éľĢ":6784,"åıĹé¨ĵ":6785,"èĪªè·¯":6786,"ãĤĴçĶ¨ãģĦãĤĭ":6787,"åĲ¹ãģį":6788,"ãĤ®ãĥªãĤ·ãĤ¢":6789,"åħµåº«çľĮ":6790,"æĦĽçŁ¥çľĮ":6791,"SF":6792,"ãģĮçĻ»åł´":6793,"ãģĭãģ£ãģ¦":6794,"ãĥ³ãĥĭ":6795,"è¡Įãģ£ãģŁ":6796,"éķ·ãģ¯":6797,"åĽ£æ³ķäºº":6798,"ç¨®ãģ®":6799,"æ¡ĳ":6800,"ç²Ĵ":6801,"çķªåı·ãģ¯":6802,"èĴ¸":6803,"NE":6804,"ãģ®éļĽ":6805,"ãģ¦ãģĬãĤĬ":6806,"ãģĤãģĦ":6807,"ãĤĤãģªãģı":6808,"åĭ§":6809,"äºĭæħĭ":6810,"ãĥ¢ãĥİ":6811,"ãĥĨãĤ£ãĥ³ãĤ°":6812,"ä»ĺãģĳãģŁ":6813,"ãģĻãģ¹ãģį":6814,"ãĤ³ãĥŁãĥ¥ãĥĭãĥĨãĤ£":6815,"ry":6816,"Ġè±Ĭ":6817,"ãģ¨ãĤĬ":6818,"å¹´åīį":6819,"ãĤ¢ãĥ¬":6820,"ãģĬãģĵ":6821,"ãģ¸åĲĳ":6822,"ãĤ±ãĥ¼ãĤ·ãĥ§ãĥ³":6823,"ç¾İè¡ĵé¤¨":6824,"éĥ½éģĵåºľçľĮ":6825,"Ġå®®":6826,"ãĤĴéĸĭåĤ¬":6827,"ä¿º":6828,"ãĥĢãĤ¦ãĥ³":6829,"1957":6830,"çĮª":6831,"æĳĤ":6832,"ç¿»è¨³":6833,"ian":6834,"Ġãĥĩ":6835,"åľŃ":6836,"ãģ®æŀ":6837,"ãĥĲãĥª":6838,"å¥´":6839,"å®ļãĤģãĤĭ":6840,"ãģĿãĤĮãģ¾ãģ§":6841,"èĳĹåĲį":6842,"ãģ®å¯¾è±¡":6843,"ãģķãģªãģĦ":6844,"å±±é§ħ":6845,"éķ·ãģı":6846,"æĬµ":6847,"å§ĭãĤģãģŁ":6848,"å´ĩ":6849,"ãĤ·ãĥ£ãĥ¼":6850,"å¢ĹåĬł":6851,"ãĥ¼ãĥķãĤ§":6852,"ure":6853,"ãģ¯ãģªãģı":6854,"ãĤĴå½¢æĪĲ":6855,"ãģ§è¡ĮãĤıãĤĮãģŁ":6856,"ãģĮãģªãģı":6857,"ãĥĹãĤ¹":6858,"çĶ°æĿĳ":6859,"ãĥŁãĥį":6860,"ä¾į":6861,"çŁ³æ²¹":6862,"çĮĽ":6863,"ãģ®ãĥ¡ãĥ³ãĥĲãĥ¼":6864,"ãĤĴè¿½":6865,"ãĥªãĥĭãĥ¥ãĥ¼ãĤ¢ãĥ«":6866,"åĮł":6867,"ãĤģãĤīãĤĮ":6868,"åĽ½çİĭ":6869,"éĥ¨åĵģ":6870,"ä¿Ŀæľī":6871,"çĭĤ":6872,"æ±ŁæĪ¸æĻĤä»£":6873,"ãĥ©ãĤ°ãĥĵãĥ¼":6874,"ä¾Ŀéł¼":6875,"âĶģ":6876,"Ġãĥī":6877,"Ġä¼Ĭ":6878,"ãĥ«ãĥ¼":6879,"ãĥ«ãĤ¤ãĤ¹":6880,"éŁ³å£°":6881,"ãģ®å½ĵ":6882,"çŀ¬":6883,"ãģ®èº«":6884,"94":6885,"ies":6886,"ãģ®ç·ı":6887,"ä¸Ī":6888,"éĩĳèŀį":6889,"ä»ĬæĹ¥":6890,"Ġæµ·":6891,"ãĤ¹ãĤ¦ãĤ§":6892,"ãĥ¡ãĤŃãĤ·ãĤ³":6893,"éģ¸æĬľ":6894,"è²·åıİ":6895,"ãĥŀãĥīãĥªãĥ¼ãĥī":6896,"ãģ«éĻĲ":6897,"ãģ¦ãĤĵ":6898,"ãģĮé«ĺ":6899,"ãĤ¦ãĥĪ":6900,"Ġ1985":6901,"ãģ®åįĺ":6902,"ãĤĴå¾ĹãģŁ":6903,"å¹¼ç¨ļ":6904,"èį·çī©":6905,"colspan":6906,"ãģ®ãĤĤ":6907,"ãģĮæĭħå½ĵ":6908,"ãģĪãĤīãĤĮ":6909,"çĽ®ãģ¯":6910,"ãĥĺãĥĵãĥ¼":6911,"èī¯ãģĦ":6912,"ãģ®æĶ¯éħį":6913,"ãģĮéĸĭå§ĭ":6914,"ãĥªãĤ³":6915,"çĶŁæģ¯":6916,"ãĥŁãĤ¹ãĥĨ":6917,"ä½ĵéĩį":6918,"åĮºåĪ¥":6919,"ãĤ²ãĤ¤":6920,"èĹĿ":6921,"è¨ĢãģĦ":6922,"ä»ĺãģĳãĤĭ":6923,"æħİ":6924,"çĻºå£²çµĤäºĨ":6925,"åı¯èĥ½ãģ§ãģĤãĤĭ":6926,"æĹħé¤¨":6927,"ãĥĸãĥ©ãĤ¸ãĥ«":6928,"ä½ķåº¦":6929,"ãĤ¢ãĤ¯ãĤ·ãĥ§ãĥ³":6930,"ãģ®èģ·":6931,"ãĤ¢ãĥ¬ãĤ¯ãĤµ":6932,"èĥ¸":6933,"ãĤŃãĥ£ãĤ¹ãĤ¿ãĥ¼":6934,"æľ«æľŁ":6935,"çĻºè¡¨ãģĹãģŁ":6936,"èĩªèº«ãģĮ":6937,"ãĤµãĥĥãĤ«":6938,"ãĤĴçµĮçĶ±":6939,"å·¨äºº":6940,"éįµ":6941,"åĩ½é¤¨":6942,"æ¬¡ç¬¬ãģ«":6943,"ãĤĴçµĤ":6944,"ãĤĴåįĴæ¥Ń":6945,"ãģĻãģ§ãģ«":6946,"æĬĳ":6947,"åİŁçĶº":6948,"ä½įãģ§":6949,"åıİå®¹":6950,"åĪ¤æĺİ":6951,"è¡Ģæ¶²":6952,"æĻ®éĢļç§ĳ":6953,"Ġä¸ŃåĽ½":6954,"ãĥ»ãĥ»":6955,"æĹ¦":6956,"ãĥ¯ãĤ¤ãĥĪ":6957,"æ³ķç¬¬":6958,"å¢³":6959,"ä¾µæĶ»":6960,"æ¸ĭè°·":6961,"åĽ½éīĦåĪĨåī²æ°ĳåĸ¶åĮĸãģ«ãĤĪãĤĬ":6962,"CE":6963,"ãĤĴåĤĻ":6964,"ãģªãģŁ":6965,"ãĥĥãĤ¿":6966,"ãĤĴæĢ":6967,"è¾°":6968,"åĥ§":6969,"ç´ļçİĭåº§":6970,"æľĢçµĤçļĦãģ«":6971,"çĥı":6972,"TS":6973,"ãĤ«ãĥĥãĥĪ":6974,"å·ĿçĶº":6975,"çı¾åľ¨ãĤĤ":6976,"è¦³å®¢":6977,"æ¢ģ":6978,"ç¿Įå¹´":6979,"æĲºå¸¯":6980,"82":6981,"JCT":6982,"ãģ®éĸĭçĻº":6983,"ãĥŀãĤ¹ãĤ¿ãĥ¼":6984,"ä¸Ĭéĩİ":6985,"çĤ¹ãĤĴ":6986,"Ġ1983":6987,"1958":6988,"ãģ£ãģ½":6989,"ãĥĹãĥŃéĩİçĲĥéģ¸æīĭ":6990,"å¹¼ç¨ļåľĴ":6991,"ãģ®è»į":6992,"ãģ«æ®ĭ":6993,"äº«":6994,"ãĤ¤ãĥ©ãĤ¹ãĥĪ":6995,"æłĥ":6996,"ãĥĭãĥ£":6997,"ãĥĬãĥĵ":6998,"åĲįãģ§":6999}